<pad>
</s>
<unk>
<0x00>
<0x01>
<0x02>
<0x03>
<0x04>
<0x05>
<0x06>
<0x07>
<0x08>
<0x09>
<0x0A>
<0x0B>
<0x0C>
<0x0D>
<0x0E>
<0x0F>
<0x10>
<0x11>
<0x12>
<0x13>
<0x14>
<0x15>
<0x16>
<0x17>
<0x18>
<0x19>
<0x1A>
<0x1B>
<0x1C>
<0x1D>
<0x1E>
<0x1F>
<0x20>
<0x21>
<0x22>
<0x23>
<0x24>
<0x25>
<0x26>
<0x27>
<0x28>
<0x29>
<0x2A>
<0x2B>
<0x2C>
<0x2D>
<0x2E>
<0x2F>
<0x30>
<0x31>
<0x32>
<0x33>
<0x34>
<0x35>
<0x36>
<0x37>
<0x38>
<0x39>
<0x3A>
<0x3B>
<0x3C>
<0x3D>
<0x3E>
<0x3F>
<0x40>
<0x41>
<0x42>
<0x43>
<0x44>
<0x45>
<0x46>
<0x47>
<0x48>
<0x49>
<0x4A>
<0x4B>
<0x4C>
<0x4D>
<0x4E>
<0x4F>
<0x50>
<0x51>
<0x52>
<0x53>
<0x54>
<0x55>
<0x56>
<0x57>
<0x58>
<0x59>
<0x5A>
<0x5B>
<0x5C>
<0x5D>
<0x5E>
<0x5F>
<0x60>
<0x61>
<0x62>
<0x63>
<0x64>
<0x65>
<0x66>
<0x67>
<0x68>
<0x69>
<0x6A>
<0x6B>
<0x6C>
<0x6D>
<0x6E>
<0x6F>
<0x70>
<0x71>
<0x72>
<0x73>
<0x74>
<0x75>
<0x76>
<0x77>
<0x78>
<0x79>
<0x7A>
<0x7B>
<0x7C>
<0x7D>
<0x7E>
<0x7F>
<0x80>
<0x81>
<0x82>
<0x83>
<0x84>
<0x85>
<0x86>
<0x87>
<0x88>
<0x89>
<0x8A>
<0x8B>
<0x8C>
<0x8D>
<0x8E>
<0x8F>
<0x90>
<0x91>
<0x92>
<0x93>
<0x94>
<0x95>
<0x96>
<0x97>
<0x98>
<0x99>
<0x9A>
<0x9B>
<0x9C>
<0x9D>
<0x9E>
<0x9F>
<0xA0>
<0xA1>
<0xA2>
<0xA3>
<0xA4>
<0xA5>
<0xA6>
<0xA7>
<0xA8>
<0xA9>
<0xAA>
<0xAB>
<0xAC>
<0xAD>
<0xAE>
<0xAF>
<0xB0>
<0xB1>
<0xB2>
<0xB3>
<0xB4>
<0xB5>
<0xB6>
<0xB7>
<0xB8>
<0xB9>
<0xBA>
<0xBB>
<0xBC>
<0xBD>
<0xBE>
<0xBF>
<0xC0>
<0xC1>
<0xC2>
<0xC3>
<0xC4>
<0xC5>
<0xC6>
<0xC7>
<0xC8>
<0xC9>
<0xCA>
<0xCB>
<0xCC>
<0xCD>
<0xCE>
<0xCF>
<0xD0>
<0xD1>
<0xD2>
<0xD3>
<0xD4>
<0xD5>
<0xD6>
<0xD7>
<0xD8>
<0xD9>
<0xDA>
<0xDB>
<0xDC>
<0xDD>
<0xDE>
<0xDF>
<0xE0>
<0xE1>
<0xE2>
<0xE3>
<0xE4>
<0xE5>
<0xE6>
<0xE7>
<0xE8>
<0xE9>
<0xEA>
<0xEB>
<0xEC>
<0xED>
<0xEE>
<0xEF>
<0xF0>
<0xF1>
<0xF2>
<0xF3>
<0xF4>
<0xF5>
<0xF6>
<0xF7>
<0xF8>
<0xF9>
<0xFA>
<0xFB>
<0xFC>
<0xFD>
<0xFE>
<0xFF>
▁
.
,
a
s
-
e
i
:
o
▁de
t
)
n
u
▁(
/
y
'
en
и
l
▁in
m
▁la
com
d
r
▁the
▁to
▁en
_
?
、
’
▁na
er
;
c
▁A
es
▁v
▁di
...
▁se
▁of
▁and
。
▁|
а
!
▁на
"
(
▁"
k
▁в
b
▁c
g
▁que
▁S
an
▁–
▁www
е
p
▁m
▁sa
3
x
▁b
▁d
▁for
▁1
h
▁un
▁I
os
2
▁is
▁le
▁و
▁do
،
▁at
ed
te
ing
in
=
▁da
▁on
▁M
1
у
▁đ
▁2
A
as
▁“
z
é
▁el
▁P
▁B
”
▁T
f
de
à
ng
▁C
ar
▁og
▁за
▁no
ه
na
।
v
re
▁3
▁h
▁et
▁je
j
▁il
▁#
▁с
і
▁be
://
▁2018
▁per
▁th
▁si
я
▁z
▁die
S
▁te
▁не
▁ال
D
▁«
ne
ی
da
▁k
|
4
о
▁K
▁du
▁w
▁E
▁me
is
▁are
▁4
í
▁p
ta
の
C
▁по
▁del
▁ka
5
et
▁5
▁D
▁ja
ы
▁V
▁para
»
","
us
]
▁al
▁N
▁der
▁O
on
ة
▁да
▁H
▁ne
8
▁con
6
B
▁er
ul
▁by
▁у
▁yang
▁L
▁De
0
▁an
ja
­
▁van
▁ה
▁za
】【
le
▁dan
em
á
▁und
al
è
▁10
to
ي
E
ka
▁...
w
▁på
).
ly
▁po
▁The
7
":"
▁G
T
▁[
la
的
li
9
▁ma
▁0
▁des
▁med
▁til
▁La
kan
it
▁ki
no
),
м
َ
▁در
▁so
M
▁som
▁ke
▁with
▁F
ni
▁su
▁και
▁por
▁les
▁you
si
at
ti
id
▁av
▁as
▁ya
▁ve
▁den
▁R
▁ב
▁that
▁tr
は
が
do
N
ia
\
ce
▁om
й
▁се
F
&
L
▁م
▁&
▁د
▁det
▁от
ó
▁به
▁pa
▁من
K
на
P
▁ha
V
▁ch
▁In
▁W
▁„
I
▁var
▁ni
se
▁6
ra
ل
▁una
を
▁في
▁ta
▁http
COM
am
ה
▁U
R
▁з
▁re
▁op
ن
т
▁har
ο
H
“
ek
▁ag
▁ng
▁los
{
▁och
▁2017
▁WWW
に
▁ku
ir
▁pe
un
х
um
▁2019
je
▁it
▁до
을
ʻ
www
▁ب
▁li
но
▁7
▁»
▁ir
▁kan
G
▁het
▁ho
▁par
▁vi
・
で
▁20
▁të
▁8
▁or
ا
م
ie
▁В
ت
ом
W
▁was
την
▁के
▁En
▁af
▁12
me
O
nya
ma
의
ki
▁cu
μ
▁No
▁2016
▁es
▁een
ки
▁mi
Ð
10
▁—
ku
":
▁J
px
일
▁ל
ни
>
▁15
▁‘
▁ver
▁um
▁man
▁ko
+
▁nh
η
ка
ny
α
▁od
▁wa
▁ge
ов
н
ten
▁С
▁מ
▁ph
▁>
▁men
▁ber
▁του
▁از
il
ch
▁bir
▁το
▁να
el
▁from
▁nu
ko
st
ë
▁lo
ủ
▁az
▁dem
mi
▁va
▁att
▁this
ur
▁nie
#
▁gi
▁tu
di
å
ات
or
▁em
と
ת
▁Na
▁am
▁из
▁11
▁pro
▁în
▁30
▁che
для
▁Z
ru
▁can
ya
▁ang
ai
▁f
ga
▁+
za
▁Se
이
ю
▁mit
ca
▁all
▁של
ke
",
°
▁tak
ने
▁bu
▁bo
▁zu
ą
ή
▁pour
▁Le
[
▁ت
▁ter
▁با
ci
▁és
co
▁your
om
▁9
▁کے
▁not
их
▁к
▁din
im
q
ă
▁have
▁mai
▁{
▁pre
▁we
▁Re
▁El
▁he
ς
▁•
và
Y
▁von
▁là
ې
▁ar
▁16
▁las
ú
app
▁کی
▁au
▁при
U
th
▁}
▁2014
▁ba
be
▁18
X
▁2015
▁2013
▁(1)
ой
▁14
▁qu
ِ
ha
▁می
man
▁met
are
▁nga
▁das
▁της
‘
▁है
ية
то
ь
va
ba
】
▁bi
日
한
▁24
ر
ى
▁est
▁में
lar
▁2012
▁dengan
年
▁13
▁με
▁untuk
▁Y
);
▁ini
▁ש
▁ist
ve
▁ا
▁im
this
est
▁online
न
▁А
▁sur
J
▁У
ך
은
ado
▁ti
ہ
에
ri
▁för
tu
▁25
lo
」
den
%
▁א
د
▁את
▁có
▁pas
="
▁ein
ou
▁mu
月
▁что
ого
*
ի
ים
р
▁will
▁fa
net
▁για
д
ê
▁*
ُ
ada
▁qui
ới
г
▁over
▁17
▁από
ها
,"
ā
▁را
▁со
та
▁ser
л
que
▁так
▁про
ể
ok
▁To
▁σ
▁და
가
ό
ción
ak
ị
▁که
▁non
ן
▁је
ro
「
ag
ان
على
▁आ
ите
да
с
▁się
▁€
▁mo
▁است
▁·
ý
▁این
Р
▁if
▁für
не
▁como
▁X
▁ca
▁är
ní
▁19
▁co
▁כ
▁100
ere
▁að
wa
▁cho
▁voor
▁2020
▁میں
و
▁की
ji
▁Đ
も
▁pri
▁este
▁2011
▁ce
▁О
▁է
ik
ት
▁21
는
ку
ж
ے
▁во
ç
ে
п
र
Z
▁од
▁ob
고
▁her
▁go
11
ã
▁που
▁km
▁та
ий
ning
▁në
ей
▁pod
▁50
ų
▁auf
mga
ge
var
ות
ْ
▁أ
▁Di
를
▁22
▁1.
▁са
by
ov
▁An
aj
ਨ
▁ou
▁så
га
▁К
ho
▁my
html
▁une
к
ის
▁<
ze
ш
▁https
function
ang
ले
▁то
ب
▁На
ant
▁को
С
▁ei
ọ
ej
▁fra
able
▁Vi
@
▁کو
▁care
ky
▁son
▁как
ть
▁2010
▁sem
▁has
▁Be
▁کا
▁23
▁jo
ất
dan
ів
▁Sex
ên
▁dans
▁او
ste
在
ം
▁dari
▁س
12
go
▁Die
▁fi
▁های
▁вы
ً
ele
▁על
ი
▁more
▁till
▁ay
▁कर
▁ra
▁For
ம்
им
▁الم
ção
和
же
mm
ა
ს
ina
jo
ता
ter
ም
20
▁Per
https
▁И
б
ли
ס
▁Si
·
ен
▁dat
ата
▁ut
88
को
や
ò
és
ì
▁Det
ler
ả
▁Po
ных
▁Hotel
org
ment
▁aan
nie
大
ad
și
▁ny
▁up
▁Al
ন
▁Bu
ita
ại
▁but
ን
▁як
▁اور
▁$
name
▁से
▁का
▁کر
▁ikke
š
http
▁nem
▁alle
▁Je
oj
ά
jstree
ów
pentru
du
▁چ
▁په
mu
ngu
null
▁об
▁26
▁iz
lik
sk
官网
▁PM
▁ف
▁28
".
ž
人
era
मा
▁ו
▁پر
ের
▁2009
▁Home
▁že
▁meg
下载
▁Un
ਲ
”,
ers
sta
ć
('
от
▁për
▁27
▁dhe
▁dalam
ab
("
▁ju
▁2.
né
▁Ma
color
中
▁meng
pa
các
▁als
ם
der
▁nicht
▁Du
▁τα
mo
▁اس
로
ї
▁የ
ana
ד
▁ح
ę
ự
▁Il
▁এ
▁plus
nu
도
▁हो
30
▁@
▁40
です
ình
▁ai
▁или
ем
▁kwa
▁ik
ju
ах
▁σε
ạ
ố
▁ко
nh
ột
των
Ñ
ở
€
те
▁Do
▁mais
ben
եւ
র
▁अ
▁М
$
▁más
▁ale
▁לא
ä
▁không
▁все
▁די
▁eller
▁Co
▁Da
Q
‚
ạn
ные
▁ga
▁سے
з
▁eine
▁dos
content
ation
án
ế
▁Online
ी
ል
▁We
ine
ụ
▁За
}.
▁под
▁kh
ần
▁mal
ig
в
ão
được
ata
ndo
ban
了
▁раз
das
▁По
–
ು
▁Sie
ਹ
ня
po
top
003
ить
ặ
jpg
▁//
▁þ
から
au
▁ad
▁min
15
ам
ấ
ut
ye
ет
▁sin
▁out
min
▁г
▁tidak
}
▁uma
▁ich
▁kaj
ок
▁ji
▁נ
▁New
▁Ka
ти
▁29
▁በ
ны
और
▁છે
trong
▁Q
▁one
ين
▁هم
一
iện
cn
ك
י
hogy
cm
text
▁má
zi
▁eta
▁It
▁ў
auch
▁about
▁су
ат
della
data
▁או
ẹ
0%
ों
line
if
▁sich
ного
ent
▁jest
▁ਅ
▁pada
ến
▁our
▁yn
▁Pro
ừ
false
▁lu
▁أن
ই
ਤੇ
▁ما
【
±
▁ri
ия
▁mer
ty
▁είναι
▁بر
▁آ
▁had
지
▁post
ла
▁ва
){
ая
▁may
▁আ
ación
mos
▁это
ना
な
16
ش
▁ap
uri
▁bei
▁han
▁π
▁στο
快三
▁%
ν
▁DE
▁dé
▁mà
18
▁Т
24
▁itu
نے
ně
▁time
ot
ului
▁ग
ال
▁să
vous
uje
τις
ez
▁like
ver
س
ry
▁לה
url
ਰ
”.
▁As
▁ze
▁aj
▁Ja
▁akan
نا
ach
ते
ung
ες
ala
ία
ට
▁П
▁مع
ề
width
▁This
hu
▁що
▁vor
▁сво
▁vy
hi
▁3.
ами
che
bar
ک
分
ini
▁2008
`
ton
▁zo
▁آن
dos
ộ
▁Za
▁Th
▁Me
fa
▁Li
▁sau
bet
val
!!
ida
▁So
τον
▁få
▁sex
ը
avec
ч
▁come
עם
ân
▁aus
▁Ch
▁any
ز
▁ہے
pdf
ù
which
是
ổ
▁Mar
▁new
wp
tas
ที่
▁şi
he
▁video
ਦੀ
▁AM
ید
":{"
ር
▁Δ
mente
▁Sa
്
.”
▁egy
land
for
▁수
ů
▁dit
▁Episode
').
▁(2)
▁pm
তে
▁Pa
link
▁ج
▁स
ll
13
▁Д
▁bis
dy
font
ati
post
ම
▁पर
▁ਦੇ
▁Ke
▁Ko
av
ие
ải
ando
▁Er
ile
不
▁Ver
▁Te
00
시
▁이
과
し
î
▁31
▁also
ਦਾ
ной
ż
ும்
▁【
에서
ate
▁sobre
their
▁60
ਤ
▁dia
▁ви
▁આ
기
▁Men
▁data
ке
ный
▁just
▁wy
ản
22
▁θα
них
ый
▁mas
14
▁gratis
有
▁his
▁juga
uk
▁On
ử
nt
上
▁پ
▁бол
men
▁Ne
ल
क
yo
▁free
17
다
▁бы
ל
rá
▁ਵਿ
▁Es
ం
ում
▁You
▁ان
amente
ई
19
▁від
▁Pe
▁He
▁Б
▁სა
▁người
ّ
ය
we
▁कि
го
▁uz
block
cc
▁cm
son
▁Der
pe
▁yo
ف
ầu
快
▁get
ức
\/
▁kun
य
▁entre
▁amb
lu
وں
▁عن
برای
▁į
▁без
~
ía
де
平台
ስ
get
ami
bo
zione
▁under
त
▁б
▁için
ون
▁San
lig
??
▁design
ista
▁zijn
â
▁pu
▁па
ệ
fi
▁ק
▁че
cia
▁́
gi
▁jeg
网站
▁və
ông
▁إل
dimulyo
▁وال
▁Ta
21
해
ợ
któr
height
ди
▁todos
▁அ
▁web
ја
Posted
리
tur
▁tot
ite
▁nas
▁bez
▁nos
网
the
▁Les
tor
ग
ના
ний
ਈ
▁film
▁но
1⁄2
▁Post
का
▁não
ran
▁ж
▁mem
ні
▁hai
▁ਹੈ
ਚ
ος
▁alla
ale
▁Man
asi
▁Mi
nin
▁ol
ske
ές
ва
ón
ና
__
▁ved
▁By
28
ego
▁May
▁mar
25
ע
▁jak
его
▁site
▁خ
▁bij
▁dar
ব
ט
▁tai
▁że
▁Σ
인
my
▁porno
č
▁Ha
br
%3
▁St
ે
ting
▁ब
▁hi
▁Ho
»,
▁ба
ых
▁τους
▁And
▁Tr
▁అ
ند
ách
▁mis
▁环亚
».
tes
les
▁Г
ግ
▁ak
ũ
ah
ын
یت
▁کہ
ais
▁2007
ực
▁vil
ේ
▁News
ende
国际
ska
ato
нь
ô
ੱ
▁atau
up
έ
ון
▁auto
nes
▁who
▁uit
tar
▁adalah
장
ए
▁4.
bi
▁Ge
▁ها
▁አ
▁ہو
ết
ದ
ito
ของ
▁û
▁jag
▁그
«
▁Con
per
▁ré
▁Air
▁एक
ée
する
▁Free
ời
▁naj
▁हैं
▁што
ssa
▁ε
agus
ť
ali
어
▁other
ist
IB
ş
▁Не
when
က
▁q
▁tra
ari
ktor
ят
▁All
▁kai
▁τ
elle
▁best
ն
sen
ع
ு
ጥ
▁sind
▁Para
des
▁τη
▁لا
▁Ki
▁skal
лар
ona
size
▁Р
wọn
php
ක්
ਨੂੰ
▁June
▁wat
▁parte
је
ला
ner
서
▁大发
....
▁200
që
▁pi
하는
ları
tan
ج
▁está
zo
▁̧
▁си
▁pag
zu
and
є
ная
▁inte
lah
▁wie
ц
50
▁oder
து
ህ
▁бар
ကို
!!!
ма
ứ
én
▁sie
म
bu
▁iš
ው
▁ع
ara
▁niet
ante
ren
iều
кој
hững
();
▁hat
▁ab
▁sus
▁ای
ement
kin
display
▁pou
▁sig
▁că
ط
▁hier
▁chi
ил
▁لل
The
ની
ận
▁Az
ения
—
age
margin
ही
ega
▁إ
으로
▁котор
▁අ
▁500
ਸ
▁fyrir
ks
▁تو
ਣ
万
δεν
ano
):
nak
une
▁über
ber
为
of
▁kita
▁इस
▁esta
▁كل
ật
▁може
▁bet
ως
▁प्र
ել
▁air
▁kar
▁Dr
▁II
▁пре
title
ài
ক
ан
vis
ken
▁sy
▁હ
▁mm
▁program
▁kr
▁Α
af
▁kad
▁ਉ
nia
▁προ
ỏ
▁له
tre
הוא
या
▁khi
▁пере
ě
át
В
▁nach
ਕ
▁Η
ды
ama
pk
vi
א
ə
ਾਂ
และ
三
ко
▁bisa
▁hotel
▁Ε
ну
nek
▁dell
▁werden
▁been
▁Е
дан
nd
▁Jan
▁Ni
▁kas
▁there
▁were
left
ơ
▁אי
ών
▁help
ին
23
▁caso
ire
▁what
Г
▁ex
ё
市
▁oo
js
29
▁plan
leri
▁internet
▁thu
ados
在线
走势图
ação
▁nam
ને
lang
▁نے
▁उ
het
▁করে
ական
▁ک
小
oleh
水
▁Video
ene
▁make
05
用
01
▁З
ین
▁some
▁01
background
▁ada
pl
ống
ic
cat
ối
default
ol
した
dir
▁එ
ore
area
월
su
san
ג
၊
子
ව
®
▁Su
như
▁tout
▁Ang
Ã
ăng
▁Ar
ı
ẩ
新
að
gen
টি
han
ս
▁už
▁Ο
▁pot
▁bien
ger
▁Anda
પણ
ùng
lan
ты
ብ
से
lt
▁ও
▁TV
rum
▁Par
אין
▁কর
▁क
▁độ
▁Ba
اء
ένα
ـ
会
would
▁അ
▁ile
или
▁ali
▁use
ይ
▁super
▁съ
kar
27
ית
环亚
▁një
ný
3⁄4
▁Por
▁छ
ơn
▁ش
して
ường
¬
iz
res
÷
▁mé
ਪ
▁және
ин
▁most
100
માં
εί
ẽ
े
ף
▁המ
lebih
▁ako
▁ook
▁ud
▁first
gar
વા
").
ому
▁aku
cz
游戏
ση
iên
ens
؟
▁word
▁ett
return
수
ق
▁US
rin
sku
ੇ
▁dal
ו
ר
▁کې
dor
ovat
ắ
▁sam
ội
ương
▁diese
ư
▁80
ăn
▁जा
ار
lle
công
▁تا
ity
▁5.
▁alt
item
ili
▁35
ድ
ling
▁કર
▁000
स
▁Tu
бы
▁saya
▁good
게
▁hay
▁tal
të
할
amp
×
ου
set
▁হ
К
▁door
ਦ
▁ná
dar
image
▁forma
40
▁tam
main
ম
▁መ
ras
ذ
ਮ
ữ
手机
ली
sin
cu
▁dapat
ud
No
▁Google
▁car
▁els
àn
▁see
ker
▁ਇ
border
index
ih
▁Π
ใน
una
와
very
און
tel
ons
▁My
ল
▁μέ
出
本
▁bar
▁п
▁त
ती
ura
▁οι
▁sua
ча
▁war
नी
▁الله
ani
▁сам
ге
▁into
▁ਸ
ቅ
लिए
▁seu
▁roz
type
تی
等
▁ח
ő
▁90
▁би
ар
ካ
▁স
真人
▁work
ná
▁09
▁kur
ست
ω
▁fel
▁sub
iya
▁::
einer
за
ит
TM
hg
ח
img
▁than
单双
ላ
▁này
▁upp
▁said
26
А
▁Κ
یم
vo
ın
Pentru
ồ
▁ප
▁32
▁Han
ත්
ць
ies
스
▁via
▁ye
▁mag
金
下
estas
einen
▁06
מה
▁dis
ган
ії
."
▁Qu
▁part
ion
نی
US
▁:)
▁sono
▁07
▁oli
................
▁eu
▁2006
▁Ku
▁02
▁only
La
▁dag
ните
jen
ለ
он
▁its
▁don
▁support
년
▁vai
정
yan
list
কে
▁Is
▁them
▁Black
ट
');
▁دی
▁Ber
▁При
లు
▁ਕਰ
▁အ
লে
03
yra
▁Ein
▁nan
▁亚游
▁pra
적
▁kann
▁Nu
▁dla
images
ft
▁inter
ੋਂ
ፍ
ೆ
▁ने
▁Τ
true
▁ਕਿ
position
《
▁qual
qu
▁તે
one
▁ez
地
▁→
▁Lu
▁само
▁Den
van
▁ID
▁после
נה
▁pie
ში
chi
ую
▁nå
高
▁Das
iga
▁צו
66
▁д
▁Go
ότι
▁Mo
ff
ού
▁download
色
하고
ac
▁Я
▁place
lı
▁کار
▁سر
▁מה
▁people
price
▁now
▁xe
▁Facebook
az
자
ми
op
ure
▁cha
▁være
ια
ния
▁भ
▁04
ње
▁08
▁мен
▁الأ
▁(3)
대
▁му
▁vý
▁ще
▁At
▁Ce
▁home
ным
▁ق
box
&&
iết
▁এক
▁nur
In
▁70
网址
▁nel
هم
ella
َّ
ым
▁list
▁blog
▁ਆ
ք
▁how
▁vol
▁অ
sel
▁Her
▁İ
▁dating
idad
▁Porno
▁זה
ει
▁også
री
山
▁need
▁she
sh
ich
giá
ây
▁gia
ập
▁он
▁Windows
▁כל
ක
یه
nik
ero
mer
▁tau
▁mereka
פון
▁ස
》
અને
ido
ής
ба
与
į
ض
ා
pr
iti
anche
아
▁tri
365
▁03
▁Cu
▁خود
ela
▁år
()
▁गर
▁δια
ade
▁Download
▁یک
amento
ü
div
▁որ
▁ය
▁vir
▁top
ב
▁Bir
ți
▁05
rat
km
▁É
▁جو
31
lich
ности
ją
▁凯发
▁maar
▁EUR
点
cara
ო
▁Х
상
са
▁Top
▁wird
mar
ila
▁де
02
▁lạ
▁म
ло
mas
التي
ਧ
▁જ
ið
▁ci
<
ју
ció
antes
▁Los
gr
▁45
8%
right
▁set
▁भी
▁بعد
▁tre
ym
▁Pre
▁Mu
▁total
ef
یہ
ων
ение
גם
æ
rem
▁final
か
彩票
▁far
ور
ном
gan
▁City
▁ته
▁ఆ
お
▁sunt
▁प
tion
her
▁го
▁Bar
07
ության
ได้
style
▁kl
ð
ron
▁pero
▁бо
sont
▁κ
ੂ
મ
ấy
ski
nych
pt
▁ч
▁ह
▁fan
cha
▁tan
▁April
։
▁zum
▁xu
му
▁ac
ната
▁[...]
▁ago
sz
▁бу
news
▁real
▁κά
einem
▁300
É
～
zen
های
së
ется
nej
▁ಆ
▁Н
lla
][
art
ઈ
▁شده
hỉ
dụ
iệu
▁بال
▁við
ọn
▁פ
る
-1
到
▁tiene
▁ব
▁noch
});
▁Am
imo
તા
▁Bi
هذا
▁public
ታ
Ö
die
▁تر
▁Chi
▁Gi
ster
▁much
▁nog
imi
ằ
ram
▁tem
▁function
ong
</
08
▁рас
▁6.
▁If
në
GB
▁Ti
▁Et
tik
▁here
ring
▁kā
▁እ
▁Jo
iù
▁sou
Î
▁orang
▁Dan
▁well
▁دو
▁نو
▁επι
▁kon
▁Lo
には
▁بن
ை
▁ਤ
▁mult
▁tiế
له
nde
gu
▁Casino
▁kom
ige
▁Mai
▁أو
från
では
▁Ph
▁ම
М
▁ਲ
▁information
前
▁form
60
▁Ju
cy
▁pr
▁przy
▁ಅ
▁Web
▁შე
▁Of
▁Nam
:#
ј
ł
ски
אם
tek
ục
▁Internet
之
▁foto
▁họ
mail
بھی
enie
天
▁casa
বে
ник
드
▁sú
के
ं
ουν
▁lub
分快
▁mot
▁Ab
video
나
▁fun
▁anda
▁wir
azione
って
dem
що
key
ển
ме
▁ana
تا
▁ug
zy
eb
ова
▁saat
▁یا
▁social
▁videos
▁service
▁model
pi
▁हु
איז
ץ
▁më
▁long
▁One
▁Red
fr
▁two
▁tô
▁cel
ئے
illa
ίας
娱乐
』
gt
లో
▁რომ
면
page
▁Car
ып
▁συν
ori
▁vel
▁system
aire
Б
=1&
▁test
라
ийн
ज
los
out
▁nous
▁person
ích
ያ
><
ça
▁bonus
对
90
▁Com
ባ
▁2000
▁প্র
▁Van
▁Het
▁raz
ib
where
ые
我
▁back
▁great
idade
▁want
▁ми
▁Art
▁ah
ום
ਨੇ
▁роз
▁start
wan
▁Wir
亚洲
none
ছে
ën
ح
▁મા
06
ID
▁ndi
▁through
ira
▁सं
▁face
מ
▁did
▁են
nih
▁ten
ራ
בר
▁سال
▁sama
ych
ria
Д
lin
end
ити
הם
ළ
▁satu
▁Um
04
сы
max
▁efter
ное
چ
ise
vat
▁hàng
Ä
▁ර
▁sen
ική
ott
县
い
▁Har
ש
del
▁kui
nbsp
kom
▁mat
사
ով
media
ligt
▁know
ਰੀ
▁இ
ẫ
▁ਹੋ
ि
eur
▁있
▁quan
▁ක
▁foi
▁2005
না
▁δ
▁maka
▁problem
ciones
▁--
名
ام
ét
יות
でも
▁αυτ
▁150
span
▁pun
この
という
▁Tak
(){
ώ
手
àng
▁Park
▁bin
1⁄4
▁365
ish
¿
ques
▁day
ன்
▁gan
▁Op
òn
ша
▁phá
ẻ
ად
▁With
▁years
että
asta
mal
▁Ra
info
▁voi
▁aber
Â
▁има
ary
▁під
多
▁20.
con
ός
▁olan
ス
ң
ĩ
▁tin
রা
▁Ι
▁todo
each
▁Но
▁show
▁বি
▁August
▁kami
כן
신
▁nad
kon
中国
▁end
▁dig
▁شد
▁ඔ
▁wel
▁last
ịch
О
ং
▁high
ỗ
亚游
▁במ
ley
že
▁qua
二
▁ক
تے
▁kepada
▁China
ның
အ
▁při
▁आप
οποί
▁ג
▁seg
▁sé
gli
▁अप
menjadi
▁الت
▁Auto
ጋ
خ
্য
▁Sin
ও
new
ӣ
家
▁acest
ее
▁пред
▁لی
▁sol
ných
نده
▁ז
eux
́
eren
▁না
우
▁casino
û
▁Ya
ute
▁vo
▁στη
▁כי
ія
ण
");
전
その
ии
▁way
ў
ገ
À
ته
सी
性
▁نه
න
▁sein
od
구
▁või
נו
და
padding
isi
нинг
▁36
ਤਾ
ové
П
න්
has
בן
ành
▁let
화
▁September
they
▁ਬ
sten
▁же
ળ
ች
▁moment
они
▁~
bot
கள்
form
▁apa
▁વ
ска
▁mil
▁kuri
▁100%
▁November
▁7.
জ
tem
注册
ય
ля
leg
ле
ह
円
inen
ће
▁ਜ
▁opp
ما
▁هو
▁Or
ి
▁sal
▁Հ
ayaa
▁дар
45
▁wo
▁second
▁ይ
adi
ties
▁ከ
▁lang
ους
▁Super
¶
ých
ඳ
80
▁þe
time
êm
▁ਵ
ним
ador
puede
ित
32
tak
▁และ
▁khác
▁εκ
inn
ሉ
μια
ту
может
द
hvor
dat
num
iem
35
▁ආ
Í
мен
▁वि
▁Grand
▁mü
ö
▁הא
gra
원
▁Да
▁нас
ora
ica
cie
성
▁after
生
▁יש
not
nen
ance
લ
because
▁anti
وا
▁것
▁था
▁جا
wi
▁website
።
ક
rar
ham
▁local
▁Ter
▁kunn
ś
99
ф
қ
▁એ
être
ರ
gang
36
▁say
▁sistem
во
▁hal
▁lagi
אני
Х
▁such
▁viel
можно
▁są
▁fin
ою
▁More
▁HD
▁និង
ší
ص
▁전
오프화이트
يد
ser
owe
▁må
रा
ções
区
09
▁>>
vad
▁era
▁game
▁Bo
▁بود
▁ਪ
ảo
▁naar
▁ад
제
নে
▁Sport
化
▁કે
bb
70
^
ін
▁fost
▁مو
ክ
▁book
ında
nav
▁mere
소
ими
▁Το
▁ngh
més
menu
ці
▁شود
ер
сан
hành
ца
▁ව
iệ
की
like
ux
ơi
▁най
▁cum
টা
▁lui
▁Ф
న
▁ham
200
트
▁peng
▁мож
者
તો
ismo
ето
▁Allah
▁LED
『
tal
▁ανα
ી
▁εν
ப்
来
ої
▁contra
▁sebagai
kk
▁Hi
▁Ci
ika
năm
▁pred
▁ఇ
▁সা
dị
치
▁бир
▁34
▁Μ
ій
ici
▁haben
uar
delle
ếu
▁zá
tis
िक
▁many
sko
bat
만
▁ك
Ê
▁base
▁finn
rea
שה
jos
▁nhất
り
计划
ர்
‬
tra
rà
▁með
▁primer
▁सम
▁even
são
tr
که
▁ද
া
lari
▁find
▁नहीं
▁bon
▁aux
▁kung
▁ole
▁Так
行
ਵ
length
aga
▁1,
▁nav
ख
▁Om
▁33
▁Á
ille
يا
▁ма
च
kov
2019
▁Next
▁Ji
ස
telah
▁faz
ሳ
ás
▁те
yê
▁jako
▁tur
යි
▁bat
व
ôi
▁مت
▁І
▁nr
▁nei
ое
ượng
▁mata
ന്
али
▁અ
时
только
ર
ett
好
ство
ard
aux
▁Med
тар
后
ਗ
视频
أ
ेको
ौ
że
▁hem
log
row
ono
ola
▁э
▁Plus
ര്
▁solo
▁gen
▁should
။
▁Э
▁ہیں
▁ре
Á
▁μας
ml
▁pen
▁March
də
▁mod
។
▁full
grid
▁mea
ắc
ket
▁(4)
لا
▁sp
▁Ж
enia
▁있다
òng
▁წ
ικά
ника
ся
▁ज
▁Em
▁הש
官方
ев
ٹ
less
▁prze
ლის
▁след
dass
רך
nosti
▁↑
rik
▁tersebut
otre
social
▁st
יין
▁take
could
▁personal
将
▁Gratis
▁chu
▁Indonesia
ngày
pro
▁mehr
▁AG
5%
ზე
ила
auto
":["
car
▁deze
▁پی
▁Os
ted
▁document
ше
ice
เป็น
▁kommer
▁art
▁ont
▁ඉ
금
号
कर
▁Ali
من
nud
▁Č
용
ют
手机版
sudah
λ
berg
room
▁Vol
"},"
▁jou
ί
bottom
▁media
▁ایک
▁모
美
▁мы
oraz
▁ty
▁LA
adingin
▁przez
▁کرد
ত
▁motor
▁Ve
ros
▁year
也
larak
mak
ал
let
انه
▁waar
▁다
▁pode
▁cada
else
ė
ậ
▁durch
▁sta
▁article
▁general
kä
官方网站
ذه
▁vida
▁основ
ਿਆ
▁48
ので
ฟรี
▁час
▁2004
▁gör
要
▁много
ੱਚ
▁38
การ
hat
46
pp
▁아
▁fer
▁Ш
▁gran
他
ќе
all
mp
▁đi
▁selv
ని
▁Od
▁То
طور
▁ম
היא
ස්
▁Про
▁pat
▁व
ੌ
лі
▁කර
som
lakukan
▁gli
▁made
▁πρ
ev
▁background
▁euro
=3033102&
▁vis
§
cette
•
▁কা
00%
▁mana
які
▁බ
▁мо
可
国
çok
▁гэ
မ
▁nuk
OS
Ó
▁atas
▁nej
.....
того
గా
부
러
لی
len
▁ஒரு
க்
▁nó
ئ
▁etc
▁aby
these
▁God
▁cap
iert
ità
January
▁sul
▁Ri
▁75
rd
air
▁Как
▁ഇ
:0
▁worden
τε
▁Ben
nda
▁Nov
πως
ਜ
▁vs
vel
▁chat
▁श
gon
주
দের
ার
▁Þ
ද
ק
ства
▁pří
ዝ
jas
▁аз
▁muy
力
प
▁hari
▁Im
ማ
▁direct
ble
▁love
ex
▁bil
ਬ
ী
日本
זה
oni
ino
▁tempo
jar
Id
▁banyak
۔
▁1000
οι
zer
▁Ob
▁kot
ков
jp
▁zur
▁apo
2.
||
ді
▁Best
έχει
▁Ro
▁Foto
▁бер
У
▁الإ
ịnh
▁Max
ول
NEWPart
ité
▁Book
sch
▁mau
shi
▁ඒ
বার
着
AG
▁Mal
被
回
িত
▁주
Ô
ánh
▁hun
▁بل
▁amin
%2
ную
फ
été
ға
▁Android
▁class
▁pela
▁был
▁University
세
ҳ
店
π
▁بی
▁kho
כ
▁Ca
July
▁հ
ม
▁Des
રી
иб
ਕੇ
64
ком
▁bude
▁normal
비
▁vez
ਹੀ
October
▁55
гийн
nos
ικό
ima
▁vid
די
▁Star
▁ses
▁보
▁PDF
▁ani
▁Europe
ذلك
ટ
kou
▁צ
eri
▁Tags
=>
ં
登录
▁کم
就
▁ප්
▁400
▁ਨਾ
té
esti
היה
▁href
▁Bank
▁parti
යේ
▁10.
▁hand
▁Ak
ರು
tt
tul
դ
ில்
▁эт
▁ме
以
itu
Ф
ła
▁ہے۔
▁출장안마
rán
buy
ዚ
▁York
▁same
ится
▁მო
፣
▁Can
Ш
▁مح
▁hab
AA
▁가
до
▁Real
Ç
▁World
નો
▁عمل
▁등
▁روز
식
ờ
shop
ئی
▁leg
ז
▁Pri
▁απο
▁vagy
▁απ
▁John
int
▁Va
▁čas
▁gr
▁Euro
た
▁mind
▁mua
▁nebo
▁8.
▁tid
▁wurde
blog
▁type
▁20%
ሪ
外
би
ốc
par
NG
ਤੀ
ዳ
실
▁him
法
▁gu
тай
“,
内
▁120
▁case
seperti
元
נות
har
ï
▁στα
ረ
▁(0)
▁ແລະ
▁(1
ées
lat
▁Ny
▁mir
▁$(
až
▁look
ven
▁ত
▁Fa
海
ert
ocê
दा
ების
▁Film
91
▁سو
tudi
লা
道
▁sites
▁ਦ
▁daha
Re
ಕ
▁года
全
▁Sam
AC
▁bli
카톡
▁grande
met
했다
▁გა
▁Vor
аў
て
ι
moż
▁cara
test
ď
▁ਗ
など
All
▁Mas
▁رو
ци
way
▁це
බ
ੀ
2018
▁Mit
tego
ਹਿ
진
ায়
▁Jun
ування
ieren
▁Об
ap
▁meer
sti
уже
ণ
för
心
▁Inn
widget
▁iPhone
लाई
▁ben
کن
иш
întâlniri
pan
wo
jan
▁used
tanto
▁මේ
ide
З
ો
tam
dores
වා
fe
්
ல்
▁друг
▁9.
hok
55
мо
▁neu
▁nou
▁37
ਟ
▁دانلود
▁beste
ให้
чи
aren
운
oje
▁Ng
▁250
▁cao
red
ете
date
▁(2
▁san
▁iyo
ях
▁fait
▁ಮ
▁business
▁ಬ
ቀ
▁USA
De
▁comment
▁شهر
▁bao
▁Š
▁있는
ค
ذا
▁toda
ಗೆ
▁bra
▁اپ
win
方
▁До
▁למ
ث
▁pelo
▁Kan
▁¿
ина
▁সে
▁ਕ
▁pali
安
▁poss
你
▁maj
الذي
кой
▁لم
▁tie
▁तो
¤
ης
kg
▁check
ظ
▁^
▁United
рез
brand
nên
સ
▁نہیں
▁42
▁Design
▁life
500
▁එක
▁sistema
ova
▁Chat
че
":"","
▁sport
▁International
؛
▁god
▁Test
mat
kat
ني
▁បាន
Т
uj
ike
las
ava
▁район
ço
城
olla
33
اب
▁können
ગ
▁પ
छ
over
ania
tie
時
ල
February
eeft
▁Las
tos
43
▁Av
▁حال
▁West
▁څ
▁review
Ë
▁Tag
39
▁над
▁tse
uta
▁ги
▁אל
కు
ған
▁Со
›
▁वा
▁prí
48
▁לע
ło
히
▁Zu
ման
▁2003
रे
ian
مل
adas
▁comme
......
AT
▁dur
▁नि
▁©
▁control
▁nước
ώς
▁cre
▁име
jet
erne
بر
using
▁Вы
▁yer
ē
42
▁προσ
จาก
▁Mac
▁kuwa
▁roku
ът
katika
▁않
▁تع
▁ആ
▁PC
ría
?”
product
দ
ime
▁sangat
ñ
▁Previous
花
karena
▁off
hính
ō
ված
▁като
nas
api
▁mes
▁Jeg
▁প
▁فر
▁ایران
namshi
▁নি
▁خبر
▁Nie
ული
38
▁qo
נת
น
▁μπορ
show
ؤ
hanya
:1
tă
กับ
▁Trump
▁main
所
য়
desde
elementor
ট
▁number
И
side
bit
day
pu
▁39
▁masa
65
ود
당
▁před
▁gay
σα
事
▁gün
ës
▁대
口
ਹਾ
▁lain
▁وی
免费
ret
iste
ám
▁ska
ły
ங்கள்
▁არ
nou
ից
isang
として
▁Main
ταν
ै
nom
ין
align
▁uu
西
ɛ
▁پیش
ор
med
成
▁mus
search
nost
41
▁ده
ας
▁Program
台
ء
wenn
''
▁vien
品
▁થ
▁ക
zioni
будет
▁ama
ային
▁xwe
▁vår
دار
▁modern
▁NY
▁الع
ები
▁ነው
це
થી
gaan
nar
▁tahun
亚游集团
▁Son
入
▁anak
▁ал
▁හා
▁γ
png
1.
光
▁Wa
선
▁ብ
77
kur
amos
무
▁tsa
▁tar
▁gel
mann
▁projekt
תה
ole
ekki
34
ہم
zar
▁पह
▁וה
ගේ
kor
ით
▁Ad
▁중
book
▁শ
▁Og
site
tta
ነ
▁December
▁mig
ير
ਲਾ
▁star
ጠ
▁মা
اره
ра
미
▁उन
star
ảng
▁Alle
▁شا
▁هر
▁mg
בין
στον
▁lá
▁Kar
▁fram
אט
ри
▁III
dim
dette
▁give
ання
ส
owa
bel
নি
▁جي
▁Sun
▁오
▁tym
că
hingga
Õ
▁gut
lige
文
▁други
▁cost
▁Samsung
ύ
ves
ๆ
ија
chen
ー
▁xa
▁War
▁High
▁ind
owych
ጣ
ող
▁water
通
pas
ब
▁Paris
vy
ә
▁kata
▁לי
ਦੇ
▁thi
ൻ
▁суд
:"
▁›
61
▁sinh
▁ли
ણ
кі
▁સા
iden
‹
مة
▁الح
▁kg
center
ast
▁extra
▁бір
▁sang
دې
▁перед
▁β
▁לש
isa
£
ộng
यह
ally
▁inn
▁IN
kr
▁cá
▁Blog
ड
▁kë
▁בש
▁She
▁ప
ların
▁page
uyên
▁available
▁Inc
тер
▁še
ilə
faire
mô
ál
木
▁team
▁right
icon
ính
▁ख
▁return
▁câ
رة
jak
ane
片
ive
く
▁live
ún
وہ
▁نظر
요
▁element
▁chú
ను
▁White
▁وي
️
▁11.
部
Å
este
साथ
▁volt
▁Việt
▁მ
Ò
▁NA
Se
ਰਾ
▁બ
▁fler
นี้
ро
XL
▁important
ibex
▁மற்ற
ül
ি
которые
▁Hu
▁tik
▁Nh
▁44
▁telefon
▁file
kas
旗舰厅
▁table
▁nuo
▁αν
ksi
▁original
▁rau
tv
pm
aquest
col
▁EU
▁सु
▁contact
▁мл
ení
ίες
▁AS
▁От
></
▁জন
▁tema
白
▁Club
ью
▁David
▁General
تر
▁ఈ
dal
มา
mes
▁ਪ੍ਰ
jsem
ላይ
arna
▁എന്ന
▁fu
▁सा
▁তা
ठ
▁محمد
ande
ਥ
▁USD
sis
▁سی
hin
▁sit
▁pass
To
▁ਸਾ
▁ano
dia
õ
▁style
▁ту
Type
▁fast
王
▁περι
▁Έ
▁Pas
▁lot
како
▁कु
nah
电
ум
▁prin
物
ām
▁ҳам
▁mobil
այն
ల
ност
44
▁хо
▁26.
▁зна
式
rt
sha
58
▁India
86
▁пра
▁الا
▁tom
▁sto
▁bà
খ
▁Ա
anti
산
都
53
▁autor
▁Γ
dur
300
sal
▁House
▁2,
ува
▁הנ
特
த்
된
▁zaman
▁গ
마
▁sempre
51
Ï
▁ਕੀ
arī
▁ég
لة
El
రు
ilor
▁দ
▁gali
▁val
▁Ich
▁hele
▁organiz
▁Та
किया
)(
▁বা
ների
си
看
ès
▁fil
▁world
▁But
denne
lui
pat
▁Pod
▁experience
재
▁σας
▁prv
было
nte
▁mon
▁bagi
르
型
▁Pu
subdomain
ਖ
ай
ਇਸ
ної
ල්
ede
▁če
▁proces
▁کیا
ű
▁mange
yn
tus
når
aria
▁andre
ಯ
▁Apple
▁(5)
aya
面
▁then
യ
ár
명
▁Non
▁unter
▁αυτό
nuestr
▁Var
ખ
ੱਖ
▁myö
හ
mình
▁uno
数
følge
endo
TV
՝
mg
▁bank
value
长
▁yi
ér
▁andere
ться
▁наш
▁svoj
עה
▁read
েকে
use
▁vie
95
▁drug
hân
▁olduğu
owy
▁자
થ
ische
▁kes
▁iki
▁Media
ዋ
ím
ούν
위
而
▁natural
▁Tom
স
ọc
▁ml
▁ਜਾ
▁zł
▁info
ER
-3
til
sehr
南
▁Ç
really
ớ
ында
ins
while
σης
ать
elor
ého
려
▁या
▁Pi
▁مج
▁sexo
▁Business
▁hasta
एको
miliki
▁grup
-2
▁tə
▁nak
▁Land
▁present
between
版
▁65
pur
▁בה
▁oma
liga
မွာ
cf
mit
▁క
ví
body
▁Center
▁ન
ín
田
если
▁kell
▁Read
nega
동
▁የሚ
ત
vez
能
▁Videos
ਵੀ
ሮ
▁Martin
ỉ
tele
▁provide
▁אז
54
▁USB
ības
82
단
▁کړ
ného
යක්
▁14.
רק
▁ਮ
iko
▁bilan
▁εξ
ən
▁đồng
nella
▁غ
▁12.
yang
wn
游
▁सक
▁گفت
▁Blue
▁ಈ
ville
ቲ
Le
体育
开
▁13.
이다
Na
αλλά
श
ове
יותר
ôn
56
▁before
期
き
Для
יה
▁{"
▁dann
ሁ
ầ
▁quy
▁HP
सा
fo
מים
ίου
▁soll
nis
¡
anta
▁paper
▁ત
iền
▁Aus
▁üz
机
ová
平
ε
έχ
▁Este
입니다
ësht
路
▁consider
合
ू
▁द
▁পা
▁Maria
ර
▁pār
ảnh
נים
自
▁մի
лық
ской
ιά
▁עו
▁molt
క
θε
kdy
مان
▁Kč
▁Green
▁2.0
ง
▁אַ
idades
ዕ
▁руб
▁How
ell
▁ngo
ną
▁유
ful
Æ
▁него
▁lahk
69
▁دا
同
▁pay
rom
▁när
vor
▁ඇ
uma
gy
même
▁eigen
algun
오
▁down
▁Service
▁Play
▁What
▁قبل
▁Ga
ać
▁Val
ቃ
ß
▁big
olo
▁지
▁momento
▁būt
▁Ч
▁National
iểu
cí
ix
وقت
这
ջ
▁sed
த்தில்
▁Set
Ø
▁must
ња
rez
ത്
tin
als
iť
▁pak
▁uns
issa
定
fu
于
▁হয়
cut
article
▁Page
blir
ха
▁open
jes
▁material
ена
92
▁pel
▁Л
▁London
ės
▁nā
თ
ojn
uu
hương
ම්
▁semua
52
tag
©
▁meny
ốn
ям
ката
▁пол
▁put
▁pře
▁Φ
ੋ
▁दे
▁cas
▁Jul
lé
▁מי
̣
▁უ
serta
ရ
leur
▁случа
!”
63
তা
nem
???
etta
asa
▁کل
▁වි
▁vot
▁ማ
▁week
棋牌
▁என்று
▁время
▁나
,”
ından
▁Tel
নের
ען
从
které
▁think
את
▁play
车
ência
ată
▁prima
:0;
▁Nike
尊龙
▁ваш
▁pan
▁stor
ደ
questo
▁Up
ви
ří
ять
ţi
▁$('#
▁मा
ۍ
▁Que
▁date
▁fé
▁Β
▁There
ే
ese
▁бўл
estos
▁France
ø
በ
யில்
ਏ
조
ไป
ટે
ነት
gel
È
リ
▁link
uz
іх
ưởng
vin
▁비
ст
ip
jú
▁net
се
elt
فى
এই
▁desp
વી
▁importante
porque
ሞ
▁pris
port
72
▁már
まで
ලා
▁دي
गा
ces
▁това
voir
▁Beach
ито
ده
غه
áng
▁onder
▁دست
▁Dar
یر
ел
tiek
ario
▁store
ży
▁Af
▁شما
essere
ستان
▁تم
▁hau
lit
▁الس
úc
▁43
▁valor
being
▁тур
▁могу
▁lid
▁ص
לה
▁ఎ
estis
▁baik
보
▁الف
▁توان
▁mang
▁больш
▁jso
▁ro
▁kali
[/
▁heb
ɔ
ੜ
▁उप
技巧
க
isk
▁України
shtë
▁tas
小游戏
ተ
kal
▁እና
वा
▁Ut
▁Barcelona
eli
▁Article
▁helt
trường
▁Inter
▁due
さん
larda
▁بين
عرض
75
▁recent
vet
ob
તી
och
tzen
▁days
▁15.
▁ம
▁մ
rup
▁still
▁600
tir
78
2)
iv
יום
▁IP
ào
位
▁Reply
▁Ek
করা
гу
▁else
got
▁Europa
▁דער
ก
ፈ
▁women
ト
εται
atu
▁order
▁ok
▁English
cio
▁promo
▁mundo
jem
▁̈
руб
▁41
עוד
▁sonra
მა
ání
more
eiro
▁út
49
▁Zo
ový
▁simple
း
▁উ
▁ווי
说
зи
▁här
▁Dom
57
▁Nr
ỹ
▁మ
دی
aba
▁قرار
תי
din
▁مر
器
▁bara
▁sans
don
▁poder
▁services
push
более
▁Full
sam
יף
▁або
по
送料無料
ši
▁64
▁gar
▁2002
▁Sep
moet
▁Wi
▁lan
▁propos
τα
پ
▁Live
iva
▁harga
иться
▁там
има
those
▁онлайн
mek
▁See
▁어
▁bit
ён
▁Jag
дар
▁minut
มี
τί
原
find
ija
▁যে
及
ген
view
anda
ário
ც
▁BMW
▁marca
field
▁dr
gg
最
▁Ц
▁люб
博
ние
ਵਾ
분
▁Dit
يه
ness
▁Pour
hang
▁שה
ère
▁இந்த
▁yap
II
▁boleh
▁tipo
ा
▁18.
▁Saint
▁vom
▁דא
ente
últim
alt
▁ወ
▁מיט
muito
óng
lor
sı
Post
▁mejor
רת
している
▁bol
web
▁Mon
▁años
יים
▁Del
ém
▁baru
▁Madrid
Я
ੀਆਂ
ું
▁Group
any
▁fue
APP
▁school
▁ned
نه
▁email
81
ኑ
▁εί
▁ಇ
tura
hy
▁46
▁perfect
ਂ
度
css
▁col
第
98
itat
图
ość
▁ځ
certain
▁tā
▁лет
▁չ
قد
▁عليه
▁Jak
▁Photo
лик
▁پا
▁Ал
및
▁Plan
▁люд
▁Bay
apa
▁czy
▁hacer
lên
buah
85
▁ഒരു
▁Juan
】【,】【
▁کند
▁hu
▁два
97
ала
▁جن
▁нај
ает
ché
থ
દ
▁bor
62
▁им
ồng
based
ね
به
2017
cher
▁bila
▁Ze
▁থ
▁आहे
nan
ech
ios
▁орган
▁Comments
պ
▁==
▁זיי
打
itä
ു
▁pres
nın
▁مس
ቱ
":[],"
سره
itas
▁digital
ړ
mine
▁شو
են
ості
▁17.
89
▁red
ન
در
▁Don
Hotel
mọ
og
nego
као
ką
▁got
▁Power
csak
-19
▁já
NY
▁կ
▁different
吗
▁θέ
år
ایی
▁인
emos
lihat
jî
mme
▁point
ales
发
▁rela
ارة
home
▁product
▁പ
bus
▁کن
▁sun
▁바
▁diri
火
gas
▁kam
합니다
▁short
▁tv
▁চ
▁Yu
▁pré
公司
חת
▁dire
صورت
jų
mon
очень
▁16.
▁공
اس
ób
7%
nice
爱
▁khu
">
گ
صل
▁буду
▁लो
▁लाग
▁47
ości
ман
▁hindi
▁ban
tud
dzie
է
aka
úp
▁School
五
▁نام
шы
રા
▁여
重
▁Wy
nye
лари
▁שי
ડ
يات
▁kat
áp
▁മ
war
cp
pad
▁κατά
kh
pen
야
▁process
offers
彩
masuk
중
nika
ette
▁Tri
without
▁내
bal
▁ए
ги
▁samt
▁પર
▁есть
▁Data
ე
▁toy
▁Он
ạnh
TA
también
▁visit
;&
logo
▁19.
94
▁ការ
最新
ако
attr
▁бе
▁Ν
▁وأ
pun
BA
▁ਦਿ
▁vara
▁време
չ
ას
CE
▁Ü
▁lý
harus
")
3%
click
▁2019,
ల్
▁own
里
цы
nym
umu
2016
Š
▁חו
▁કો
37
▁יו
از
જ
▁sale
▁mare
жа
but
יך
ನ
ル
nut
▁दि
ア
▁昨天
▁මෙ
▁company
向
▁Microsoft
▁Paul
▁cui
▁inform
„
▁ја
▁كان
▁пры
Po
going
▁Cau
67
▁βρ
59
මට
▁baş
明
ਡ
፡፡
▁проблем
厅
ره
神
▁special
ās
లా
▁typ
▁EN
します
▁black
යට
ская
sub
ность
▁פאר
▁ත
▁veel
▁iş
▁12,
▁вид
ilo
▁ар
▁каж
得
▁Your
유
▁£
▁Mini
ными
▁10,
ида
ské
یں
نگ
み
▁Mari
▁nà
container
ον
دہ
▁found
wikipedia
▁том
▁Twitter
▁إن
▁standard
▁जो
▁မ
க்க
分彩
▁Min
だ
▁Santa
▁sí
▁CD
▁Au
차
▁경
▁Day
▁cam
schon
▁daar
▁divers
47
▁immer
より
sche
uchun
iệt
peut
back
Ú
כם
▁бай
▁vita
נית
upakan
ден
bụ
hover
طرح
川
▁מע
▁aussi
无
▁multi
पनि
બ
▁around
ওয়া
▁ու
button
▁מא
▁Long
dag
▁Casa
2020
400
osa
▁ተ
▁ஆ
ено
▁tej
▁ਸਿੰਘ
ら
";
יכול
മ
▁xxx
خه
▁lugar
▁Galaxy
代
▁шу
ễn
▁ప్ర
▁gib
▁exist
quando
▁add
ī
▁yeni
bg
rio
▁kontakt
93
▁עד
▁Ú
fer
▁tư
▁Pen
ർ
ائی
▁mend
老
▁גע
▁Sp
partir
িক
1%
▁fá
▁আম
▁uw
ҳои
开户
▁Ö
▁2001
▁گ
па
▁jaar
hebben
▁nagy
Ц
कार
ног
▁49
▁себе
ਨਾ
▁kama
▁যা
▁principal
▁просто
▁ঘ
▁país
Ü
¢
Е
▁باشد
▁Vis
لات
▁北京赛车
rë
eve
âm
へ
▁મ
ries
▁کشور
▁три
ndi
ሰ
Fi
▁11,
2015
long
רה
女
▁anh
ик
▁உ
양
87
שוב
▁ਚ
▁solid
κ
রে
▁तर
-4
▁Una
ués
石
▁april
တဲ့
dis
اگر
oz
▁jej
▁кра
▁живот
▁52
▁پاکستان
▁Sol
iri
bil
去
▁Kon
▁기
▁|--
▁Hotels
▁تک
▁Site
▁ru
can
▁δι
більш
MA
▁នៅ
71
webkit
▁داشت
ด
lama
▁يوم
73
juk
bank
▁מת
ES
▁הת
least
▁Social
▁vos
ак
▁bas
wala
ň
▁정
quer
ξ
속
ਰੇ
igi
▁сред
তি
dik
▁સ
ති
kt
tų
▁both
▁sz
onthly
där
iêu
ým
▁Во
利
Л
տ
▁code
▁Sub
▁ger
▁grand
▁Spa
▁ಮತ್ತ
mana
また
▁vers
lib
▁Nord
▁հետ
uti
▁Net
量
▁tale
▁noi
▁سي
ေတြ
내
▁επ
ский
ದಲ್ಲಿ
ках
호
ind
ator
igen
ሚ
off
▁yıl
▁च
74
84
▁Ez
qué
tia
ሕ
니
▁vz
Α
▁jau
መ
Ч
▁0.0
▁مي
▁কি
▁South
▁Ten
θ
▁̄
kel
▁views
▁usa
ادة
▁Dec
jon
ris
zio
▁Ik
En
αν
β
▁قال
▁Tan
▁tag
▁Auf
▁zač
▁бор
ต
king
▁vari
ára
ย
▁bad
▁μου
ут
lega
ạch
▁Us
code
043
▁800
▁Из
▁ਹਨ
▁година
су
▁өз
▁ор
四
edhe
dom
▁qa
▁Ap
oko
▁Pra
ছ
ది
?"
▁पा
▁Anti
▁бел
▁чи
сі
▁Road
important
class
▁nec
tí
ħ
▁Press
▁تح
▁народ
▁vše
▁fo
▁Gen
▁Honda
▁Ма
▁project
▁ble
▁habe
ዎች
സ്
ůže
ана
weight
dig
▁←
▁wieder
件
ence
če
▁제
flex
▁Mer
ሩ
ラ
sson
▁mini
▁(6)
ונה
▁nje
▁popular
▁allt
▁mobile
પ
▁Forum
▁true
եր
▁υπο
▁участ
tum
软件
▁RE
אשר
▁Gr
start
▁Gold
ub
▁Бу
radi
গ
▁مد
▁gibi
бу
یع
▁saja
점
Հ
▁software
▁закон
▁ev
શે
▁3,
(1)
▁situ
uni
ሎ
אבל
▁över
▁hos
▁Ed
questa
▁ಎ
വ
erna
▁change
ив
▁дека
▁Feb
▁déc
▁jam
แล้ว
▁too
▁bio
תו
iendo
ędzie
▁получ
하
ார்
▁qe
▁line
anie
GA
彩神
▁উপ
▁καθ
▁gal
▁الق
Ihr
▁every
96
ete
なら
▁CO
ores
inta
▁소
מת
ọng
안
ті
भ
▁MB
▁Ви
می
ಕ್ಕೆ
▁14,
▁mam
DE
▁స
▁realiz
רות
▁বলে
gal
長
דה
ото
▁yon
ij
▁room
▁American
▁hver
1000
▁רו
▁আর
vu
лы
ята
last
▁ntaw
eti
加
음
tika
aan
▁DI
▁بد
df
tener
カ
▁फ
州
ਲੇ
ירה
▁či
lv
اد
▁price
When
▁Contact
uto
tro
ంగా
▁kev
nói
sky
▁mest
▁част
Η
▁mask
bei
ism
▁ти
ಸ್
▁System
▁澳门
باید
▁Til
tai
ingin
▁тако
▁байна
▁Model
lər
▁پس
▁North
▁bus
న్
▁وت
체
عدد
よ
":0,"
eberapa
▁къ
▁וב
개
▁13,
▁שמ
▁Ei
▁Ка
klad
ਲੀ
▁mei
db
тому
isti
eva
bh
▁բ
79
热
cuando
▁Street
active
צה
ování
osti
▁Sen
কা
▁부
▁Last
שם
этом
▁시
▁Все
ですが
▁side
syon
ních
▁7,
▁cosa
ets
ному
گی
▁Ex
▁જે
▁tho
▁wil
▁Love
åde
ικής
чу
▁klo
▁comments
eau
far
еще
xo
тан
či
ūs
ति
တ
jika
จะ
لو
▁tuo
相
▁atu
ישט
pre
▁සහ
력
dėl
▁thought
يس
主
▁Gay
Maret
▁state
▁În
abeuk
ість
تمام
▁жыл
▁kuti
▁nye
▁Hot
▁zona
代理
مثل
▁მი
ose
▁ډ
sem
когда
▁85
SRS
▁hard
nna
“.
▁الر
▁osob
▁κατα
ቡ
▁name
ੱਕ
ew
ální
▁Ban
ations
▁Як
інде
oso
▁তার
ே
▁וא
▁ši
tid
▁gas
▁Sur
ന
▁ಪ್ರ
▁pol
یب
یل
▁év
▁try
▁Mat
▁send
coins
▁вас
▁div
▁Dia
μα
▁soo
aus
kinh
table
רון
▁دور
▁право
የ
工作
online
ኖ
ện
コ
にも
yl
▁ග
บ
ว่า
▁kind
▁väl
ర్
▁पु
米
э
管理
▁خواه
▁goed
ować
▁ide
江
ド
▁ווא
▁Michael
wenye
lık
ním
▁ક
▁בת
▁nag
▁land
▁деп
थ
ಮ
▁$('.
68
▁(3
▁Mobile
עות
▁बि
src
jual
க்கு
▁savo
---
▁kaž
▁זי
mis
ய
▁barn
▁मे
▁прав
վել
אה
▁samo
ян
▁ideal
para
ます
▁Mark
lim
urile
wood
alo
물
אפשר
හු
rit
个
ịa
▁possible
▁bare
ões
▁επί
ಗಳು
▁Мо
tsy
做
▁svar
▁tras
▁vse
ෑ
ප
χ
▁પ્ર
▁kamu
▁год
says
ク
lijk
झ
▁power
mata
体
先
▁mari
▁علي
CA
ವು
ಿ
டி
▁single
window
▁uku
▁sana
▁Comment
ੀਂ
ወ
▁сва
▁Oct
分析
▁etter
comment
▁hó
村
£¬
加盟
استفاده
후
ского
blev
membuat
学
့
الى
▁Ur
before
ắn
anna
▁sebelum
ຂອງ
▁Ru
▁mint
▁kem
▁SA
▁oss
▁lí
ियों
EN
ঠ
ius
▁small
لے
מן
kaj
について
▁მე
אים
▁FC
acji
option
▁jū
▁admin
cual
▁એક
▁energi
▁kaip
nvoice
▁minden
também
ph
pă
▁എ
üçü
Н
рд
▁cô
ck
▁मु
þ
▁pli
▁gebruik
ати
▁የተ
hr
vas
▁Met
亚
▁mela
2014
▁5,
tom
თუ
ať
Ж
जी
250
▁Де
マ
모
element
▁State
wy
す
during
open
ρ
=\"
وجود
ális
document
▁color
83
▁מס
ٍ
ሆ
uyền
▁news
lon
हम
▁बा
гүй
ಲ
▁الد
회
▁bak
ফ
rak
▁។
▁бул
▁Tur
თა
ները
raz
CD
▁있습니다
▁hot
▁old
nú
বি
▁Yang
ác
ibus
▁Ко
▁fund
▁Má
▁વિ
▁gir
▁persona
sjon
ад
hạ
ご
iska
乐
kun
▁Esta
▁더
ăm
头
▁план
公
כל
▁yg
Untuk
ዩ
▁||
bor
ków
купить
▁izan
Если
ous
تى
ardzo
lap
где
ून
▁nostr
aina
▁next
care
▁دارد
▁đâ
▁tha
self
▁Shop
▁الش
▁կար
ping
である
alebo
வ
▁selle
▁Tor
ská
▁Tai
▁PS
tic
▁56
▁آزاد
▁format
hal
лік
▁अस
▁día
қа
▁Over
▁Ни
CC
▁「
▁Gu
▁نا
▁_.
▁마
▁ин
▁Women
ват
▁kap
ių
ല്
masih
▁тем
ებს
▁вам
▁ដែល
马
▁май
林
},
hide
▁hur
▁MP
lọ
▁Mr
ини
idir
sim
eko
Name
▁दो
▁ത
cal
感
▁بازی
▁Peter
▁human
qa
▁mill
אן
▁bed
▁Hand
▁مل
"]},{"
▁جس
όσο
▁individual
▁nivel
600
久久
few
ој
idos
úng
▁Now
正
▁ამ
ሱ
▁يو
▁pasi
վում
▁kadar
ување
▁IT
JA
শ
Σ
▁см
▁95
▁համար
perlu
う
▁পরি
▁fuer
▁Azərbaycan
▁mor
hasil
▁nghiệp
anza
oli
▁51
owej
▁house
ৈ
▁19,
ונים
uda
った
▁particular
▁buy
▁аб
▁עס
▁hon
▁Aug
▁работа
থা
እ
视
స్
seorang
אחד
does
▁Ana
▁market
રે
ait
hen
oldid
alla
rf
אלא
ễ
اق
út
▁Uni
ൽ
♪
立
έπει
▁હો
过
▁View
▁otro
연
▁gre
త
ත
▁ער
▁כמו
▁શ
▁била
▁kuma
NET
여
▁تن
ቶ
▁prie
ంలో
▁global
▁54
bagai
▁הפ
▁tele
એ
▁18,
کی
▁trước
▁110
প
▁сум
vê
방
▁centro
▁උ
ズ
▁offer
▁temps
当
غ
▁Team
▁17,
including
yu
▁weer
▁disse
είτε
▁הע
rqt
▁পর
light
▁최
ats
ներ
▁Amazon
ക
▁problema
ët
▁Apr
▁partner
▁fotos
▁سب
ім
վ
▁15,
:10
най
▁version
今
mutta
▁Ale
uga
▁ام
idas
rqid
ורה
▁trans
▁Open
count
siz
또
▁produk
▁fit
ኛ
ует
HD
▁interest
ো
76
uh
▁Big
▁little
рын
▁hace
率
سته
행
▁Cor
іп
使用
▁בע
یی
pj
문
▁kwi
▁кож
▁πρό
▁tip
сон
▁ул
AS
antara
ẹp
▁දෙ
ihr
경
్
ੰ
%22
▁kiel
▁22,
ční
▁svo
▁Villa
හා
▁mula
▁From
▁իր
▁გამო
bd
رات
▁Bad
▁παρ
ahwa
▁ການ
гі
eg
表
▁czas
гляд
▁ár
集团
dh
▁gian
σε
▁SE
حة
nunțuri
▁सरकार
▁Ol
▁kop
▁شب
크
▁دیگر
土
ән
ске
ду
▁1)
▁జ
無
送
ić
▁three
▁bud
▁bola
kami
ier
▁situa
য়ে
ीय
▁suo
بعض
oto
▁geen
yen
起
とは
▁aur
▁නො
Это
▁1999
lamang
▁again
▁lei
▁جدید
fin
른
ပါ
▁fare
▁nä
মান
eira
▁stay
▁16,
▁jobb
▁frá
▁family
▁она
하여
lerin
적인
senza
]]
user
stad
▁nov
、「
▁எ
▁tiempo
▁bun
▁Bio
▁IV
ants
▁Porn
ště
들
jeho
▁ça
▁Price
选
▁проект
({
星
was
५
tri
▁joka
▁porn
들이
▁Zeit
ното
▁UK
▁قیمت
‡
▁علی
yên
▁υπ
צ
پل
▁Game
ሌ
非
▁سن
▁ગ
cho
mujeres
лан
▁nombre
▁fond
▁دیا
انی
▁ಹ
北
टा
▁opera
作
મે
▁só
ونو
ohne
lak
▁آپ
▁§
dân
▁mp
شرکت
▁dira
▁ön
▁הח
▁''
sun
ек
=_.
1)
▁lokal
▁안
▁φ
poco
cas
eke
真
▁연
▁rok
sia
ени
ёр
▁Pan
ắng
▁الن
iki
నే
gue
▁Dis
▁ISBN
کار
Hotels
bc
龙
▁Archive
plan
siis
=0
▁שא
sama
▁180
වි
▁Date
▁current
SA
▁Get
није
▁Public
―
▁nun
▁Vy
နဲ႔
ació
BB
fb
▁sendiri
always
▁ans
ιο
형
ünk
▁transport
★
早
▁9,
details
▁firm
▁2017,
目
ای
▁21.
DA
▁Daniel
Sampai
▁לב
▁Ре
▁bag
▁escort
码
▁Uhr
▁yok
▁Naj
▁nke
▁Office
▁الج
නම්
▁Bei
▁Kor
▁21,
ký
ουμε
πτ
▁Neu
された
مورد
▁хү
▁6,
кон
▁Sau
▁перв
▁пад
ään
▁الخ
ður
▁Berlin
▁20,
tutto
▁buv
ونه
2000
mur
▁Autor
ሙ
یکی
ידי
▁Cum
ጽ
ақ
▁CA
bir
▁систем
▁цел
▁str
▁cov
▁игра
▁هي
из
영
▁$("#
▁mucho
▁нам
גן
▁ជា
ъ
▁ಸ
▁better
tâm
150
▁ол
▁कहा
亚美
▁mein
▁Islam
▁ਸੀ
ace
related
我们
nici
▁iar
▁Garden
нд
▁gerek
fl
▁Hal
▁خو
▁rumah
▁Tra
zem
▁Part
adores
▁99
মা
▁programa
▁הק
lis
▁tule
τι
වත්
▁search
怎么
กัน
vip
জন
身
▁വ
▁Pol
deux
▁pos
▁Radio
▁bá
eurs
▁sim
▁работ
għ
▁seja
ischen
▁Italia
하게
eks
tác
▁går
ència
▁מש
商品
▁Bed
¥
▁Nem
gov
Mar
mungkin
tylko
לים
ches
▁text
▁modo
▁besar
nica
OK
bare
▁72
▁Our
▁Anna
공
▁Fi
▁Cam
ebayimg
▁porta
▁aka
dib
간
tentang
तक
▁Ltd
meta
ocks
▁Not
owie
ਅ
▁På
qq
דם
://:
ਜ਼
▁عام
▁інш
▁Kim
▁сайт
▁fine
pin
donde
▁ann
ہر
▁என
ează
▁என்ற
▁Ό
eń
looking
elo
bre
ford
▁hij
ajn
sur
laki
つ
ướng
iể
عنوان
stand
ڪ
再
kem
▁respect
▁tren
▁poz
ਵੇ
▁Mei
▁មាន
भी
▁quell
ինչ
▁ಎಂದ
▁אחר
▁Kai
▁popul
▁radio
ன
▁4,
▁لو
▁foar
▁tuy
▁нужн
ඩ
ota
▁estar
時間
ਕਾ
جه
ации
ښ
▁dom
hí
▁Als
▁많
दी
ઇ
▁различ
▁ले
erer
▁تب
ער
▁מו
▁Digital
ғы
▁مرد
Ε
▁hin
інің
▁mah
vì
▁run
▁Gar
▁Ram
ټ
▁הה
▁לח
▁ڪ
▁theo
▁પા
▁момент
جر
نیز
unque
داد
▁wana
гда
ió
▁ekstra
ത
রি
▁দে
así
يع
sak
שות
AV
ови
터
кам
sport
▁Port
▁tapi
inner
▁pirm
▁Sal
▁мне
後
▁eru
▁tay
dən
但
▁הג
▁카지노
▁Hai
車
▁NO
był
▁Bet
tech
tina
non
जा
▁Ir
το
▁જો
-5
▁jan
▁ста
լ
vit
▁Som
ການ
tab
▁باز
▁大发快三
▁23,
キ
aires
ທີ່
ihre
tha
gb
▁godt
dra
▁TO
ஸ்
tä
▁Ю
音
via
cil
ils
sizes
▁də
yh
▁cele
▁ces
▁busca
चा
γ
pēc
888
ούς
▁bay
annya
כה
とか
▁group
ako
ני
تي
ated
▁feel
▁Pr
τες
▁limit
シ
quot
ця
طة
▁(7)
▁question
并
▁53
gh
次
ない
דבר
ノ
था
▁jul
▁Մ
ૂ
站
德
▁خان
לא
liche
▁дет
ፋ
▁sme
poate
eel
▁Was
▁무
八
وب
كما
ենք
▁الأس
▁Robert
кои
trè
ৌ
▁anos
मान
或
AD
ями
▁ولا
σω
צע
▁Bel
▁quel
▁gener
kim
▁জ
학
▁mismo
ከ
mento
▁dy
kuu
▁Out
▁maks
bl
▁اما
مختلف
сэн
比
さ
▁Music
्य
eta
header
ability
▁школ
မ်ား
දී
▁Би
▁Und
står
فی
▁Via
▁timp
約
▁lor
▁بار
▁kal
▁사
Al
ዛ
ாக
付
isto
ਣਾ
wet
бор
▁mye
por
bukan
▁банк
׳
ಲು
▁بو
eget
မွ
▁58
ሽ
권
▁sure
▁Win
HG
▁человек
▁Ş
vid
▁Life
▁bán
тази
NA
†
ỡ
χι
▁प्रति
MB
▁mö
року
▁телефон
セット
ሊ
▁poli
hur
▁실
▁shi
▁Λ
ення
見
ভ
ری
ады
idh
▁jos
电影
▁jadi
उस
▁quality
▁מח
▁werk
sat
可以
cdn
बाद
▁але
できる
超
unda
▁8,
▁PA
isso
▁swo
▁ነ
▁조
手机客户端
ிய
▁syn
▁idea
▁max
▁firma
ינה
▁תו
▁propri
itos
nim
▁말
ዲ
▁Οι
another
вар
▁uso
▁דו
tą
แบบ
կ
lichen
▁Kun
mus
بت
fra
▁mayor
یان
▁len
KA
▁tro
يت
टी
▁කළ
▁level
खा
▁empresa
▁things
▁THE
▁신
%20
▁Como
▁alles
ዊ
하기
rie
▁(4
iamo
ления
ুন
▁Hier
관
▁today
בער
ல
ثر
町
kulle
њи
întâlnire
PM
දා
නා
▁ನ
▁aki
▁produkt
okat
▁Thu
▁Kur
▁تش
ских
▁سه
בית
▁kay
לך
ula
ધ
▁کنید
▁Brasil
ล
▁บอล
сё
ico
▁Tube
ικές
▁үз
▁انتخاب
▁legal
거
fc
▁අප
نظام
үшін
tat
Me
тен
ಡ
Ì
ँ
▁Tour
▁gam
▁kau
▁кор
terý
▁minutes
pak
quam
▁él
وم
पी
▁לו
yin
sil
▁jedno
eng
〜
▁σύ
▁Ба
▁anmeldelser
viagra
ље
ա
▁County
On
카지노
▁Roma
信
▁ለ
▁мног
ท
▁That
▁lati
ол
▁files
-2017-
ация
ının
Ma
▁cor
▁prim
▁خل
▁Ə
工
▁forum
▁Gel
▁1998
ambil
▁naš
▁menos
▁Dé
▁Spiel
▁সু
▁ան
▁size
ṣe
ట
פת
ાય
hiều
ается
▁בא
▁frem
waktu
ನ್
stan
թ
sampai
ਨੀ
심
▁हा
▁pul
▁להת
ering
▁통
▁petit
esc
ตัว
▁وا
▁Cha
תם
unha
▁hor
}#
פן
▁fe
2%
punya
pc
▁Color
▁kraj
▁Resort
▁Rock
▁නි
▁آب
▁access
▁taraf
▁жұмыс
▁Ն
ξη
ນ
▁بس
▁2-
ዓ
▁bū
▁Qui
▁nada
▁Light
ڈ
ました
ची
流
▁kiu
其
যোগ
νέ
▁созда
lum
▁mich
વ
овой
▁24,
ਸ਼
নার
▁Bag
ዜ
аны
▁large
շ
zeit
unk
rah
▁vill
▁زیا
▁Put
▁ora
▁DVD
▁הב
▁इ
▁ਮੁ
▁לק
▁28,
▁գործ
ský
▁خط
▁Eu
کہ
hle
▁hoe
▁सो
ního
▁biasa
▁цен
овые
ด้วย
menggunakan
▁זא
bol
▁России
▁លោក
হ
بل
وه
▁pagka
▁tips
ությունը
puis
▁pare
etan
▁الك
තර
zie
▁газ
▁never
▁weiter
▁Αν
▁result
▁mesmo
▁गर्
국
▁آموزش
▁anni
タ
פה
lara
저
4%
وز
רים
))
▁Rad
ması
▁tá
空
▁sh
▁away
▁stop
enza
▁آخر
▁money
▁الدول
PC
▁Iz
▁दु
▁जि
▁Kas
pol
▁হয়েছে
apie
▁zwei
▁OS
▁Cara
makes
Đ
▁Cho
ধ
▁több
・・・
▁seda
一个
Π
лийн
дин
▁Sh
▁personas
είς
▁26,
ං
▁salah
▁Che
ώρα
ában
сти
급
awa
▁pus
▁Ay
까지
ηση
▁बता
▁profit
?!
▁dolor
لكن
ill
ება
笑
inės
▁구
منطق
▁اول
ால்
ків
ዘ
ಗಳ
▁job
chu
▁call
▁صح
直
ież
▁deg
▁period
▁Een
এর
ước
▁debe
cer
青
െ
▁23.
வை
▁marketing
▁долж
▁Good
▁processo
יון
▁0;
▁vad
trebui
▁mund
ave
▁27,
ref
▁شي
▁რა
尔
▁byl
▁punto
ీ
mək
생
hari
مه
▁front
▁გან
ками
太
sex
һә
何
ья
യുടെ
▁Care
역
தி
VA
▁grupo
inde
তো
ውን
ganz
ූ
▁Shi
▁Па
▁Wie
▁අව
hadap
ాలు
fff
էր
Date
isten
▁Central
მ
టి
▁результат
▁Friday
▁Island
▁ומ
▁интернет
▁despre
responsive
▁esto
kol
▁কো
▁59
ਟੀ
ament
carousel
υ
▁fall
▁šo
规律
120
▁memper
▁turn
▁head
dagen
fall
법
▁sido
target
▁利来
▁Қ
▁gå
tzt
дзе
ges
▁Juli
▁रहे
▁ਬਾ
▁mala
ību
gun
▁Code
වූ
든
dang
kọ
मी
▁один
ก็
▁tutti
ume
An
▁мал
▁gur
分钟
ру
zan
well
yar
▁надо
▁food
▁tres
nike
ones
▁모텔
պես
球
عه
▁‫
▁ہی
▁הצ
▁light
▁image
وط
isme
▁seo
▁Sat
▁начал
лю
世界
▁22.
מען
ș
vir
ijos
ase
▁كه
dı
▁File
ږ
▁저
▁biz
family
▁kup
▁research
还
▁yet
ും
▁4)
▁dalla
લી
▁vin
▁голов
ดี
્યા
▁Eesti
ák
▁меня
▁deve
群
▁share
▁font
方法
▁দি
bin
情
طرف
дат
▁వి
▁white
inių
▁الل
▁اند
▁57
▁แต่
▁Yo
▁све
▁million
card
AB
데
商
▁realiza
▁transfer
▁ਫ
Pro
დი
▁jen
த்து
▁یو
门
▁tú
published
anto
ovi
ници
нэ
▁miejsc
uit
▁اش
ových
▁kol
▁fai
▁sent
▁Ser
▁बना
☆
200.
cart
sus
▁suka
▁кар
ــ
aki
чы
tiga
photo
Э
黄
华
ელი
▁Χ
▁бас
▁Under
▁gera
šie
▁bé
kleine
▁Bonus
▁semana
▁қа
യും
▁menu
▁Ft
det
taan
rê
ګ
▁آل
owania
▁integr
Redir
▁πολύ
atori
▁bring
▁record
▁يت
走
▁ఏ
▁Tim
▁минут
▁ха
staan
▁হবে
▁Mil
کر
ঁ
ique
bf
cji
▁25,
▁помощ
▁способ
北京
野
▁hə
εία
тэй
▁работы
making
▁гр
ির
▁Management
sol
のは
ження
▁Mont
▁WA
autres
ít
▁App
▁Sy
▁jy
योग
▁ול
/1
▁буд
▁కా
eket
▁اب
annan
▁склад
▁gratuit
▁muss
quanto
رقم
চ
ль
еді
να
▁●
▁Water
elles
ր
লো
pis
ି
mai
▁Ker
▁whaka
lag
▁slot
ナ
▁Form
inin
▁region
▁काम
छन्
▁ந
תגוב
▁اليوم
▁bal
ща
Ă
▁ኣ
▁cena
ड़
bas
▁29,
avoir
▁garanti
한다
eme
▁TripAdvisor
في
жана
istas
▁שנ
▁`
arak
يو
▁since
▁Fan
part
▁Ә
пер
▁Cel
▁Line
▁specific
系
iai
적으로
ये
mageKey
▁ακ
▁सब
yon
اتھ
▁διά
فضل
▁qə
▁આવ
▁utiliza
▁För
▁MA
制
ovať
▁Kal
▁ඇති
ु
▁юм
▁айт
AL
sque
800
▁خرید
encia
▁эти
▁Bon
▁कम
oàn
raj
▁ฟรี
ър
šu
▁haar
▁student
▁уз
\"
▁complete
uốc
alu
▁več
▁상
upang
▁uy
ū
▁res
တာ
oval
Mi
dziej
ಸ
PA
▁реш
כות
လာ
▁kor
阳
▁pon
wie
يل
ycket
وی
线
▁Gal
maxImages
▁בו
might
¦
품
▁день
▁ligg
"]
ნი
τ
};
▁ישראל
▁Се
TT
▁Time
▁James
▁passa
6%
WA
رو
▁SP
▁roman
▁ville
ி
▁algo
треба
▁capital
شكل
sar
φορά
▁kel
▁घ
▁pin
▁иде
▁گرفت
category
▁Mes
Item
▁body
近
▁يع
▁Ré
▁Са
ారు
▁historia
▁أي
stato
luar
----------------
larını
ве
ння
▁Let
▁tek
वार
▁Show
ира
location
ლი
ỷ
ray
종
▁peu
▁Din
бе
אתר
';
▁заяв
▁egin
SH
▁Just
🙂
vě
కి
уға
질
局
ચ
▁2)
NO
ச்
עולם
▁moi
▁140
owego
▁આપ
BG
▁chuy
І
▁bulan
▁lite
within
ران
ें
▁sing
čiau
small
▁mano
▁Mare
ikan
▁کي
ља
▁buat
ミ
Si
transform
گاه
linkin
گر
Un
▁pool
各
&&(
▁oor
ӯ
▁nay
▁yu
▁Mor
▁Lake
▁Great
̄
▁regi
▁Kinder
▁דע
يف
rang
oma
▁وه
owanie
▁Tam
반
▁tê
▁Parti
▁škol
▁ਸ਼
▁VI
▁lehet
nje
script
ivo
▁Bal
▁kort
▁bl
gir
▁مط
وي
▁הד
ετε
▁risk
理
tim
ග
▁esse
集
レ
sie
EU
aciones
▁easy
只
▁hav
360
pit
▁വി
مكن
▁fl
▁സ
ake
▁central
kład
▁вопрос
links
ћ
kara
▁روی
▁Ս
▁spot
▁(5
थी
صرف
tháng
▁match
lab
==
▁Peng
河
▁ра
▁serie
nta
▁AL
urante
▁loc
▁port
想
hoz
isse
umi
▁Í
bec
▁থাক
band
▁പ്ര
ED
ҷ
▁форм
гар
▁호텔
▁natur
ફ
йти
▁permit
mark
نوع
ъв
▁Jean
▁album
heid
ოს
hụ
편
ψ
ийг
▁בי
মে
板
ké
रण
▁Ө
▁view
sso
ήσεις
lẹ
▁సం
வே
东
mẹ
label
▁Hindi
▁nagu
share
זמן
מקום
▁agar
▁pomoc
▁jó
رض
ши
œ
表示
prototype
uko
يث
onun
▁sitt
jh
▁First
▁premier
런
▁کام
tiva
ží
ồn
民
▁зем
اظ
▁ө
▁nuevo
פ
▁hy
▁micro
bra
einfach
▁හ
风
션
නය
▁hours
().
▁Search
▁দু
த்த
▁tus
▁चु
▁нав
-7
ец
▁پہ
usta
▁DA
সব
ğ
large
▁dua
▁پو
щ
lem
amo
only
エ
▁ក្នុង
▁ĉi
▁Sale
张
▁Jahr
ables
▁tim
▁rapport
▁Cat
dealId
▁music
▁दिन
cialis
מוד
▁Sha
িয়ে
કરી
▁த
▁tempat
▁location
▁пар
str
ňa
kita
ቢ
Ю
▁така
sse
ելու
यो
▁कार्य
▁62
▁Multi
ած
▁centre
▁kendi
േ
mont
менен
▁twee
▁סי
▁ہیں۔
nun
Ù
▁הס
љ
යා
Ş
▁fr
▁geç
▁melhor
▁Start
ाई
▁nang
кто
hanno
▁χώρ
두
ია
эн
▁pole
ingen
לות
▁Lei
යෙන්
▁50%
يم
MP
sid
▁report
▁68
വും
▁Ли
sagt
LA
ungen
▁Edition
바
stra
▁Manager
▁воз
▁бъ
ایش
▁past
▁документ
ጅ
情報
كم
ớn
kra
▁mars
▁alta
▁favor
▁процес
bundles
երի
եմ
▁Sand
demás
▁photo
▁sort
▁tako
▁χρόν
▁(10)
▁کتاب
▁مخ
ване
lain
院
▁dib
thi
tti
▁परि
anga
nă
▁causa
kup
▁ਭ
Ko
▁iphone
▁সং
nelle
▁Главная
▁свет
▁xo
ує
▁■
▁김
▁Health
▁won
777
▁Fund
জে
▁iyi
機
▁чем
▁shu
زی
▁OF
▁gegen
▁العام
清
kte
ראה
▁groß
▁مش
▁nahi
▁something
од
▁Ե
דער
▁enjoy
▁කිරීම
لم
▁dah
ว
ына
sini
▁Roz
رسول
hứ
▁TL
▁1997
hvis
でした
▁(8)
ades
քի
▁තිබ
▁Daily
▁זו
Ch
▁3-
▁تق
国产
durant
▁course
▁premi
வர்
Công
▁þv
ದು
▁kim
pus
insi
▁teh
取
▁fac
▁Wall
тря
iche
lb
નું
ไม่
='
šak
▁ये
άν
▁Ši
maan
ప
ỳ
خصوص
house
▁Gran
larının
▁начин
▁قد
报
▁fakt
700
大发快三
ቦ
ότητα
▁Rose
2/
▁彩神
▁estado
▁near
▁առ
科
▁Vel
▁trí
▁actual
生活
নিয়ে
film
▁Ger
ਤਾਂ
에는
▁Այ
▁बे
may
바카라
▁대한
▁pop
▁Dur
খন
zia
▁keep
▁דר
ικών
ń
ρίου
park
tì
unun
▁우리
▁թ
▁Kr
▁Rio
▁Қазақстан
▁four
▁ಮಾಡ
Com
▁utan
ינו
cum
عة
▁Fe
ירות
▁Link
▁Baby
ઓ
▁מכ
ዱ
래
קה
ارت
ası
iwa
free
quite
▁close
▁pem
▁brand
▁East
وات
▁அவ
esta
ule
▁druh
▁proti
دي
▁oldu
▁στ
lay
apatkan
یا
▁Xu
▁بین
är
พ
ري
▁Cal
ਭ
▁Če
▁ეს
▁ಹಾ
hl
▁образ
Ka
▁тіл
▁trang
każ
حکومت
▁Бо
cos
▁против
▁platform
gún
rás
fois
▁server
▁fie
طلب
▁المت
▁افز
gl
ੱਲ
東
ход
увати
▁civil
stu
▁Box
Ver
▁фото
▁Wat
We
делать
▁anal
̀
Li
ній
shme
▁बै
▁["
▁King
▁metal
మ
und
دان
▁key
▁Mag
ении
▁تاریخ
▁Case
hưng
▁видео
▁aasta
cb
▁125
ಲ್
ового
dí
▁Türkiye
▁μετα
▁Malaysia
wiki
▁게임
tua
▁130
▁kecil
계
▁περί
ulo
کسی
▁جه
ền
▁Band
5)
න්න
ļu
रूप
▁бү
étai
▁особ
RE
čí
vés
▁Mais
rov
lite
ổng
ඟ
եց
մ
▁Sexual
▁Sant
imas
ኔ
ții
保
نية
バ
▁jih
нат
tay
até
usi
▁97
file
-10
▁ഈ
tet
▁160
stellen
ws
▁стран
ツ
▁Sim
▁Core
किन
环亚集团
国家
ಟ
Be
▁kina
▁hann
▁EL
▁area
ləri
তিনি
▁Motor
ήματα
▁hit
inu
imin
ава
▁вс
▁þa
hnen
拉
军
ór
drig
▁سم
नै
vět
لي
rẹ
▁kontrol
▁ماه
hui
▁27.
▁teen
chị
lü
▁badan
オ
ጊ
shadow
だった
▁plat
▁window
▁Tá
▁един
▁Ná
τους
aq
발
थे
hafa
▁Sala
rus
▁রা
وری
▁value
▁politik
IN
along
▁불
▁گا
▁Ми
owo
kot
60%
▁وب
ණ
ڑ
ंड
▁property
▁Nga
▁98
ingaw
ської
▁области
دة
直播
obat
သူ
更
uden
타
▁центр
ψη
▁city
ır
프
ható
▁Bur
/2
▁मै
▁pla
▁Mis
▁té
iro
вер
በት
▁essay
mor
ahi
▁ਖ
twn
vik
管
▁Rus
▁önce
▁کرده
сколько
▁нет
▁gang
ਹੁ
업
imento
▁Ye
▁Festival
▁köz
▁Kh
dz
ٹی
ники
▁include
eze
▁Global
食
IA
▁2018,
▁medio
primeir
hk
▁Name
ॉ
▁rest
▁potreb
▁قو
▁Japan
▁63
▁نش
▁health
▁Rom
ré
utama
▁30,
▁sai
quier
mb
▁jeden
kehidupan
ու
ություն
ló
യില്
χε
ಗ
adh
▁город
વે
▁মো
▁cri
Data
ING
▁Services
▁боло
▁account
cin
!"
keine
▁DO
ιν
▁Masa
▁موضوع
▁times
داری
▁প্রতি
Top
','
ük
rte
▁uporab
οχή
▁ऐ
自己
สําหรับ
zel
ಾ
ኩ
▁700
eka
!=
cion
▁โดย
▁66
normal
Published
lardan
▁ತ
CO
кер
сь
▁kart
ھ
ந்த
▁نق
▁club
гэж
Γ
▁मो
ηγ
▁ப
▁նա
ሬ
ทาง
వ
▁epi
:5
▁25.
▁úr
2012
ско
ωση
大发
maal
dek
▁الط
ř
vă
▁før
▁ला
がある
Please
aro
▁ton
موقع
▁1.5
社
▁sala
шка
mě
▁Tar
▁авто
▁69
▁күн
▁sup
▁lé
ങ്ങള്
▁ingen
ονται
▁Gre
▁alap
▁Sz
niin
ezi
ож
आ
zon
サ
▁trav
▁professional
▁вер
▁finde
פים
▁Ball
00:00:00
была
ቁ
ků
▁Canada
▁ভ
бо
rad
AF
andi
Vous
▁فروش
niu
▁дома
▁quo
▁अनु
▁dir
▁Asia
▁Est
▁gra
ical
▁bland
▁интерес
▁rol
els
மான
אי
asti
ame
aca
ハ
langan
サイズ
راء
ζ
Så
▁States
עת
New
zich
▁paket
▁96
▁nett
克
▁הכ
ছেন
ыя
▁año
▁Мы
ľa
Ja
▁хот
▁пов
уть
▁глав
IT
▁Pag
▁জা
tivo
kalau
vol
पा
asyon
status
▁Bor
paling
▁із
▁ዝ
▁spo
▁ዓ
极速
kwa
▁mens
▁Smart
देश
še
ၿပီး
उ
зе
uan
раз
كثر
▁interes
ವ
▁major
sión
▁AB
েক
▁игр
▁volta
ədə
斯
ää
وار
ല
▁fet
讯
▁այ
▁қар
周
▁stron
aron
▁نہ
try
倍
▁bem
▁77
ун
▁līdz
coming
੍ਹ
لپ
=1
וף
ция
вод
fur
CH
▁computer
ница
▁night
▁sammen
▁છ
教育
larni
"),
pos
▁polo
▁nii
tari
티
▁жер
দি
▁ਜਿ
tori
2013
бар
▁буде
安全
ре
Κ
首
0)
▁vet
▁Nach
▁Instagram
▁стол
انو
itate
يب
nov
טאג
▁Thomas
nchi
▁відповід
입
lash
▁dunia
▁адам
▁Ac
ικού
▁numero
check
▁사용
şa
▁زمان
▁manual
ради
ijo
doanh
如
▁الو
▁xem
▁lát
▁dobr
în
nka
▁Col
வு
add
relative
રો
מות
یز
دم
▁WordPress
مبر
ो
ему
▁months
▁bör
hã
又
За
▁jin
ネ
▁байгаа
让
▁ele
大学
جميع
▁Sky
ney
igo
شنبه
직
▁hän
▁baz
▁geld
▁እን
把
イ
▁מצ
▁دل
▁led
ости
企业
▁meu
▁кел
言
天堂
▁då
战
âu
arse
▁ಕ
▁फि
しています
される
▁kişi
▁Watch
diri
against
駅
tica
קים
▁உள்ள
ロ
▁سا
থে
▁yog
ндай
erat
分分彩
Air
▁автор
ból
▁άλλ
高清
mudah
しました
▁sector
كون
▁dá
burg
▁college
▁ני
၏
▁Под
▁Vá
▁stat
▁въз
▁seks
▁Store
ನ್ನು
▁लि
old
▁hidup
▁સં
ạc
Cu
なので
ében
lam
run
λοι
▁سنگ
▁گو
▁hva
egna
▁(11)
립
大小
▁Ү
following
xe
▁Zi
▁تھا
▁төр
▁november
▁сил
▁ਸਿ
ѓ
▁život
▁iba
ണ
റ
▁қара
▁story
ின்
服务
▁цвет
-20
云
ம
مجلس
finden
gos
чун
▁Τα
至
hon
ejo
11.
אל
▁Alt
אך
LD
提供
Man
宝
ними
▁chce
דים
▁Far
Also
λά
catalogTag
ム
kit
▁සම
ήσει
imit
έρ
▁adres
▁atra
rə
▁Software
▁kir
section
tive
▁67
having
▁rece
sins
πιο
▁Original
ውስ
बाट
▁تت
▁הז
▁ಅವರ
▁visa
कि
ают
▁aut
pel
▁дә
ေတာ့
▁Sar
hidden
▁kuko
ந்து
▁jaun
▁Kara
▁прац
φ
▁நா
him
▁۔
▁College
ป
ND
AM
근
▁sab
vod
սկ
▁low
ój
জি
▁čo
▁gol
▁rad
াদের
Trung
▁mama
බව
▁Total
وف
▁private
▁bere
οί
berikan
▁Une
गी
▁Kui
niki
ضاف
Harga
▁оп
▁వ
▁mid
▁kultur
ፊ
▁کنند
ved
▁aktiv
▁Key
த்தை
፡
보기
этому
cuerdo
ေရး
▁예
ٌ
▁ос
tych
▁muut
loro
нага
כים
BC
ռ
BD
▁알
▁טוב
pet
▁बन
토
ére
ڻ
ına
رى
▁класс
地址
▁development
amely
▁stock
▁علم
▁süre
▁trabajo
▁أس
ሃ
лу
▁δε
replace
▁tud
▁hore
kah
uv
▁আপ
▁තම
▁klub
една
▁nova
SE
▁원
files
اث
ttu
▁America
88.
०
▁Hay
▁ส่ง
▁bhi
时时彩
ความ
base
▁Ada
▁shumë
WWW
▁success
감
▁aplica
].
tín
شت
eix
ការ
}}
لت
autre
ул
▁fara
▁Tha
▁той
字
▁continu
BE
2010
▁Ini
gera
▁мог
TG
▁ně
transition
▁Diese
▁saj
▁जन
חלק
▁hafi
▁חי
sze
kala
▁매
ப்பு
bara
▁1996
CT
▁gb
▁prostitut
ూ
ję
glio
ቆ
▁კი
▁fire
மாக
tio
kde
stvo
ligen
▁yan
▁Master
▁Ра
bad
gunakan
▁הי
▁בג
▁mene
▁واحد
્યો
alta
she
▁причин
мер
isch
ади
faut
由
▁Golf
▁सह
▁অন
客
▁என்ன
▁سایت
рок
▁반
▁Micro
▁চা
▁spa
▁azt
▁hope
نها
hra
▁please
▁sera
▁Pal
▁nich
▁περισσότερ
▁AND
AE
▁потреб
▁هی
▁cuenta
▁Раз
▁obra
лын
▁Pop
▁παρά
uka
kę
▁card
▁해
就是
חברה
▁bona
▁ami
▁없
습니다
▁algu
נשים
দিন
름
▁پای
тор
ře
며
▁Nova
▁эм
▁году
▁نمی
ėjo
▁2019.
▁sá
▁години
気
현
▁76
▁Bun
▁робот
овых
▁топ
▁toll
▁tant
ams
ဟာ
▁ஏ
▁Control
னை
▁새
▁przypad
hotel
▁lagu
istä
ਫ
dam
▁αντι
▁august
▁1,5
▁välja
▁bhf
▁세
▁source
未
année
ының
▁فیلم
▁బ
▁direkt
мы
▁sel
ร
tão
波
석
3)
לי
▁Forex
▁ante
тоа
حسن
▁ple
▁games
dre
▁Ford
▁Cap
cái
▁61
▁тут
▁मह
▁prix
▁ச
▁Intel
▁cerca
HA
śli
▁бойынша
ガ
kuin
古
ኝ
nova
▁Fu
ship
ẳ
→
лось
▁Haus
terá
▁Well
стан
kai
нее
钱
‪
Sa
tama
▁Market
▁event
جة
▁januar
onze
▁amor
gjord
tje
tên
▁hlav
ível
▁Те
▁گیا
pil
áš
вести
head
▁Cup
▁cat
已
▁sia
▁children
▁szám
ნა
enda
▁szerint
▁pret
ക്ക
▁ವಿ
▁osa
কি
Co
场
जब
group
▁때
İ
memang
אלה
▁ਸਮ
▁яв
repeat
▁jedna
ענען
▁ху
නු
chez
▁mí
▁travail
▁ફ
latest
红
▁tablet
jí
von
kuwa
ZA
▁title
ith
')
бити
▁Back
tetapi
▁دارا
ról
Δ
ర
▁Buy
ným
への
▁1995
ٰ
ո
ਝ
▁кой
▁[[
▁første
▁eso
▁לכ
。”
▁Print
▁klar
xx
▁working
▁Ring
igt
▁AC
線
▁ያ
szcze
▁virus
сын
▁lai
uil
▁há
خدمات
žu
▁products
▁ਪਾ
▁права
utstyr
ху
dio
▁Ty
▁difficult
▁туралы
▁study
ғ
▁Review
▁amet
ión
▁performance
taip
低
ява
建
ində
ቻ
▁eg
출장안마
چه
▁באו
▁równ
▁강
▁يا
ât
タイプ
droit
▁Info
mış
یلی
▁связ
▁credit
ias
ιών
▁baba
ainda
▁Size
qui
تاريخ
▁sok
▁logo
▁бесплатно
tig
aran
▁grund
IST
▁Here
▁Με
કા
▁በመ
버
▁Bau
Ý
给
▁जान
फ्
වේ
όταν
ವನ್ನು
igu
USD
service
▁sér
▁Jahre
▁sens
▁pl
ём
ść
▁थि
开奖结果
▁договор
лення
▁য
luk
▁AU
kw
īgi
دا
▁συ
ishte
оқ
▁перш
شن
两
▁Bas
తో
청
▁Roman
▁Ud
த
▁nə
▁वर्ष
▁posted
▁milion
天天
ược
▁24.
ица
形
ском
▁ሲ
▁fort
▁בר
▁1990
ție
ര
ಹ
aquel
kali
布
▁nuov
ాయి
▁جب
▁Rp
قابل
itatea
▁anterior
ають
ורים
▁oil
글
FA
▁Hy
▁Company
▁أم
נס
ດ
▁než
GE
▁Wild
čių
▁راه
解
Ο
통
▁Series
▁camera
▁Nacional
iến
ture
ând
▁동
ating
▁দেখ
▁band
め
ɨ
▁presente
▁organ
dum
Ne
lere
baar
waren
चे
▁genom
MO
▁sv
▁මා
六
디
ѕ
进
900
Щ
בד
även
ನೆ
τη
▁PRO
▁거
Il
ware
හි
بحث
▁míst
▁diferente
▁sekali
▁nama
לת
mel
▁Jesus
افغانستان
Dalam
很
루
जे
▁Kit
▁선
▁pic
テ
▁Bin
ав
აში
▁Artikel
RA
▁Å
▁28.
ケース
▁ekonomi
▁ઘ
▁84
вся
こと
hov
mēr
▁hati
assa
ello
View
▁management
▁త
▁ښ
μην
▁فی
ще
יל
▁фа
▁79
চ্ছে
▁ili
ंक
▁norsk
▁بنا
ір
ogni
αί
▁Ul
tou
▁ис
▁tla
▁פי
หรือ
▁students
હી
首页
格
▁menga
▁Amerika
ск
▁86
▁αρχ
amount
▁aspect
eaza
وضع
▁σου
όν
开奖
450
ony
στε
ized
සේ
▁ilk
▁Natural
tää
▁زن
▁Call
חה
▁Voor
ог
דות
▁prac
源
Target
],
▁familia
▁בד
▁Hall
▁труд
ding
בכל
▁tad
ന്റെ
▁Region
সে
oka
▁مصر
ገር
ações
▁sous
▁през
களை
▁অনু
▁период
▁между
▁29.
666.
pri
ዮ
Dette
▁League
▁tao
▁edi
ത്തില്
६
▁begin
▁Jam
▁Ved
rait
▁park
▁Website
▁results
▁Ан
HP
▁област
▁पू
job
মধ্য
why
кільк
apos
hana
께
eða
意
MT
▁система
ꞌ
包
ень
▁tun
66.
rasında
watch
ize
wal
▁collection
▁වෙන
▁પો
zet
▁сре
itev
▁בית
ေန
abi
ጉ
▁fung
▁არა
▁studi
▁inne
ľ
uru
ර්
客户端
▁Kami
交
▁przed
干
حول
▁(9)
وى
▁350
知
▁92
わ
ology
▁especial
▁Мар
entry
YA
જા
▁78
lə
AP
hư
iran
▁भारत
akkor
gia
ann
▁Centre
ýt
Hà
〖
На
省
▁director
▁240
▁Machine
veya
လ
▁interior
τσι
▁داخل
langsung
▁המו
ër
dus
チ
▁справ
ാ
iske
▁mū
ਤਰ
▁artikel
δ
omba
▁1-
bagian
那
赌
jego
▁cal
egi
▁تولید
donc
▁قر
动
مین
160
ær
णि
▁tru
قط
лог
бва
▁ಇದ
秒
▁hel
▁مق
pf
ರ್
▁Pin
▁prezent
molto
არის
يرة
ვა
▁деген
ウ
haus
▁κα
vilke
няма
▁national
jf
ਠ
щу
書
▁conta
ለው
เดิมพันฟรี
▁ўз
▁ఒక
▁Note
Қ
▁ભ
▁mental
▁(12)
▁pedi
▁Ի
▁GB
alogGroup
▁Ai
▁Pot
▁impact
▁path
hus
▁מנ
▁Dat
They
Ա
▁ඇත
ball
ments
▁priser
ји
▁लग
▁List
νο
မႈ
▁360
▁Check
embre
რო
▁cré
레
春
той
ibh
世
▁effet
igh
EUR
▁trading
▁pana
ını
يين
ビ
تها
aripada
▁elő
▁당
▁reason
یق
ात
▁сал
000
áre
ального
▁Ž
▁사람
▁లో
दिया
ড
▁بخش
krijg
▁люди
▁നി
▁term
▁End
esi
▁Ά
node
▁regard
ors
▁follow
וך
▁개
Ni
▁loo
еш
너
▁готов
play
▁machine
ത്തെ
மா
▁Shu
▁ανά
นั้น
▁2015,
life
▁Express
▁esa
live
كس
▁horas
घ
Go
voj
▁LE
▁dall
油
తి
던
ડી
bahan
atakan
▁andra
orum
▁Cre
출장샵
યા
▁hotell
▁zir
足
▁George
▁stand
में
▁gru
▁pur
▁беш
número
▁Wikipedia
أنه
론
erine
▁author
nı
▁persone
▁جنگ
▁Server
▁қызмет
moz
▁غير
essa
higher
ಣ
mmer
action
إن
nė
▁Ọ
public
توجه
いた
▁method
stein
▁log
hem
নো
▁UN
zik
nueva
▁मिल
称
ță
▁Oh
ller
dont
的な
موجود
nel
ött
포
▁મો
え
գ
▁والم
únic
▁screen
News
▁dog
▁self
▁знач
파
чего
▁جمع
▁שב
▁Σε
▁Sony
ļ
▁Share
▁хам
교
tanpa
▁держав
▁kimi
▁развити
▁sedan
▁فق
▁Հայաստան
▁भने
};_.
leurs
جا
▁वे
▁શક
▁novo
京
GT
▁код
තා
▁lucr
受
ários
hòng
εύ
▁ST
▁center
ड़ी
민
▁MO
encore
alement
▁ст
blogspot
▁klient
ある
▁लगा
▁Standard
▁Mah
lov
نقل
wv
jj
Value
mula
hara
ude
tlich
લા
▁Fo
그
holder
aste
▁жол
▁Other
▁обл
▁மு
▁viet
וח
▁#1
▁Royal
keun
անց
ас
она
ings
ныя
▁Mur
всем
▁شخص
antal
教
down
▁Für
TB
▁After
▁мест
▁lista
▁candidat
▁Fri
(2)
sulla
ус
▁сторон
डी
hulle
jb
▁น
club
kerana
ური
▁clean
▁khá
vind
đ
első
eň
▁FOR
ונות
▁Old
tous
▁داد
อยู่
ojnë
▁جدا
larga
laga
▁Dating
워
▁sezon
▁וכ
▁İl
йил
ệt
▁rasa
Μ
tant
większ
▁Classic
▁juli
▁место
તે
▁sebe
مية
reach
▁defini
▁Lee
▁acord
▁ел
කට
لال
lia
pes
▁koj
باب
ţii
وان
Gratuit
▁१
▁linda
▁2017.
준
ecare
▁privat
▁Բ
dagi
тым
שים
hua
vant
lepas
▁description
百
డు
kiem
сть
▁Од
▁74
座
առ
TO
▁Tas
▁معا
▁september
▁стан
▁Tal
ряд
▁photos
after
死
▁велик
▁glas
发展
▁mia
▁Ham
▁juni
▁출
dala
▁maa
ਮੀ
▁siden
▁ib
▁язык
▁материал
▁wê
▁مم
▁Ø
XS
▁आज
▁Ρ
ønske
▁больше
▁Christian
DB
gada
위해
▁ਸਕ
mini
▁έκ
▁ಜ
夜
▁بي
اللہ
जन
vært
tare
tok
▁direction
ۆ
ిన
dır
▁figure
격
▁மா
放
niveau
íg
ступ
વામાં
▁pute
ंग
បាន
lus
▁قانون
fel
après
corso
▁kunt
▁ਵਾ
▁1:
▁Off
▁effect
По
עבור
uro
▁stars
وړ
بة
ép
ി
▁Vo
房
▁receive
kus
▁برنامه
dentro
ulu
▁Find
ભ
她
▁හැ
wọ
▁прв
▁ගැන
रहा
▁src
ү
ሻ
werk
▁актив
Je
kho
ઠ
છ
▁Project
ווה
니다
▁Ros
卡
map
სა
▁presidente
לב
▁Ray
결
▁93
unser
▁deposit
▁мм
ਣੀ
▁Pada
alami
▁Israel
▁pros
▁host
قات
▁देश
▁animal
mir
▁Ä
Femei
לט
NE
دولت
ują
IP
▁смо
Dengan
反
▁Airlines
▁mode
▁재
▁proses
▁દ
▁সি
▁string
▁отдел
ल्या
▁Jos
▁example
▁સુ
▁العمل
torno
▁ओ
ël
אות
σ
%5
شركة
ින්
888.
▁Australia
男
ије
防
ost
бір
سابق
▁sign
იან
!!!!
▁turi
▁עצמ
رد
▁tua
▁baby
већ
float
ราคา
▁Sports
▁ris
▁한국
▁pal
ño
▁práv
▁تهران
▁phone
Ако
▁две
▁future
erek
123
μεγάλ
ются
acht
its
▁gente
žd
ilang
▁அந்த
▁ihe
▁Kol
ు
深
▁mali
▁Maar
נט
▁dulu
otto
▁jog
▁argument
plus
وارد
▁client
▁91
δή
הן
▁Пре
▁Produkt
nhau
dw
ился
▁狗万
▁χ
tidig
▁présent
חדש
ولی
▁contrat
stante
gdy
▁राज
▁libro
xml
▁country
เงินบาทไทย
ික
FR
ೇ
▁month
▁Paulo
▁الب
▁состав
モ
▁Xxx
▁Ки
ников
▁Ту
▁miss
▁Nor
▁ווע
MM
všetk
stop
▁እንደ
▁Tre
▁پار
▁Kom
▁Washington
▁bata
▁হয়ে
hez
▁kein
▁Sab
▁ਕੋ
▁позвол
▁رس
այս
ského
▁части
8.
▁સમ
▁maken
▁تس
▁गर्न
вен
▁ਸੰ
하지
ਗਿਆ
▁หรือ
▁durum
Nous
قوم
ులు
5000
▁hang
לפני
▁ખ
uploads
utu
时间
▁ngay
xpj
miş
anak
ких
ují
▁mun
AH
σαν
ಗಳನ್ನು
ઝ
▁sl
שלא
you
үү
become
Mu
ely
▁create
▁jour
chung
Leave
▁office
uang
▁Copyright
▁avant
▁др
になる
▁international
سبب
об
▁hud
کہا
مناسب
טן
šanas
▁بازار
تون
▁ligne
etti
ضم
ҳо
▁ઉ
▁space
▁öz
orang
▁Escort
.“
រ
▁sor
▁Final
נק
ρα
اپ
රට
▁آس
▁Lin
▁бизнес
进行
ໃນ
GC
CN
بال
inis
▁Tele
Chapter
llo
ਬਾ
ките
தான்
接
▁노
출
▁moc
uli
ellä
zw
עיר
Scarpe
iam
List
ሆነ
▁Brand
▁Sel
Bar
ēt
▁mercado
چھ
кор
בח
▁кредит
▁खा
Per
▁map
ρος
▁лв
вы
-17
almente
board
▁vend
▁Product
çe
▁nice
ま
maya
ینه
ію
▁Room
атын
▁Telefon
kata
ક્ષ
▁bersama
▁नेपाल
▁Δι
Image
▁tij
▁kvalit
ছিল
':
▁klas
▁הר
▁Fall
▁beau
▁tax
order
▁89
дық
system
క్
室
agi
▁Aku
▁informa
条
▁1994
কার
▁dh
гер
▁points
▁איר
ブ
bur
▁Ev
Mo
سم
José
මම
ția
گزارش
terus
ես
verp
**
▁сол
ախ
▁ار
지난
inio
ტი
▁Door
μόν
▁Isi
(0)
ghi
یس
ლო
PT
▁kus
ట్
href
▁със
ժ
▁देख
தை
▁jedn
▁ซึ่ง
즈
גיע
▁انسان
ската
약
▁dni
半
▁Bai
рат
▁kara
▁bang
නි
macam
efs
:“
lerini
feed
رأ
▁하
cukup
▁şə
▁Come
unoaște
▁73
▁සං
Wenn
edu
aha
ក
سر
્યું
▁ди
њу
geht
kaan
led
kak
jn
wel
gle
▁vuo
ਣੇ
▁ҳа
▁Travel
▁Are
ሆን
ထား
ưng
عامل
▁condi
lie
▁sum
▁‪
nden
▁agent
▁автомат
▁ду
अब
美国
svc
вал
▁مهم
ছু
dığı
pal
azioni
pai
▁gau
אמר
น้ํา
▁Tin
νει
עבודה
ثم
▁hen
▁Sverige
▁необходимо
▁30.
▁900
uvent
іне
च्च
مرکز
ומר
filter
▁sier
2011
▁بالا
▁aŭ
ეთ
оў
indre
ские
ต่อ
111
όμ
▁nap
άνω
▁Modern
▁Geo
året
▁új
بیشتر
▁úč
▁kerja
MS
▁সময়
▁ერთ
foto
anya
อ
నీ
▁menye
ayo
кан
士
дер
තු
料
शी
For
▁charge
▁cv
난
ക്ക്
气
որ
박
qi
جد
ምን
单
▁click
▁tell
文化
eras
▁بم
▁pens
Math
είο
▁Sul
▁хал
▁mě
ίνει
▁μετά
escu
▁특
Za
лары
▁රී
It
צד
더
حمل
صدر
Jika
▁koko
▁ໃນ
ু
тки
handlers
کو
▁발
▁Fra
zor
▁مست
offre
▁خلا
▁done
▁நீ
ရာ
քում
lek
▁próxim
یک
نین
قطع
▁reading
▁River
▁اک
▁بأ
yle
ढ
ਡੀ
▁kala
▁چند
▁мас
-8
▁الأم
▁81
ဝ
คน
रो
黑
▁tour
huyện
▁Problem
▁consum
▁സ്
▁poč
stup
రో
综合
▁CON
中心
শা
ترین
▁ciudad
radius
ეს
бек
屋
world
zz
DC
آهنگ
▁२
▁forex
第一
۾
ța
▁mog
፤
▁än
▁아니
හෝ
▁Author
Ө
อย่าง
9%
▁લ
алып
▁oti
▁OK
▁pasti
▁ایس
▁beautiful
ใหม่
님
▁learn
மை
ướ
▁travel
iye
λα
▁hack
▁Ara
ME
fen
▁factor
sebab
şi
▁continue
达
now
εβ
bis
▁ולא
▁Tem
▁mij
افراد
▁σχ
teen
ਿਆਂ
▁musi
stă
CR
▁আস
viktig
უნდა
▁Για
▁ço
曲
▁Jack
▁жил
וץ
▁82
ön
▁raha
▁Blu
▁আগ
error
▁member
massasje
ming
▁şey
搏
▁рад
inė
▁бил
▁tinggi
дор
หน้า
▁చ
▁superior
mise
fh
▁ideas
▁PER
茶
cam
שנה
ಡಿ
ساعت
▁Գ
▁jun
ву
▁பல
▁bai
▁verk
▁sud
▁vind
ુ
▁ژ
ият
:20
▁نس
▁Technology
▁Zá
stęp
▁Poli
သ
ੁ
யை
▁Chu
▁Indian
vns
PS
▁darba
▁सि
▁кон
▁Most
▁box
▁vier
▁4-
▁দিয়ে
ант
▁tham
▁Dans
ź
▁слова
22.
анд
ጭ
▁ditu
▁κι
eret
▁বাংলাদেশ
ίζει
▁Br
▁Research
တြင္
▁política
▁groot
ไทย
ਨਾਂ
▁الز
▁diper
▁Information
▁season
با
4)
▁Nur
▁karşı
fully
▁decision
▁/>
▁confi
истон
▁faa
▁URL
zh
ทํา
ግን
▁accept
เพื่อ
▁гар
च्या
▁segui
Vi
▁सी
▁Ultra
ئي
ໄດ້
gamot
halb
KS
▁plant
eye
اح
▁similar
ෙ
רבה
▁individu
గ
▁mõ
そして
▁haber
▁folk
EA
▁рук
ણી
"+
▁Norge
\\
ړه
fan
▁Επι
▁menja
יו
▁Pero
▁tel
▁ofer
▁احت
▁options
부터
trung
ጀ
▁error
▁perfekt
لها
ቶች
mod
నా
▁واقع
▁rencontre
▁នេះ
ילה
▁import
уд
هدف
Pa
дын
بہ
▁Lang
▁fest
ใช้
msc
▁فعال
בע
city
Č
amba
▁لي
tii
▁حل
ес
▁force
echt
▁87
▁Ví
▁Κρ
预测
▁فرا
6)
olika
▁Mü
لك
110
,“
yana
дир
▁asi
hiên
▁Donna
▁1.0
жи
▁לת
uf
▁культур
oti
▁Hill
▁1.1
ואר
ৰ
▁Ing
▁ਸੁ
чин
tiden
ans
ା
tiap
▁ME
▁ফ
ভাবে
These
▁Journal
▁kang
▁slik
千
જી
▁71
▁seem
▁1992
près
Ն
▁Fin
articles
ани
০
يكون
▁ಸಂ
▁hair
▁стар
щи
డి
ऊ
▁daž
▁Views
ニ
▁fal
▁Silver
године
bul
▁CV
▁курс
вляется
▁1991
IC
▁Ven
松
▁собствен
mijn
had
▁información
जार
▁alternative
lá
▁እንዲ
▁nás
ኣብ
ක්ෂ
▁hans
शा
حدث
සිය
mara
▁wła
▁publik
▁3000
ভা
▁visu
τυχ
కూడా
▁Stock
როგორ
▁گل
آ
ملک
▁žmo
בים
▁sao
▁කො
▁Special
۽
ème
▁staff
▁fog
盘
하다
isen
출장마사지
▁adapt
TE
isha
رش
▁মু
bed
жээ
▁stil
white
ều
▁miles
nic
شار
anderen
▁zelf
লের
ځ
%22%3
▁qab
ں
▁público
hiyo
íme
▁ibu
mene
ු
agem
▁completa
▁Estado
एका
ghị
הדו
▁bine
▁ທີ່
timbang
▁insan
▁siya
▁sak
▁lalu
سه
ladi
女性
اة
▁الص
▁Anh
ධ
lúc
եք
▁Hari
vos
:2
yje
▁Mask
▁10%
Ы
▁Ole
▁nám
దా
ара
энэ
jat
ireo
▁לצ
▁left
▁AP
▁ese
李
posible
pues
▁만
יבה
لى
cause
落
heit
上海
सर
ально
▁cos
利用
▁letter
vám
▁lever
달
RS
▁क्या
▁त्य
ούμε
社会
▁seva
▁Grande
▁ਸਰ
▁ace
▁куп
▁PR
ધી
स्ट
▁Ent
▁***
শেষ
rata
ריך
QA
▁истори
rse
▁vista
▁quart
UA
▁цена
▁πολλ
வும்
목
സ
olyan
ائم
任
ثبت
全国
facebook
話
▁history
▁3.0
":4,"
私
▁lett
▁drive
▁option
rek
мон
टर
▁(6
FF
мін
amiento
वी
▁Premium
▁იმ
ajax
rů
▁cer
▁אנ
tions
ալ
..."
дағы
▁selbst
ড়া
ост
youtube
피
▁правил
▁Station
▁Ó
▁1.2
ként
czas
精
лер
こ
μία
ир
▁anu
ותו
▁bur
如何
▁fyr
תן
信息
once
임
可能
▁استان
kl
abb
▁questions
▁yake
ston
▁kul
▁enkelt
▁شک
▁Kontakt
кен
▁க
pang
▁nom
노
Yn
。。
▁miest
części
▁correct
ध
ణ
▁حق
forum
usaha
year
▁pacient
ishi
duke
▁Але
liver
▁user
▁tích
siempre
▁né
▁aug
▁нэг
schen
▁LG
gin
checked
〗
dla
▁бюджет
▁jQuery
▁شر
▁گی
▁doen
חיים
▁تف
ೂ
angan
▁Work
▁About
▁mora
ኒ
ην
▁94
▁Els
▁המש
ká
▁nord
ൂ
のが
hora
ROM
לאחר
දි
▁exact
▁YouTube
وزیر
ör
▁hain
kum
טה
▁дел
bentuk
▁Science
سب
aggio
όλα
message
▁terra
▁Meng
grandes
▁yüz
▁KB
כלל
▁اي
▁அத
ਕਾਰ
▁dopo
քան
▁toimi
ώσεις
▁Kong
毛
2009
코
牌
სხვა
▁چی
cja
▁शा
▁2.5
nti
▁پرو
▁অব
עובד
▁roto
bou
eres
▁lähe
iej
▁Шу
ilah
▁номер
මු
▁ዘ
함
uses
▁septembr
▁trata
పు
▁precis
もの
▁Ou
▁Ag
օր
▁ని
hiế
▁encontrar
▁Card
▁tý
▁arm
▁papa
vá
▁festival
segundo
▁পু
فل
▁Airport
avi
رئيس
▁Games
▁Studio
လည္း
maz
Bu
▁eftir
内容
ага
дня
ობის
راه
ști
邀请码
▁יע
with
tě
▁</
▁sexy
BET
bija
▁Adam
cir
▁Pat
bak
带
кого
▁büyük
tara
ovo
▁تأ
Key
强
▁Recei
▁suur
▁pea
▁ζω
bio
▁Wood
яна
▁0,
bawah
лаш
ዶ
▁Hospital
180
▁хорош
▁របស់
▁Song
▁Deutschland
gmail
▁கா
▁fact
▁aange
ходит
使
ਸੀ
كانت
óc
▁הו
ľu
▁Î
ihin
бер
▁રહ
My
ស
▁غیر
dnia
description
uoti
▁rapid
▁زیر
Te
Ar
▁మర
365.
▁Θ
▁מג
そう
bên
▁ክ
ेर
▁vitamin
▁خارج
eller
دى
▁การ
▁생각
ኮ
▁pasar
▁nell
▁unit
ieron
▁dute
▁оста
Di
רכב
▁कै
▁Anne
▁Berg
▁اع
lgan
▁입
▁compra
tong
load
ligere
▁series
▁Unit
ន
▁pula
ských
▁Yan
همه
так
▁доступ
ણા
1.5
▁آی
▁göz
ډ
▁Type
Læs
חנו
junto
▁Marketing
ברים
▁Dal
▁թե
ready
inte
分时时彩
▁втор
wen
έα
UK
▁отлич
ایت
▁Nav
ière
▁projet
▁провод
وس
▁poker
▁ሰ
▁Wil
مي
ಲಿ
▁negara
▁κατ
ται
판
มาก
लो
فر
▁процесс
liv
에게
nilai
دد
Click
▁absolut
वह
big
Do
▁corre
yti
▁Hor
▁метод
▁Mart
▁üle
▁hei
ळ
ਸੇ
десь
ช
▁tahu
発
▁saber
selt
▁apar
▁thing
sto
▁chiar
▁Kosovë
▁स्व
▁goal
Info
▁хар
উ
▁fri
▁спорт
▁Brown
xi
▁نور
▁ஒ
hong
low
nings
بی
ויות
яго
ארץ
▁Sta
▁działa
weg
PK
ines
ダ
島
otros
▁relativ
мар
▁dva
▁zdrav
TH
aja
▁Ελλάδα
фа
Black
ikka
char
niż
▁À
৩
ånga
▁rate
网络
vordan
ượ
▁НА
ણે
має
erede
zat
▁chun
▁pang
▁mulig
ん
되는
▁walk
매
navigation
▁Preis
▁դե
▁Рас
あ
TI
武
SW
parent
!)
acja
▁Front
hand
▁پور
ට්
ضرور
оз
▁billig
▁behar
▁möglich
best
সঙ্গ
שת
ستخدم
▁اين
ジ
▁nok
▁tend
▁ET
▁Centro
enti
건
▁Pay
▁DC
ో
▁Kat
▁solu
ησε
ath
google
▁panel
▁aga
বা
kop
stone
▁위
対応
▁Two
Giá
▁бид
дам
bedre
cambio
PL
▁մասին
(1
万円
▁miglior
▁správ
▁Add
などの
▁रह
▁Ва
▁dünya
▁транспорт
▁నా
یط
▁liber
린
hed
شعب
▁1970
▁ndër
oku
هش
▁malo
ності
线上
买
७
פות
▁together
▁Food
ਮੇ
▁101
larning
pued
část
▁facebook
▁verde
שנים
▁карт
▁1500
▁range
▁Januar
RW
▁включ
▁systém
products
งาน
▁ყველა
fit
thu
ولة
▁размер
▁intens
▁Audio
মি
▁vec
24.
▁Fit
ış
▁Bil
▁chance
ሥ
▁रुप
▁Law
eerste
▁nabí
မှာ
初
▁ISO
ahora
량
лек
zone
kite
arte
▁Über
▁passe
▁Restaurant
▁bel
▁Report
یح
▁compte
▁jis
ֲ
▁Femme
▁ven
▁prej
وق
డ
▁1993
▁göre
▁المح
Ž
▁neden
▁cik
▁представ
ন্ন
лардың
▁tx
玩
ütün
män
الة
সা
▁ऑ
multe
لف
means
Β
▁Story
▁മു
▁چه
声
▁грн
▁Лу
▁נע
lona
▁អ្នក
▁Sara
py
মার
▁pois
▁керек
▁profil
CG
▁nyt
ëve
절
▁reviews
▁дец
▁ఉన్న
ungs
▁గ
May
▁economic
ward
itemId
వి
▁ਭਾ
▁клуб
عت
▁қала
kaz
نې
ड़ा
▁වෙ
▁avis
▁CH
▁Image
▁каб
れ
▁член
boy
ட்
▁83
ned
▁предлага
bylo
яет
▁kuch
pod
Υ
yat
ван
▁වන
ье
ան
LY
seus
遗漏
▁procent
▁vas
çi
nieuwe
ดู
▁дела
▁monitor
▁Bra
angka
given
eerd
▁bruge
FC
▁otra
RU
ヤ
▁هست
ŋ
▁дом
TEN
kla
טער
را
Latvijas
▁lư
ರಿ
ative
ST
▁Ok
ულ
লেন
▁fill
nouveau
▁Mod
"}
▁президент
風
steht
▁edil
Mujeres
lerinin
ûr
ավոր
شکل
ável
аться
▁شی
▁win
▁жаса
▁ਘ
집
▁zal
ева
ikin
▁tap
RT
++
ña
▁IST
▁(13)
ларга
▁Email
лег
▁Sed
ابع
▁input
ී
coup
▁прет
▁idő
스트
▁hora
▁Hem
▁MS
ује
רש
▁корист
jsm
▁Side
吧
들은
フ
lina
႔
▁Jakarta
키
装
ਗਾ
▁leis
共
算
▁Ace
▁konu
▁Local
SB
gaat
दि
εις
网投
▁carte
▁action
місц
LE
called
▁Mel
ət
iksi
êng
▁két
Các
WD
ené
гон
▁220
itan
ীয়
▁vēl
Курс
▁관
▁doch
▁அவர்
ില്
า
▁hana
▁మీ
▁פר
وفي
rite
ため
▁студент
bud
ঙ্গ
▁בכ
▁Fotos
▁European
书
無料
धार
▁Phone
▁мед
ums
ẹn
ידע
jus
aci
szych
ээ
▁Seks
מיר
セ
▁guide
▁факт
mica
AN
oltre
osť
ুল
▁клас
ається
▁trabalho
ীর
moja
fè
▁мі
MI
খা
赌场
elli
▁ball
KB
▁DEL
▁міст
inda
iso
פט
დება
場
вој
nei
θεί
Trong
वि
▁Mc
oût
ür
நான்
MG
▁print
▁iPad
▁ausge
idagi
▁იყო
mobile
عند
oğlu
ži
from
သည္
▁1.6
SP
▁сте
▁отзыв
ník
aquí
▁اله
▁edo
▁Barat
jë
▁tiu
PR
اری
ಿನ
▁stress
поред
gerne
liste
NH
▁حد
▁december
▁เงิน
▁bulun
מר
▁movie
320
▁nes
tentu
戦
▁кам
▁сезон
◄
▁ګ
▁Gun
አ
▁בל
ჭ
ajo
▁31,
▁smo
▁път
▁presta
tikai
便
کس
▁mie
ər
នេះ
عکس
▁muda
cung
álta
▁Abu
வி
▁बढ
▁新
▁сме
▁★
による
ਜੋ
rel
കള്
▁гор
▁Mobil
Θ
نشر
▁घर
향
bon
▁mål
lands
tol
▁χρ
▁president
Used
▁later
hor
投
сад
7)
uva
vrai
iza
શ
φέρ
नों
▁Wo
VR
für
▁Ama
▁(10
בל
hật
נ
▁хүн
,#
альный
nja
在线观看
▁לפ
▁signal
▁suite
▁garant
▁Saya
anno
▁exempl
▁ಪ
zal
▁jā
▁maison
ர
યો
dere
until
▁128
▁ពី
ਾਇ
ತಿ
ပ
▁Автор
▁ደ
bij
تحت
▁大发时时彩
ಂಬ
▁posta
▁target
când
fanya
venir
▁SMS
▁meta
ði
avo
▁બા
▁Ար
▁restaurant
вот
idan
লী
лся
ത്ത
▁град
נע
356
က်
▁въ
جامع
kort
▁לג
▁Bild
▁audio
pon
පු
▁тех
▁Mercedes
Ի
▁produc
ਫ਼
dapat
▁Kwa
்
eco
▁Juni
政府
投注
▁sense
▁Movie
йте
કાર
कांग्रेस
▁क्षेत्र
没有
Ե
He
हाँ
larına
▁Sk
gre
baka
▁இது
entes
uhan
ჩვენ
toho
"],"
zó
▁gain
▁بھ
yć
ٹر
توسط
law
ellos
▁monde
▁постав
што
ጎ
▁қил
ሲ
▁ارز
instance
checkbox
ovala
▁Türk
▁мир
ជា
ුණු
स्त
পি
▁Style
该
чен
htm
ţie
جاد
だけ
Show
кога
ಪ
ине
▁Will
▁update
ვე
▁одно
▁fem
أحد
ению
▁pemb
เลย
tahan
▁اج
▁ચ
▁adult
irt
Web
▁comprar
ahan
▁dik
▁вз
ał
ετ
▁concept
Ə
পর
▁komen
▁pár
▁trouv
നം
▁جی
টে
125
▁law
들의
വി
▁cil
▁Có
shirt
gus
měst
work
čka
یات
lom
رت
시간
حضور
▁TE
▁מק
early
研究
▁probl
▁status
имо
▁trop
ডি
▁position
رے
▁Mid
▁Jó
▁ביותר
lük
歌
▁klein
▁ලෙ
லை
oktober
stock
▁cél
▁미
cem
▁indica
即
▁training
▁Museum
▁kale
бі
ዴ
▁poi
▁общ
▁dai
uch
JS
▁Teen
▁ری
ør
شی
●
▁programma
▁רע
imet
ших
▁ហើយ
▁cheap
朝
ток
tà
udi
▁onde
▁ਕੁ
350
▁mondo
UU
ذر
服
指
▁Produk
ਸਾ
▁beh
اتی
tenir
▁Νο
▁파
▁هستند
صاحب
收
isce
stess
▁kullan
embantu
▁možn
ರೆ
▁transparent
ято
ಟ್
▁nome
▁rezultat
▁XL
مات
▁Bij
רן
Δεν
turi
▁application
十
間
měl
▁жан
▁Česk
יפה
む
jana
デ
付き
▁kost
מצא
▁lip
▁España
מרכז
зі
▁pien
δύ
نان
▁lige
rebbe
દા
stä
▁აღ
▁Biz
▁зав
ниот
users
சி
ಶ
sit
kam
nouvelle
wana
幅
дали
▁қол
▁servis
▁inclu
▁اسلامی
JI
עבר
▁жар
رخ
Die
▁Bus
ilyen
צט
abril
▁Ин
μη
dou
कारण
кова
rtl
tain
krát
香
▁للم
sifat
leicht
双
ลงทะเบียนฟรี
十分
ກ
ඩි
▁வி
九
▁jaki
▁количеств
جہ
डॉ
▁มี
עים
pois
▁TH
▁Ар
ssä
▁примен
heim
技术
個
▁Хо
▁جهان
▁آر
▁ന
jich
kter
uji
▁message
망
▁pierwsz
Ўзбекистон
ඹ
▁գ
hia
网上
غو
dust
▁შესა
uatu
▁feb
దు
Lietuvos
ρου
лись
Updated
liye
▁Bitcoin
▁Bis
▁Sea
▁ថា
▁happen
▁директор
nunc
▁ساخت
ович
tüm
тися
ලි
დრო
صد
derecho
ию
jenis
email
▁תק
▁Gas
ього
▁sav
▁زمین
▁условия
▁termin
▁strategi
▁Hong
ለም
태
▁მა
thn
▁Town
▁เว็บ
צר
▁euros
tento
▁dokument
love
▁Arab
cus
군
This
/_
▁появ
разу
▁belang
কিন
▁көп
dział
երը
ている
قول
ům
إ
ುವ
τά
હ
קט
▁grad
▁призна
ënë
så
သာ
ובה
▁Lig
bw
▁temp
Code
▁;)
ностью
▁below
▁измен
▁Ваш
ление
▁שני
siya
▁Table
Û
ják
ink
▁Res
AR
ней
▁continua
קבל
▁motiv
▁ومن
▁objekt
ποι
lagi
▁παρα
шли
▁مه
fun
体育投注
امن
▁Це
besar
DD
官
苹果
例
▁modelo
ră
▁બે
ですね
nga
φορ
처
▁කරන්න
zas
▁レディース
▁Hvi
▁community
处
▁һ
ír
▁government
ர்கள்
▁ব্যা
▁Human
زندگی
▁terbaik
ох
▁분
getting
borg
ācijas
▁аж
▁Personal
▁Kota
▁paan
電
▁stran
▁Head
▁Bill
▁után
움
nummer
ように
▁parasit
stāv
▁lava
▁ਨਿ
kaŭ
▁gaz
hati
常
չի
▁він
▁conform
lors
કો
URL
tera
总
itaj
тары
قة
▁2016.
▁الأول
▁makan
▁Kung
▁кара
▁комплекс
▁issue
▁invest
▁Liga
▁uur
▁מר
切
ለት
Link
▁Sud
เครดิต
ትን
▁trova
કે
▁Stadt
remos
اية
ವಿ
▁complex
geben
▁Pla
बात
රු
▁quick
ительно
▁kok
δια
yder
▁105
▁የአ
taka
▁prostor
পারে
▁penge
نامه
ос
▁dove
ാണ്
chat
ሜ
▁fur
මින්
▁reg
あり
▁അവ
bes
▁החל
чі
րդ
ෝ
spor
▁maha
mez
يون
▁komme
-15
▁大发快
動
нес
▁liel
▁న
jin
▁Miss
▁Februar
त्व
▁camp
wrapper
▁Boy
wî
▁خودرو
рт
...”
▁sól
▁контрол
▁vain
GP
więcej
Ha
रही
▁2-3
콜걸
▁என்
▁muri
වට
▁ради
业
▁fao
▁Antonio
ഡ്
▁শু
cker
ыми
нем
▁His
ейчас
味
▁సమ
▁компании
▁हे
ակ
primera
llä
erende
▁party
▁lung
znam
▁құ
▁Cur
▁önem
Up
▁خر
市场
child
ларни
▁Hard
acak
یشن
ări
▁плат
▁wszystki
ঘ
نجام
▁metod
▁naman
▁Damen
bay
▁olun
Text
memberi
ieu
▁โปรโมชั่น
mesi
▁kanssa
▁zoo
ow
يش
▁Make
ає
+"
items
وال
▁нема
▁samme
"},{"
клад
▁والت
ãƒ
▁1/2
▁Monte
▁SK
转
▁სი
alan
press
▁نفس
▁Fr
mun
সি
▁Hair
logos
ಗೂ
ጃ
말
ically
▁Lan
▁massage
666
▁writing
Or
λί
ಕ್
ню
▁Sri
变
BR
▁Bat
▁Apa
▁possibilit
▁základ
안마
▁President
PV
▁2015.
besonder
punkt
▁aqui
psum
配
▁libre
զ
дел
already
ського
グ
▁المع
geven
▁nature
▁recept
▁පැ
▁yoo
mani
▁Αυτ
isation
บ้าน
▁ٹی
▁всички
ján
bagaimana
▁ker
της
ĝi
▁clear
口诀
▁svet
▁Minister
▁hd
water
یوں
▁profesional
výš
▁massa
დ
θηκε
first
▁جانب
▁অভি
▁SI
けど
▁pom
اض
Google
ral
▁тў
vf
κτ
unu
дә
▁člen
福
▁others
fort
believe
▁ਪਰ
▁trá
इ
ging
▁Ky
meilleur
パ
▁ٿ
ša
ever
داده
▁ever
্তু
▁بت
140
▁Jesu
":1,"
▁পে
РФ
BL
twitter
ทดลองใช้ฟรี
mã
112
▁PU
▁vide
vé
৫
teur
▁αφ
ności
▁пове
▁км
marzo
▁deur
▁campo
▁/*
▁Low
inho
ξε
ёт
جل
ÿ
כתב
▁prote
实
▁31.
▁ادار
▁օր
▁cur
无码
-6
▁इं
欧美
ують
▁служб
daki
▁가격
;&#
giao
▁Minh
▁minute
▁pala
ġ
▁જા
dad
кий
료
▁বল
▁ഓ
750
▁pran
ятся
പി
ன்று
inter
▁redes
ъл
▁contre
▁töö
tw
▁스
▁pose
▁dzi
Nr
▁utilis
▁وم
▁niya
iji
▁Map
▁tekst
ење
▁address
خی
vem
▁TP
▁bom
▁kombin
باره
poca
ेका
updated
ції
וק
▁heel
▁Job
belum
anka
▁litt
▁igen
कारी
Ω
▁Party
▁mul
▁Мен
▁poy
знач
▁¡
▁span
▁gore
ਲਾਂ
тку
CM
▁स्थान
POST
ivi
מור
▁نص
ครับ
▁problém
▁وإ
각
्ने
림
TS
▁egen
রের
▁текст
▁assist
▁Gor
▁yol
ಸಿ
▁মে
▁features
سے
został
דעת
▁automat
谷
▁Nej
▁qar
edad
dit
▁Jim
▁tijd
▁послед
syn
dana
went
▁Ah
▁soit
以上
hìn
▁move
owym
استخدام
ارات
ತ
មាន
zwischen
99.
ист
展
lei
▁மீ
▁אות
علان
esinde
▁concern
▁කරන
ক্ষ
段
шення
chicas
ур
ску
СЊ
ís
pessoas
▁ultra
posts
っ
tima
كثير
▁Aber
▁تل
▁subject
-30
خاصة
bau
aŭ
▁permett
▁مؤ
ț
XA
גע
ového
▁Suites
▁බල
▁mikro
pot
▁considera
כול
▁unique
ање
ღ
▁வேண்டும்
ieux
▁koe
人気
▁নে
лучш
▁Vý
系统
çu
▁महा
▁bú
란
▁امام
gbe
بدون
▁올
weil
jro
▁Mir
▁عبد
▁इन
▁Chica
olu
▁masyarakat
GS
اک
▁happy
كان
草
▁Sch
ංග
store
▁hom
mnie
▁Projekt
▁Gia
ጫ
▁contract
▁×
adora
兵
gbel
吃
▁kolej
roč
თან
▁געוו
での
maq
sobie
તું
മായി
liau
larini
▁בני
రా
▁prefer
▁RM
roz
Ho
ика
▁नाम
▁режим
▁Toyota
ოთ
будь
зу
▁lleva
ालय
बी
승
▁olur
▁SC
▁হা
નથી
▁tab
▁bhe
-11
पछि
▁пос
taj
▁yana
εκ
Não
יק
▁Times
▁Buch
▁serve
େ
ড়
▁рэ
▁것이
গত
ੰਡ
通过
ším
نك
ээр
▁عرب
ений
ама
▁everything
િક
அ
ِّ
▁sth
४
▁wan
lí
хүү
▁※
KG
▁gara
▁Mé
wrap
▁καν
تعداد
equipo
ਦੀਆਂ
▁الشر
▁Já
▁ဒီ
▁남
vien
hatte
με
пи
▁Tamil
▁ወደ
נם
ပဲ
ило
þá
▁дума
dade
▁пока
Και
▁दू
▁dice
toate
тік
▁खु
だと
▁dum
będ
وية
▁machen
بات
CI
▁0.00
було
TR
رہے
सके
abad
kurang
▁gjith
▁Opera
いて
rita
":[{"
根
neue
tangan
▁între
-16
hế
ਜੇ
강
▁Slovensk
نى
צל
▁heart
etwa
关
▁dike
別
hol
▁proced
▁Anal
том
input
▁차
▁Budapest
डा
▁secret
ंच
▁نمای
▁pc
▁Cover
jums
airāk
λη
▁allow
▁Pic
ilih
▁Кра
nių
▁bain
מספר
▁spre
▁рам
级
1-
vc
▁وح
▁step
▁held
▁Grund
kb
шу
▁permet
▁영
veral
巴
病
校
▁mine
ركة
▁کردن
▁fles
əsi
getElementById
ranno
▁boy
hữ
▁Dag
сыз
▁sc
ових
ήθηκε
ישראל
واد
▁falta
ケ
918
mukaan
▁добав
بار
▁mó
建设
▁ដោយ
▁**
▁organiza
gem
▁talent
ενώ
ţia
-01
▁Court
েই
sehen
ukuba
յան
czy
kut
▁prepar
msg
▁Fashion
▁Led
▁şekil
ጨ
▁שע
▁lag
▁murah
▁Wang
连
ying
بیان
issä
эр
মন
▁став
များ
2-
xxx
dî
▁jot
▁коли
prendre
ization
ālā
லி
▁Rosa
▁என்பத
破解
▁3)
▁Пере
deklara
ਕਾਂ
ポイント
▁خا
мет
▁Ef
гор
স্থ
ებით
▁Mad
ával
▁regular
хи
▁نیست
▁domin
▁friends
yong
GHz
eza
мі
ము
▁kak
lerine
ről
▁couple
류
CF
▁кал
შ
není
▁Run
ağlı
ෙන්
▁ໄດ້
ኢትዮጵያ
▁Trans
▁demand
PE
▁sila
▁සිටි
▁пример
würd
iad
agosto
▁хэ
▁оцен
▁Ken
▁จาก
дың
ത്ത്
▁oficial
▁zi
یافت
▁கோ
cepat
▁නිසා
▁Francisco
ذكر
될
▁spraw
ировать
▁prác
▁Audi
▁тр
য়া
DomainUt
▁चल
gjør
▁anima
θεση
▁1989
aji
▁Pur
даги
▁KA
စ
奇
▁бр
ikh
kár
▁sil
town
▁Guide
नि
▁double
jazd
wang
scroll
ണം
▁español
▁هوا
▁situation
tól
▁jää
▁추천
outros
▁لت
dessa
ా
游戏平台
▁וי
ائد
▁Carl
full
▁kitchen
ോ
ਜੀ
اں
▁paar
▁Ind
ေတာ္
▁свят
▁Jin
▁Mp
नो
δει
داشت
リー
ੁੱ
lage
▁tudo
څ
▁በአ
イン
▁Tokyo
DL
next
ária
lot
deg
▁pertama
▁alte
thanh
ೌ
stø
▁بزرگ
▁نک
Video
▁mur
Ё
サービス
▁produktu
▁sand
זו
▁touch
dět
ಕಾರ
ність
▁cit
断
ຍ
ნის
än
שהו
ానికి
▁Version
ေလး
▁Ön
▁170
▁above
▁ES
▁Oktober
mand
ሐ
▁rock
▁τιμ
▁лиш
▁rozhod
LG
▁beso
▁reduce
ಳ
▁موس
▁igual
jadi
▁network
▁(8
▁Ле
▁близ
So
այլ
obras
ились
▁nacional
▁Oslo
▁سازمان
▁яр
נגד
altri
ကုိ
メ
▁Tips
още
望
opacity
▁Adidas
mond
Ob
ば
▁Προ
ಿಗೆ
HR
▁break
▁жизни
اصل
▁Kingdom
să
▁ਗੁਰ
seña
(_.
koa
liği
глед
tit
unui
▁тип
ボ
خلاف
میلیون
tais
▁Pass
పీ
bonne
यस
+'
"]=>
ിച്ചു
avait
▁ремонт
约
▁milli
▁Че
▁Fond
تان
▁mong
tah
نسب
طر
իկ
此
▁BE
少
▁AK
โดย
ոչ
▁Network
▁relax
▁сер
rna
▁proc
▁FL
лет
▁ಅವ
είται
成人
едь
imiz
ブランド
kli
Con
▁young
ښت
▁produce
ീ
க்கும்
ေသာ
安卓
▁SEO
▁дене
▁wyda
***
▁teis
ມ
ün
▁decide
ימים
▁Україн
▁Simon
‐
enough
▁න
roy
CB
▁מחי
SS
μορφ
肉
mag
Publicado
tun
ירים
However
▁2,5
▁մե
рак
даг
zonder
▁фильм
▁Welt
牛
oins
zí
yla
幸运
治
ście
▁hakk
▁mă
گروه
▁engine
▁Gra
된다
곳
வில்
asan
ধার
ņu
cul
▁shop
夏
ائية
Price
ancora
Page
▁lead
ዙ
ור
არ
▁Papa
када
▁Pack
▁худ
rên
这个
▁Face
તિ
говор
▁առաջ
tı
ா
▁बहु
endapat
دنیا
▁Visa
ოდ
:15
▁Hur
SI
▁Tapi
▁дополн
ប
ာ
▁выполн
ليل
additional
환
ojo
&#
larında
▁դ
▁оны
问题
řad
คุณ
▁mark
‰
okud
ningen
рад
ավել
▁Single
absolute
fri
ايي
▁pagal
ojë
ঃ
.[
লার
Es
▁성
ста
▁Nederland
among
ילדים
çı
රා
ভি
oże
чки
ają
فت
▁hold
];
▁ಒಂದ
ເປັນ
రీ
▁members
▁Support
배
愛
তার
▁també
▁mail
▁seguir
лай
recht
Ra
ಜ
▁شه
案
игры
//
▁ас
bles
point
▁ست
によって
ホテル
èl
▁YA
ೈ
▁atsi
▁конкурс
▁झा
daj
kker
▁sar
ără
▁production
krat
ള
▁principi
▁Ос
▁Maj
phone
zin
▁kis
lalu
ობა
Ge
▁maz
▁잘
ادی
ôt
sinde
▁mujer
محصول
әм
கு
▁اسلام
酒
کا
decoration
čno
פי
jal
失
prav
اسی
TX
നി
登入
114
▁Tip
uran
pabila
販売
▁кол
思
зо
slag
лага
mens
èt
свој
յանը
OF
▁complet
居
går
▁בס
gallery
▁ро
▁нив
ვი
बार
▁5-
тон
▁اصل
ლა
split
ട്ട
רי
▁көр
▁marka
▁배
▁Vad
-12
▁Drive
nor
▁kedu
▁گرد
३
oro
▁izmanto
arrival
▁Vid
৪
pic
ः
see
井
وهو
▁vre
anje
▁Danmark
ované
健康
▁donne
ением
▁mono
▁daga
نشان
design
▁ситуаци
▁half
▁aliment
▁meet
▁fins
kõik
▁mille
▁Mak
▁Lip
☏
▁машин
需要
öyle
лен
▁ਲੋ
dahil
▁idé
ért
▁Director
▁tí
▁ቀ
Что
▁penting
▁бала
zza
forhold
සා
món
HK
▁familie
ाने
▁определ
ková
▁plo
阿
hla
▁mee
产品
ቋ
gif
▁열
ප්
▁sine
▁sep
ನು
香港
▁hou
▁נוס
▁mont
nä
suis
▁Milano
stehen
מי
▁pova
▁masalah
മായ
ρες
скачать
رس
sad
actually
stead
▁rent
८
▁daug
▁selama
ង
3000
ästa
owane
▁મુ
rok
▁سپ
▁nebu
eți
▁פֿאַר
directory
¡£
▁Area
▁رہ
више
чь
▁nær
pay
יעה
било
▁rama
door
ною
nosť
MC
富
lise
▁clients
▁espera
مركز
▁Act
▁kör
▁tím
▁tě
』『
▁zorg
días
▁молод
bili
έγ
ким
▁siv
leave
活动
▁William
ologia
▁dne
ვის
AGA
column
▁ಒ
▁ලබ
速
inline
▁gy
▁binnen
arios
▁избор
▁pages
ائ
kaikki
thumb
▁түр
inti
пен
עס
▁Pak
英
▁природ
▁Гор
squ
▁hög
Is
▁Fun
jer
τος
altres
ciu
▁کان
▁Winter
▁Collection
kir
▁جر
္
gut
hether
▁Poz
▁sociale
▁пи
ႀကီး
▁مف
▁להי
▁Excel
▁filme
džio
वर
ज़
ange
▁Sir
esse
▁Point
иши
дай
খান
eadh
▁Sign
бай
Archives
▁acu
ړي
▁kuulu
'+
भए
ceny
▁Richard
catch
▁Pem
פל
LED
ры
▁Hon
▁Mary
▁баз
▁lainnya
DW
across
▁langs
ான
▁GO
ijas
▁muka
thay
comments
▁جان
项目
lja
ց
▁->
פני
▁мяс
▁lama
շտ
▁مص
novembre
▁mao
▁Pradesh
משפט
▁Von
NC
handler
▁br
ৎ
ημερ
▁wax
▁mert
▁добро
▁سام
▁sna
▁pad
jam
BT
हा
ワ
▁العالم
ації
Бұл
fă
दान
▁Frank
▁Elle
▁acaba
KE
▁наход
▁свое
казать
▁ажилла
サイト
fest
were
מד
ші
say
ио
▁анти
▁malam
เงิน
LI
▁1-2
▁піс
над
-40
________________
ök
没
▁hela
lərin
▁కొ
▁함
▁robot
ရွိ
รับ
ແລະ
▁የመ
▁celu
▁Кар
▁hoy
חים
іць
▁kini
जर
▁treatment
labs
cca
角
▁ҳу
▁själv
kto
илась
مت
ug
лучше
Nguyễn
call
▁(@
ână
download
▁huy
▁ڈ
added
âng
bro
דע
▁Hus
tetap
tinh
rụ
worm
ък
রী
▁ден
▁уч
பி
▁grote
▁Fire
нення
ေပး
partner
▁livre
▁გადა
▁zaj
▁zákon
25%
abile
stva
▁mean
25.
七
dah
▁lavoro
NS
لام
Про
▁peso
increase
▁জানা
▁rom
rii
▁වැ
240
under
雪
eldig
章
lę
empresas
▁клиент
ថា
▁Μα
▁jede
▁mumkin
▁žá
mah
▁ihan
▁राज्य
造
fy
ьного
▁nor
seluruh
hecho
▁obč
▁২
ците
▁represent
AI
101
вече
▁tarif
Tidak
فتح
▁адрес
▁провер
ции
▁IS
ועל
ملك
ಟಿ
のか
ኤ
уваат
wu
urs
玉
хай
gestellt
▁mengha
Tu
etika
▁pari
▁protein
void
▁メンズ
ക്
▁deja
▁שלי
▁zen
▁Pet
ox
nad
▁genera
ල්ල
gjort
▁ჩა
▁খা
ќ
▁вес
лькі
箱
riz
▁හො
kā
منذ
▁ofrec
put
▁शु
ંગ
▁fix
▁하나
▁song
価格
appear
▁теле
▁후
vů
DP
ټول
▁köp
▁aller
▁אינ
kostenlos
ember
▁کلی
▁arba
▁building
▁$('
podle
рон
▁android
▁خوا
ické
nus
▁quis
▁pracy
selected
▁correspond
▁طر
డ్
▁Night
pọ
زبان
▁আল
▁apr
▁Президент
▁mak
njih
ढ़
▁ケース
ţa
ис
▁Moto
хоч
▁Metal
▁valst
skie
dll
▁Tab
▁अव
▁instala
र्थ
event
▁kamera
▁وسلم
같은
▁artist
tiv
▁магазин
ضح
▁ответ
лык
住
▁select
IE
started
ēm
▁119
նում
▁상품
ydd
ար
avea
▁دار
erar
▁living
▁court
▁неко
▁соответств
schnell
λή
около
▁Ме
buat
▁budget
▁почт
ично
usia
▁professor
▁Yes
viene
eba
▁ترین
putas
iyor
▁MT
możliw
よう
tî
▁эр
修
game
sų
çon
′
нг
סה
지만
iek
▁ለመ
▁Пред
▁Fet
mba
▁venta
-25
ادامه
▁Stan
▁செய்ய
▁İş
▁membr
▁sec
NI
▁registr
Jan
料理
▁فل
▁Camp
mulai
avad
rog
▁Ly
▁hodin
toujours
▁хий
▁bort
▁erst
حقيق
▁ઓ
▁kurs
ち
dige
▁aap
Τ
▁MI
▁Development
▁организации
ン
▁thai
مقابل
rate
месте
▁اخبار
visto
مدل
ulan
▁Kali
▁details
وند
▁Pir
sesuai
jev
სი
צור
provided
▁Беларус
▁كن
▁vera
iniai
▁निर्
▁invit
▁norm
것
▁دن
options
mais
चार
▁tut
ується
▁espa
سفر
▁refer
▁Number
▁груп
illä
ուր
eth
stão
▁dina
хан
labai
▁wij
păr
حديث
▁Och
▁AR
と思います
▁Mam
अ
▁elle
▁mix
ått
▁legge
MD
▁Կ
▁Christ
骗局
ವಾಗಿ
тя
▁Tagged
▁söz
્ય
▁Prof
arka
▁výrob
▁helpful
ларнинг
tzeko
▁items
▁weekend
▁liv
άς
▁இத
▁دانشگاه
казино
giver
천
图片
▁ಸಮ
▁mē
▁שכ
▁1.4
▁banda
tate
▁usu
vil
▁عمر
diverse
▁cultura
▁ră
▁olma
aupun
▁تغ
▁mostra
▁ав
▁GMT
بية
学校
▁ബ
▁lider
▁Use
detta
dź
ovali
ww
وت
▁proceso
▁Some
வர்கள்
▁ima
▁came
▁কম
මේ
стой
RO
cions
▁beach
ඩා
▁받
ණ්ඩ
▁Africa
ьных
▁Rewards
▁лист
lagt
▁lange
▁(14)
▁device
▁Word
▁oprav
▁الغ
zim
▁कह
▁Person
▁Raj
▁ನಾ
apan
▁وك
kos
▁компания
ต้อง
located
▁Portugal
▁간
▁時計
וס
ћи
ضاء
開
ligi
价
▁│
nite
▁pis
"><
source
▁pays
▁Ис
名無しさん
อีก
ema
MJ
精品
▁Reg
[]
▁kahi
ائي
مہ
▁magyar
сто
ٽ
▁Dol
لیل
Deze
ப்ப
धी
Από
하며
στό
ౌ
اجرا
▁pele
▁בח
되어
UTC
Auch
▁salon
▁Maka
inə
いい
▁tegen
▁кет
▁ስለ
▁жа
▁Amsterdam
▁bê
▁Ла
▁Gul
画
hou
▁кр
ক্ত
▁اطلاعات
▁Afrika
kirin
▁metu
ров
があります
yor
një
MR
▁Hans
▁నే
maior
আমি
kenal
▁ilgil
77.
▁deliver
vgr
لوگ
▁Transport
▁нов
ებული
▁pai
=0;
▁paš
▁tussen
ヒ
55.
▁750
লি
熱
دعو
▁Menschen
Home
▁помог
مر
လို႔
▁PP
▁رکھ
ງ
ບ
месе
hned
▁кө
feira
رام
ولو
▁Promo
▁ধর
ība
▁elit
▁байгуул
越
alı
▁ир
ēs
מחיר
▁ছ
FM
բ
υγ
yanan
lana
▁நி
тық
pop
ash
яка
screen
▁пр
▁խ
急
▁(19
grado
الت
▁hear
ゲーム
▁alert
▁seri
▁שלו
инг
tle
▁Monday
差
▁Pon
▁물
่
৬
▁gor
▁мор
▁çalışma
mampu
▁utiliz
▁두
alah
카
real
cewa
▁gó
քը
▁sigur
▁мин
dien
▁(7
quel
微
▁kurz
ête
হা
▁cover
xj
▁oz
eft
보다
▁Kul
▁umum
▁дан
▁dollar
▁bene
▁Pie
ությամբ
▁작
友
NL
tang
OR
fatto
גל
カー
네
eile
▁nic
shëm
known
dé
▁save
▁clar
რი
▁رد
▁Material
才
abo
▁AT
oại
lerde
Ad
واز
▁uten
され
สินค้า
▁circ
▁이용
▁Entre
▁Bre
oja
考
▁Family
čas
▁sha
▁fat
AIJ
SM
▁இருந்த
iyo
nové
■
اده
vek
▁kapa
▁Carlos
usa
赛
▁кур
▁olu
▁ජන
abil
ത്തിന്റെ
▁cream
ség
▁فن
▁ನಮ್ಮ
▁පිළි
လို
Er
ನಿ
▁blue
▁studio
款
▁Costa
▁Mura
iyê
template
ères
hot
лов
cerca
▁الذ
었다
elmi
▁ай
łem
întâlnește
久
CS
▁Education
▁pain
▁reuni
▁laga
▁pró
ust
▁origin
▁recherche
ہاں
смотреть
િત
▁posled
ਾ
▁vaik
აც
▁תמ
जिस
ตาม
해서
nimi
▁Maha
čne
▁мар
lığı
▁alın
రి
▁manifest
ric
▁Evrop
▁orta
吉
izay
▁рі
▁minimal
ţă
νη
브
олон
▁Template
されている
юу
static
온
ayah
▁tool
▁пост
▁fokus
▁kole
dha
经济
▁inclus
nodig
sod
▁seit
▁kaya
колко
▁små
nio
▁uitge
▁mara
▁Xi
▁act
vert
zko
dej
▁diagram
▁gc
▁біл
kið
மி
nce
だから
ရဲ႕
λογ
sız
▁sina
nhanh
▁bro
דת
▁tir
pada
tine
4000
ਹੇ
▁футбол
ዎ
kommt
▁قدر
र्
▁రా
▁meter
anja
2.0
▁Cross
ച്ച
▁115
▁Украин
від
эг
▁caz
▁ве
imus
gio
χρι
▁Pos
quelle
▁جز
▁последн
šana
んだ
tään
▁daudz
▁energy
999
був
▁참
100%
▁gh
Jalan
RL
▁ді
▁zwar
▁ফে
уге
程
pendant
IS
▁الث
バー
druck
bach
الم
▁hef
▁Tub
▁celo
他们
දු
chan
▁حر
▁정보
tá
tým
isin
byla
▁numa
▁trabaja
▁skupin
▁Без
▁basis
▁technology
▁מד
▁cultural
▁jalan
雨
▁баш
रहेको
▁Επ
▁Class
१
▁stan
っている
▁Rein
bok
cə
သြား
иот
chy
দা
tę
▁futuro
NT
▁mate
▁حج
▁ծ
mada
ניה
▁பட
▁energia
应
ాన్ని
▁smartphone
▁المن
BM
сия
▁dmbtt
पुर
гѓ
▁cool
tās
стер
▁अधिक
▁Cas
кар
▁彩神争霸
exe
▁SO
Կ
слід
ႏွင့္
song
▁PT
▁élet
sätt
▁היו
▁لین
levels
Net
▁qilish
ीन
私は
щото
▁ទៅ
▁Kin
▁extrem
▁ange
personer
▁pé
ደረ
북
ыг
▁prova
▁kū
print
▁بح
▁서울
Sexy
قدم
▁green
BS
足球
LINE
kach
ղ
outra
کے
station
append
▁sir
дні
▁පො
අපි
▁Eco
უ
▁practice
▁هل
сының
▁Thi
த்தின்
▁kartu
▁instrument
miz
లి
▁спо
either
▁kit
UE
▁жат
▁huis
▁дей
χα
при
▁Vin
像
もう
اني
state
ίδι
ible
ocl
▁Ανα
👁
ront
ício
nay
mukan
宁
ъм
sies
кою
wat
ának
▁ለማ
مواد
स्
▁уче
▁éta
▁strong
bahasa
gor
зор
▁Lisä
▁Luis
zek
▁Nad
ord
▁страна
為
erade
▁sabe
▁kategori
のですが
mbali
ʼ
ont
▁gæ
Url
ities
▁পড়
จ
јер
▁staat
▁oro
カラー
core
▁okaz
úg
▁California
▁değil
▁sahaja
ед
tahi
Flight
πε
▁Professional
▁продаж
▁warm
▁pam
날
lej
▁prav
ίων
द्वारा
èn
ίνεται
ран
▁Συν
საქართველოს
▁sino
新闻
8)
xh
catalog
isesti
ใจ
▁اف
دفاع
▁Kultur
τών
湖
▁Thanks
▁excellent
▁уров
או
▁Uz
direct
▁sekarang
▁Ele
"."
▁medical
▁hus
Am
▁Links
见
পুর
mengena
▁LCD
ড়ে
Free
▁බැ
색
▁ვ
ယ
股
▁gusta
▁PO
▁savu
/?
/10
አንድ
rius
idi
țe
Купить
▁മാ
128
▁soci
,_.
▁plu
▁write
жу
▁biri
▁պետ
ೆಯ
ček
人生
bido
▁familiar
▁Pad
▁regel
gode
助
eros
digt
▁पो
taking
ření
▁într
reply
ství
صول
▁Registr
▁negativ
▁রাজ
更新
ON
▁kre
▁train
▁היי
čky
қан
작
דן
ларини
▁Sunday
(0,
▁Like
울
slide
▁Edit
түү
فيه
▁aiz
▁хэрэг
ונג
▁Cena
▁cela
▁Mae
יב
▁নির্
▁10:00
▁culture
▁sant
▁manu
▁veľ
▁kum
▁জান
▁450
▁ساز
سائل
ถึง
▁bile
iq
推
shin
జ
ப
λε
lj
счита
VI
setelah
▁futbol
▁hombre
Namun
▁dosta
pack
▁Ор
▁industry
عث
Þ
জা
▁ਮਾ
▁reklam
cap
ゴ
άμε
▁സി
▁Oil
▁เล่น
▁kasa
▁nech
▁přes
▁Yeni
ගෙන
AZ
dē
лаб
ago
јата
▁стать
▁Casual
cle
▁dha
дет
lý
يدة
▁zou
▁though
footer
Nov
WV
▁hospital
გ
ημέρ
letzt
▁hyvä
2008
ારે
על
skap
▁Thank
▁Premier
▁kiek
енных
▁GPS
క్ష
官网登录
айн
osta
ٹھ
▁rend
زه
ium
▁eng
buch
мин
που
因
టీ
Ku
دستگاه
▁обеспеч
▁gestion
▁Ха
},{"
▁understand
Скачать
னர்
ոն
namh
▁Nag
○
▁жел
صبح
nete
kulu
majd
rg
▁કહ
▁kredit
▁bilgi
igjen
▁Ski
ből
ाव
▁role
▁تص
▁средств
իր
možnost
kunye
යෝ
כון
▁डि
өн
▁seç
▁egit
▁girl
vara
തു
증
▁ක්
ਾਈ
مين
gehen
probabl
ইসলাম
zbekiston
၀
Ta
ecek
نګ
Color
space
ವಾ
ائل
нар
▁خدا
куп
▁Монгол
هار
lice
街
▁domain
bile
ژه
யின்
▁significa
سیار
nat
▁dedi
فصل
ാന്
▁Text
▁стандарт
St
▁ನಿ
▁Fort
▁mois
ният
▁vasta
meses
▁טע
BI
Qué
▁sotto
▁iOS
▁sosial
▁ιστορ
▁хув
▁pia
▁Vai
hof
acha
mohl
▁тө
▁وس
▁tart
ፖ
▁감
▁Marie
▁پھ
tsa
▁sag
الات
▁Way
نیاز
▁mensen
▁commun
íte
▁laik
▁الحر
▁disa
mejores
▁(0
worth
илган
▁kena
コン
:100%;
▁Cher
▁สล็อต
▁hoteller
▁District
વું
ದಿ
▁Negr
яване
told
γε
WM
xin
addClass
нча
زة
問題
▁хө
HS
tsis
▁نت
志
▁Nä
▁Кон
▁ww
Estados
▁කැ
▁Vir
गर
δηλ
সরকার
દી
ћа
▁عم
verk
රි
▁успе
▁fre
بي
▁database
▁:-)
▁Ant
تحقیق
ματα
군산
By
220
▁words
ங்க
▁alat
hom
קר
▁Romania
▁ნა
avimo
▁mond
ării
بور
▁бұл
urilor
▁सम्
基
vv
Մ
dora
▁ευ
▁wake
৭
▁pagina
ほど
More
▁spor
rq
хэм
atá
▁volume
етін
واقع
select
▁eks
▁Praha
toria
Du
▁lit
gat
алық
rung
tuar
/4
▁квартир
▁Mata
▁ኢ
▁जु
▁Мин
kı
▁govern
▁الصح
▁Mega
▁install
GR
▁Smith
ザ
▁amba
wing
inom
若
▁skin
▁venda
▁nú
▁piha
יד
▁leh
illo
inä
дэг
▁गु
భ
کمی
すると
▁zem
ሪያ
▁finans
yer
သား
▁kasuta
erit
枚
KO
blive
▁жағдай
כת
jà
▁tyre
▁가능
ኣ
▁Ey
▁Sem
▁υπό
新闻网
▁informatie
▁expert
▁fut
▁dus
▁primo
歳
▁حقوق
ías
dijo
▁Pil
早餐
шей
▁בפ
▁retro
BK
▁жи
zna
▁çık
▁kilk
▁Frage
ৃ
hren
▁arte
▁fly
▁drejt
rose
हां
své
ера
▁join
▁Unidos
tụ
▁Sou
▁focus
فه
▁удоб
▁conditions
רבות
ohet
▁Ĉ
rė
▁Union
▁rezerv
স্ট
זור
عوام
▁Posts
#?
ژو
GO
hit
▁виде
овать
冷
falls
либо
ateur
nza
▁plen
:\/\/
▁minimum
avat
Time
▁سک
ndan
▁Mode
▁લા
▁Թ
什么
hod
▁celebra
▁Lun
▁2:
ages
▁Shin
һ
▁Bak
ంటే
▁못
ימה
IH
▁شدن
ūt
>>
▁کد
طی
▁Unter
プ
▁พ
gradient
▁102
▁ראש
▁Sistem
▁אוי
nal
మె
hủ
▁effective
teraz
▁Dark
▁watu
ίσκ
▁Lot
▁Institute
▁خوش
gf
removeClass
▁reste
▁note
▁Рус
▁orden
бою
іс
▁male
▁살
▁kwe
▁klik
sine
णा
ങ്ങൾ
위한
+=
▁$.
▁passar
资源
▁אמ
тың
▁minh
ضد
▁#2
kes
ੰਗ
▁Place
客户端下载
ঢাকা
ців
▁Dari
னா
▁RAM
cembre
余
▁Metro
ကာ
culo
เรื่อง
sion
roll
▁Bluetooth
editor
▁दी
osan
▁өөр
▁visita
960
▁κοντ
▁Fel
erte
▁установ
کل
США
节
களில்
▁regul
ण्ड
тин
▁Υ
−
▁重庆时时彩
ခံ
▁पै
SD
▁Click
əh
ディ
▁мене
▁совет
▁wide
▁diye
cov
běh
マン
▁reag
▁indi
vedere
էլ
▁neg
▁sıra
Ke
tach
▁Products
▁кў
▁Србиј
▁реч
▁sabab
▁hoa
▁тест
▁मि
▁werd
▁30%
aix
▁ask
▁precio
شہ
▁ക്ക്
Dec
▁šal
нні
▁domu
ынан
ersoane
dní
▁بچ
▁Christmas
nagar
▁болу
ларда
েন
▁mahi
▁3.5
ேன்
strong
သည်
hľad
▁בנ
agens
▁Dir
▁kasar
▁obchod
▁Germany
cel
▁제공
گیری
sek
▁fő
read
▁Karen
nach
▁ຂອງ
DI
联
▁denn
yada
ሓ
▁çalış
▁сто
lic
▁floor
іть
gw
▁urma
وري
ቴ
▁Jar
是什么
נא
یف
▁בצ
兰
үн
▁pove
▁亚洲
▁tato
\"\
álne
▁gold
nọ
▁სამ
apakah
番
ciąg
▁capacit
▁Milan
▁요
▁susi
▁Закон
▁hizmet
sou
▁μα
ihi
▁সম্
▁ఫ
spielen
변
ыр
▁gele
▁existe
WN
ിൽ
▁العربية
▁fino
▁solution
▁လူ
ጡ
ภาพ
واک
▁Mountain
▁الآ
რე
iger
▁össze
children
▁ಚ
▁오프화이트
▁Direct
▁noir
jum
要求
ének
▁ori
etahui
მე
ovanie
▁novi
III
เข้า
פתח
▁(15)
▁방
」「
02.
▁Factory
remain
▁Today
warga
▁Vil
यी
wg
हार
cidade
کاری
tracking
▁först
々
▁байх
▁үйл
мж
йды
ள
▁finan
gur
眼
Supplier
၍
loc
ybės
▁צי
adaan
▁Agen
▁popol
ğer
لیک
▁نما
▁тоз
▁mwa
▁virtu
fil
▁コピー
ட
▁fiscal
created
zelf
FS
▁покуп
▁yr
Χ
(),
мір
SC
ezen
llende
▁болады
▁Cool
▁dzieci
ród
bek
еђу
পা
FL
imiento
וע
));
▁poly
Jadi
ška
ड़े
gis
▁luft
eksi
град
شروع
iņš
වගේ
אחרי
▁cen
▁SU
יר
▁lado
▁Fer
ikā
전주
vero
除
ších
▁Panel
▁prepara
ülke
▁customer
▁speed
landet
RF
▁rast
atura
▁wala
▁సినిమా
▁ಅದ
selalu
射
▁ass
طار
deres
detailed
▁본
tte
meni
▁зам
över
various
▁combat
doch
llen
▁Sales
▁Library
ず
review
▁வந்த
न्ह
اثر
▁kohta
קבוצ
▁Lab
▁출장
current
chod
组
▁kaufen
+1
▁mort
▁six
halten
▁번
Jun
▁যায়
▁moral
ētu
udu
▁encontra
▁단
ہوں
EX
ós
견
ieurs
杀
▁دون
အား
▁మా
ველ
▁macht
ুরু
buk
▁Saat
▁първ
▁entry
bah
▁סו
moto
▁inspir
նչ
▁киш
TC
ೀ
Ι
స
ավ
שיש
сего
യെ
ół
▁perform
예
Ј
৯
등
tože
▁නැ
čia
▁google
105
▁גו
▁cał
▁europe
vía
▁объект
170
▁portal
rut
Lo
▁viena
▁rus
৮
tip
harap
▁[1]
chte
▁Body
▁болс
▁Су
▁bayan
!==
▁rang
uyện
▁بات
け
▁розви
▁sett
ਾਨ
FI
ικός
▁Europ
▁porte
тим
著
DVD
aż
▁Western
▁След
▁analiz
ιος
▁Natur
▁زي
▁common
▁CS
】【。】【
ujú
mol
▁moderne
▁предмет
▁zurück
▁vit
tiba
alors
ออนไลน์
цу
ంత
TP
gjøre
▁pati
▁ဦး
▁cerita
บน
ሴ
▁express
mist
āk
γκ
▁sei
▁IL
વો
مند
▁pick
טיפול
fal
ụrụ
XX
▁required
тка
▁لأ
ரி
ném
grad
▁Pred
מיוחד
▁Ministr
ták
▁Bob
参加
▁industrial
▁vě
▁İstanbul
▁mou
κει
kê
▁acum
வன்
▁gambar
▁DNA
▁සැ
exemple
▁Дар
▁жас
▁भन्
▁Franc
번
род
gate
▁ця
▁Ру
эд
▁човек
兴
▁Teil
改
នៅ
▁පා
▁Andre
música
▁nepa
▁пера
lok
▁judi
වන
ildi
▁viac
▁sito
▁$(".
活
▁pir
▁vetë
aaa
▁belle
fg
Ν
اہ
Pre
▁links
提
claim
મને
頭
凡
ત્ર
▁ಸು
نت
योजना
цей
isht
gj
دت
noj
latou
▁Federal
ষ
▁tarih
től
dynamic
▁investiga
▁ഒ
會
ελευταί
▁Бар
▁cine
▁gada
▁nge
αιτ
▁здрав
▁příp
भाग
君
▁Ку
χωρί
साल
▁Had
kové
▁mahu
வா
ජ
▁companies
ስት
nji
▁అని
DS
引
▁aman
▁pet
▁קר
▁Mala

)};_.
Art
▁Arm
पूर्ण
▁pasta
BF
ဆို
šā
씨
▁smart
סף
▁1980
▁acc
ਵਾਰ
▁kembali
SL
ນີ້
▁giorn
▁групп
▁manier
nit
ශ්
▁آه
▁mineral
мат
▁prw
GI
ujemy
▁cea
▁pasa
▁Tau
▁Chinese
▁мә
▁crea
ság
departure
ತೆ
diği
▁ឲ្យ
ශ
nico
▁یاد
иқ
▁tradi
▁ජ
▁граждан
aient
دو
со
▁calidad
130
▁tradition
출장서비스
▁wrote
ють
pia
الية
lf
يضا
ੁੰ
▁гри
ologie
ഡ
▁Kap
▁agua
одного
▁watch
▁کھ
044
▁punt
علاق
▁casi
▁190
ਗੀ
διο
▁shp
▁обрат
sain
হার
▁එක්
▁num
により
õige
uav
часть
ssen
들을
ਸਤ
▁720
how
▁детей
မှု
▁Wal
طح
թե
▁αντί
▁ಸಾ
խ
EL
▁oyun
이나
费
יג
▁کس
btn
pere
▁powi
출장가격
دے
▁տեղ
▁Bez
▁Meg
уют
▁అవ
▁funcion
istes
▁bod
います
ابق
هن
தா
▁Pink
▁amateur
하면
නේ
▁ที่
جنوب
▁जी
▁speci
atürlich
115
offset
Jo
WU
▁Karl
ッ
GH
மே
роз
▁1.3
▁liter
կա
لوب
``
▁SD
콜걸만남
▁chia
follando
▁Pris
aring
bë
بط
초
▁Parlament
▁wanita
енные
▁pw
▁المست
ੈ
▁በተ
ácie
▁response
▁Ave
18.
▁kia
stata
▁друго
նի
ቂ
▁zile
▁կամ
بین
بيع
港
Out
▁confirm
▁acid
lă
▁sales
iṣẹ
lho
▁stabil
然
▁দা
осы
▁Board
▁ಭ
ття
▁मन
noma
liq
structure
▁доби
oks
న్ని
▁surface
வரும்
ተኛ
-14
মানুষ
▁עמ
давлат
യാണ്
ёл
▁bodo
Star
лото
ρό
யா
න්නේ
▁बी
كيف
类
▁Dez
▁instal
連
▁принцип
महिला
▁Mars
▁History
Не
ellett
[1]
해야
ässä
▁GmbH
ταξ
▁robi
tec
لاء
间
ලංකා
έσ
segunda
▁rem
▁пу
CP
▁bruk
▁Klein
▁moja
▁estud
apply
faq
▁Hombre
ические
further
▁nev
página
/5
▁انداز
েছে
▁شرا
▁өт
▁TR
himu
indo
lém
पर
しかし
ಪಿ
tere
▁VE
▁gw
2007
ሄ
▁Alex
运
ਬਰ
▁Gy
लिस
برنامج
▁Holiday
ועד
▁בק
▁oh
övlət
▁Camera
▁työ
▁insurance
featured
▁taki
став
iets
温
▁dung
▁industri
▁bul
▁చేయ
▁ең
enim
▁108
ML
szt
Jul
шения
ость
бути
خوب
▁Wei
▁Steel
شان
ዉ
ανε
gina
ança
ホ
▁বে
▁Му
ੱਤ
▁ру
trc
▁Bell
论坛
▁يح
iņa
भाव
▁2014.
▁rész
▁Jas
جز
▁পার
лась
▁partie
▁pá
AX
IV
altro
▁cilvēk
ුම්
▁طلب
▁104
▁дерев
äger
▁Sto
▁mesa
불
খে
正规
tiedot
▁Ол
mikor
servizi
гын
▁drog
лээ
ในการ
ګر
ผู้
шки
eniu
▁ਪਿ
शन
Par
mode
ঝ
tè
హ
▁precisa
خانه
▁روش
GG
▁fap
▁ಬಿ
▁hii
▁histori
▁Charles
'))
▁депутат
▁labor
rig
Windows
▁sound
▁чувств
▁senti
▁Ай
▁България
പ്പ
▁මහ
EC
▁فرهنگ
beli
▁analysis
▁pied
קת
▁2013.
▁language
남
▁cell
bang
▁particip
uza
افة
▁RS
ابن
мир
▁230
▁دهد
▁pää
已经
rî
որդ
عضو
РёС
720
prés
בה
▁gâ
▁эк
ebben
Φ
itt
▁darb
▁הכל
▁stort
బ
分快三
▁ശ
रख
希望
져
▁Porto
▁detail
罗
Box
▁0.1
▁novembr
▁percent
部分
ناك
▁українськ
atrimoniale
liveinternet
▁женщин
▁Dam
▁ጉ
יז
нан
معلومات
انة
वे
▁выбор
▁фонд
写
ína
致
овая
▁Slot
ศ
ίκ
alue
▁بها
▁دانش
ünü
phong
▁Jawa
يتم
ათ
rot
▁வ
▁více
▁polici
ڏ
:0}.
ција
언
▁тә
aju
左
▁purchase
لازم
nymi
▁issues
ските
kannya
▁качестве
工程
▁ezt
לם
菜
▁đồ
tomu
▁ново
ησης
却
▁918
ओ
▁ઉપ
▁ഏ
▁rund
▁вариант
HH
▁103
▁vás
former
ીને
なんて
▁cookies
zért
راجع
entras
▁وکړ
RY
altre
ены
ський
قام
▁Tv
اعلام
बर
▁товар
▁Att
▁ekip
חק
▁llega
tada
▁표
गत
▁bot
▁cinc
اقة
בקש
▁дорог
▁средства
▁રા
▁lâ
▁beli
olen
альные
sang
▁road
кім
▁memba
▁drei
ელიც
▁ທ່ານ
▁Kids
oyn
▁Thursday
өл
▁Ну
2.5
▁Nou
िएको
▁Huawei
gawa
łam
ಮ್ಮ
▁FM
▁puis
هزار
▁presenta
cik
uki
عی
оның
dê
堂
▁त्या
وقف
最大
▁חש
▁addition
യിൽ
לכל
nam
▁Fat
avut
lių
▁سع
tše
▁ezi
ਗਰ
ids
▁같
RM
лин
▁sano
ళ
στά
SK
▁Kita
णी
gui
▁datang
ที่มี
ämä
창
▁Week
▁passer
ಭ
▁pequeñ
▁Jersey
▁master
▁mida
学生
▁Россия
▁जाए
높
იდან
ప్
▁ponu
īpa
aúde
model
نرم
атор
เรา
-100
▁мало
omi
▁två
larla
税
φέρει
ેલા
tím
▁fase
でしょう
ові
قسمت
USA
▁Saturday
enden
čo
▁មិន
ե
wichtig
▁بیمار
ред
бат
▁kilo
ידה
نٹ
▁kako
▁doma
▁చెప్ప
▁pilot
वाद
яв
ਿਕ
▁mezi
BY
تم
poor
▁лица
ieri
威
▁защит
▁ಜನ
▁temu
▁따
▁opini
▁lê
tanya
pie
hai
▁chambre
ソ
รถ
zwa
▁Polo
ollut
▁सर्व
▁hər
▁प्रदेश
סט
▁احمد
મા
▁Photos
ową
▁באמ
▁sch
чка
מעט
▁خاص
rápi
stadt
▁laptop
▁teknik
UP
upaya
sering
disabled
رق
▁golf
在线视频
حكم
습
▁punkt
良い
▁choice
maktadır
▁дело
ácia
▁positive
owl
▁Hoe
term
Ү
▁febr
third
▁sini
▁Mesa
ייַ
уда
▁Wasser
май
▁đư
▁우
ուն
▁эле
iet
▁صنعت
▁nghi
rul
▁tso
▁заказ
▁مبار
સે
iyan
▁át
وع
▁шо
טל
▁орта
objetiv
مکان
▁био
feito
ços
▁Hav
▁meno
alle
素
ડા
namun
uas
앞
VT
ηλ
ਮਾ
mesin
▁ресурс
▁Adult
يفة
▁Medical
。「
▁Тур
▁Community
אנו
ழ
ös
סג
warna
▁sek
▁Quest
▁Portal
DF
▁Chris
▁беру
yung
易
اط
▁කාල
果
hala
són
具
▁ხელ
asaan
ทั้ง
▁מב
Of
området
电子
uomo
зы
▁vivo
▁поддерж
▁Kay
tubuh
היום
降
▁Mann
▁sell
SR
iny
места
Auto
▁Республика
▁pola
લે
imą
▁ví
ήμερα
假
сегодня
▁unu
▁mener
secure
pata
▁suure
▁ያለ
中古
▁ellen
▁នឹង
ਭਾ
არი
▁करें
▁ठ
▁тэр
▁Ano
opt
dzi
▁змін
▁Hun
▁12:00
▁Poker
רוב
▁יצ
▁баста
▁Grey
漏洞
GL
▁ഉ
elu
▁visi
▁jours
▁Mill
▁Rat
볼
▁taha
▁könn
▁virtual
▁લોક
▁09:3
रू
زان
CV
город
dlo
ૈ
ωσε
әк
▁mira
▁بك
百家乐
▁တ
legt
▁sah
▁эта
▁ሕ
母
მისი
mówi
▁ממ
väga
▁intr
70%
び
自分の
kuha
▁тұр
kira
γον
oggi
২
kul
țin
▁Force
abang
কের
▁talk
راج
BX
▁Computer
▁ofert
▁hotels
lock
upon
motor
▁Civil
bab
เมื่อ
▁ध
علق
▁ച
ntes
ၾက
степен
RK
You
KM
▁svět
zelo
toj
daca
▁TOP
480
master
▁Fast
▁Kad
दार
pełni
troch
▁Sil
මා
▁explica
▁keh
▁μά
lad
ဂ
حکم
▁brug
ద
ალური
ມີ
▁ജ
Ki
▁۲۰
▁Double
▁taka
ลูก
muz
▁Take
ीर
▁Bol
በር
nur
真钱
▁5000
ţ
ersten
εμβ
فعل
ați
often
▁Thai
▁ملی
ација
шла
▁teori
ikki
▁Tot
▁초
ขึ้น
تخصص
的に
behov
▁fir
rock
חוק
▁alan
▁distribu
▁गो
otras
chten
tapos
смотр
▁аст
▁keer
▁ON
сайте
ਰਤ
跟
امروز
Й
▁bath
▁112
oare
▁mapa
dnes
외
kle
ερ
▁නෑ
راض
JB
東京
따라
Im
alim
טים
▁1988
郡
:3
▁দেশ
বেন
▁оч
close
sme
▁XP
שירות
વાર
▁المل
તાં
底
▁lesz
ერთი
▁Source
队
қты
وجه
MX
roj
▁нови
chini
大发彩神
▁мод
เล่น
▁automatic
▁רב
▁Year
▁Lub
မှ
▁voz
مس
acea
ម
οντας
▁minim
▁жөн
FT
▁للت
oit
кин
CL
刘
▁(16)
破
nder
▁municipal
пе
ләр
hető
▁Fil
▁акт
▁investi
iab
صف
ihn
▁확
▁podpor
-24
秋
▁पि
▁Korea
退
sted
CX
agora
▁styl
ፕ
റ്റ്
εδρ
oria
ჯ
▁Department
шем
9)
ância
▁sahip
▁Ran
áil
▁score
▁Ort
وة
jangan
бог
▁маъ
一般
▁grave
▁கொ
▁cresc
viser
erea
▁cei
したい
ισμού
▁වී
öl
ត
kie
न्
ọk
ضع
ΙΑ
▁minn
insta
▁высок
▁flash
▁Extra
ność
ห
▁nghiệ
▁αυτο
▁Speed
製
sans
bie
▁Европа
▁பு
қы
ટી
命
භ
itet
▁vak
经
▁Cer
ogo
▁saka
▁Bali
jah
Това
♥
▁kuv
▁bate
▁geri
Max
查
▁palju
sime
ланган
FB
のです
▁Щ
▁жал
▁hü
▁wz
bereits
▁Tech
血
▁tub
lín
▁People
özött
▁август
リング
ပြီး
▁leo
▁gjennom
▁Gur
▁terug
▁rel
▁Doctor
ಿದ್ದಾರೆ
ژ
əsində
▁пе
üs
▁dost
▁ద
اتحاد
هما
informasi
ляется
▁Base
▁sali
ριν
IO
▁گھ
sát
▁Daten
аются
okres
▁সম
▁waa
ిక
LV
▁Dubai
▁Marc
вони
দ্ধ
աղ
ခဲ့
scher
lando
mukha
сите
▁hall
▁ხ
▁Rod
ວ່າ
▁whole
কোন
▁문제
▁وق
කි
との
÷0¬
▁hali
financial
▁הט
▁sev
▁ਮੰ
ناس
▁καλ
▁увелич
detail
▁doctor
sında
▁продолж
hled
број
nulla
▁соб
znám
赢
▁ມີ
たい
▁slim
▁maxim
▁eye
问
▁donna
irea
sitemap
▁konn
▁høj
includes
▁бес
lyn
nehmen
schuhe
doar
▁NEW
▁pobl
RD
ników
▁hjälp
▁wall
īs
tė
ծ
ización
▁pama
▁сар
58.
cod
gata
acă
uten
előtt
▁தான்
▁bakal
▁Rak
timo
▁pública
▁tovább
▁Kunden
▁Flash
▁dů
▁لك
▁لن
▁nytt
άρ
óm
▁תש
ZW
▁පු
▁вос
яти
کھ
according
▁כש
Cube
ਬੰ
▁Mate
▁증
▁أك
genuine
▁була
▁picture
▁көрсет
▁Пол
▁Ste
typeof
皮
▁qualité
)、
şti
Su
ಿದೆ
angkan
لې
Más
saab
خت
နဲ့
▁alkohol
▁keli
照
בעת
▁DJ
ised
λόγ
zka
▁тү
ल्
官网下载
usar
▁moto
▁pote
190
makanan
mogelijk
fíci
▁Сам
복
▁кас
radio
-13
▁centra
ពី
يان
▁වැඩ
.[1]
(3)
После
ışı
▁Jen
▁hozzá
ত্র
ζητ
▁bana
설
▁bolo
端
▁ugu
มัน
dle
enye
há
پیدا
▁хүр
▁pena
▁ממש
тях
馬
Owner
שון
▁Mix
kių
影
▁қо
UN
▁مرا
PD
▁vast
جب
▁Texas
▁znač
suz
界
سبت
oameni
▁Details
▁Only
ification
▁Lamp
ular
▁අත
arrow
曰
▁concert
رغ
▁driver
DO
▁JA
별
മാണ്
▁খু
中文
▁Prze
▁хотел
▁ایم
▁житт
▁fot
нов
▁lume
秒速
ສ
▁כא
33.
choose
▁необходим
તમા
▁menca
փ
▁ឆ្នាំ
ейін
▁näh
景
jte
001
мати
submit
以下
种
ساعة
וש
več
הכי
IG
اه
jde
ига
गे
ದೆ
▁equip
iframe
עור
▁crusher
에서는
▁bh
▁plate
横
▁hul
२
▁pensa
гә
sum
▁مهر
њ
▁अभि
gil
▁idee
itis
▁ভা
▁tilbud
ترجم
ओं
KT
▁регион
▁homme
▁kuni
Why
▁Μαρ
▁320
▁neste
তীয়
▁0.2
devam
▁населен
.......
iş
кое
क्ष
ďa
▁1920
▁Ngo
мор
хто
▁北京
▁Golden
nsa
curi
wsze
▁日本
Hz
▁brez
വര്
tọ
▁станов
▁rond
ведения
렇
proyecto
▁kutok
ían
▁Hat
▁հայ
▁cup
lė
chodzi
bart
现
〔
син
▁hori
▁συμ
これは
buka
▁집
▁approach
ẹl
isə
▁Jehova
▁güzel
▁PE
tors
ひ
▁Security
ቤ
:12
եզ
▁koncert
ביר
▁lisä
চে
toys
ႏိုင္
▁treball
▁energie
lieu
וד
inni
▁meist
часто
▁Май
లను
으며
انند
feld
kod
̉
▁시작
عيد
טי
hood
〕
ंद
▁کاربر
ellen
▁לד
cina
kini
צים
بين
▁خی
ایا
parece
kî
नाव
▁hava
▁106
VS
▁Хар
tot
▁Kau
▁Muhammad
镇
▁Mul
▁järg
▁помо
naya
▁pani
▁Fair
gay
ROOM
tengah
▁Stat
▁சில
someone
pasado
ذهب
قسم
▁назад
stfel
▁Vista
kļ
OT
▁жаз
▁месец
環境
фи
wards
▁mín
▁MU
▁idi
ിച്ച
ekitar
एस
登陆
rè
leme
յանի
شهر
percaya
▁piano
▁Nel
好运
iku
▁cet
personnes
▁기자
ייה
xalq
του
▁lok
▁gioc
trices
ichi
tengo
ಂ
Ս
нең
lta
▁Egy
მათ
▁vu
▁education
kka
旅游
δώ
بررسی
Ro
बा
enorm
▁edit
甲
צות
خیر
ribu
Sh
▁glad
▁Seite
tani
▁vei
বর্ত
▁Kata
ways
ნო
1/
âr
много
еп
▁తన
▁essa
उन्
▁dedica
员
材
όμα
British
▁profesor
ਛ
▁systems
▁Ҳ
rre
▁cand
▁занима
tini
▁ఓ
▁времени
▁mese
▁recenz
▁Fur
ுக்கு
▁Capital
kü
▁Judi
▁جمهور
▁való
▁mac
▁Pedro
▁maand
▁itse
menn
цыі
▁Bayern
▁препарат
▁खेल
වර
▁123
ures
atë
руч
▁प्रा
стар
zug
▁таъ
חדר
远
▁1200
▁Öz
▁يق
еперь
▁girls
▁Sai
ふ
담
▁Gud
▁needed
▁Υπ
▁saman
▁Ober
VO
▁услуг
jelas
llinen
▁veid
mate
רום
▁بند
έφ
▁penal
奥
ίο
▁զ
▁topic
34.
kova
▁alto
Denne
▁prob
▁Any
▁benar
▁سخ
▁comun
ميز
▁opge
Pe
▁eat
▁показ
طريق
زل
penyakit
ሸ
▁weg
ත්වය
днако
▁Tuesday
ҳи
▁høy
tutte
needs
ými
ਟਰ
καλύτερ
ሶ
▁الجديد
ників
ください
▁duy
רשת
▁Nokia
▁започ
▁gja
▁מער
ष
wegen
▁implement
▁Iran
werken
▁города
αρ
პ
rne
▁boli
мын
▁terbaru
алар
라고
فة
▁Young
▁চল
▁guru
San
▁বু
能力
▁object
alší
▁urte
Add
ベ
ças
Ya
wanda
▁135
خواست
▁entra
דין
▁yorum
дом
ള്
نة
▁رنگ
kant
olisi
▁Rum
▁አን
ನಾ
▁vise
ımı
LT
▁knowledge
▁վար
以及
▁والأ
غاز
▁remove
▁Khi
▁Municipal
▁அது
▁каза
彩神争霸
ΟΣ
▁institu
▁Ти
▁Wer
▁گئی
ව්
▁sexual
▁variant
▁sui
ປ
عار
▁minu
itti
▁جائے
▁gro
▁taas
▁עי
EE
stanowi
mière
▁phim
ટા
▁tank
менно
degree
ਕੀ
mą
ину
ై
front
ότε
▁команд
▁Lady
έδ
▁sektor
аѓа
imos
▁Amb
酒店
影院
rika
सभा
лас
▁gast
λες
göra
▁filter
▁αποτελ
टे
▁maja
▁Македонија
ظهر
cky
▁아이
▁bilo
▁Жа
über
venue
گذشت
חד
▁Visit
▁හිත
▁पी
צב
▁ЗА
And
20.
ември
▁Zen
▁request
▁Joseph
▁కు
▁დღე
▁KE
▁действ
▁πα
closed
pool
ಡ್
خاطر
▁ನೀಡ
▁Mana
kha
مكان
그러
值
saysay
Gracias
atore
:16
▁Nan
▁Angel
▁Stone
▁#3
▁Edi
Thanh
▁Pare
ære
сега
▁Wednesday
▁наук
▁vya
作品
专
▁tega
کې
තිය
ölk
▁বিষয়
дим
වල
▁진
Chief
▁साम
▁필요
▁Bola
▁five
▁bent
لعب
Open
▁хор
houden
commerce
▁существ
▁2010.
нього
▁কার
anı
▁Sandal
必
hir
енный
▁fen
bj
▁maak
ելի
▁використ
ئة
▁сан
▁평
▁үй
Дата
▁отношени
ьки
avez
▁aja
▁Geld
மும்
▁Kitchen
සි
▁DU
iyle
▁communication
▁mlad
apkan
▁Ло
"],
▁Description
▁PAS
tyc
▁HA
inka
▁өс
▁остан
Daca
يك
길
ધા
调
ওয়ার
▁пут
▁pau
▁Spring
▁Urban
▁gift
▁ਰਿ
mari
관련
▁agen
Foto
partido
——
نظر
▁aba
точно
жете
夫
▁reform
▁potential
▁hev
енә
למה
tout
milf
оти
ਆ
ството
trouve
ரோ
▁senior
स्प
盛
▁bike
tore
قت
▁works
▁rõ
פחות
сиз
ээд
▁чу
▁manga
▁COVID
▁Dy
▁Ende
▁llama
جيل
▁femme
▁נא
▁род
じ
ത്ര
чета
▁GT
▁enda
示
решение
▁minutos
ươ
ੇਂ
代表
lower
768
▁tuli
▁кез
▁Аз
jala
յալ
▁Albert
▁vede
▁mér
уы
▁কর্ম
▁ряд
νε
ոլոր
etsa
▁havi
▁Δια
极
▁kry
tka
▁ilmu
usuario
nir
▁সহ
ivel
რა
▁comercial
atud
▁sakit
كة
▁шар
eten
▁saada
pět
jälke
)}
sett
أن
eď
ুর
става
▁آباد
短
▁ან
▁esi
。(
▁לפי
▁2012.
▁ಉ
гов
Sch
▁NU
ችን
▁mba
김제
احة
واج
hubungan
▁тя
Euroopa
ikä
మా
DR
LL
▁EX
▁apresenta
لية
녀
一级
ਰਾਂ
存
▁محل
▁Location
yama
របស់
jeune
▁ime
sember
▁వై
▁meeting
▁entrada
лах
▁salg
▁yaz
▁Bit
ybos
▁பா
▁poskyt
stri
ús
انات
lepší
lè
420
Fa
▁чита
වීම
▁proje
ರಿಗೆ
nuovo
cak
▁ලැබ
न्य
огато
ちょっと
шкі
oon
▁Cruz
▁երկ
▁यो
▁것이다
ضی
फल
1.0
ари
dul
nostra
يز
லாம்
.55
vej
船
印
▁Kho
▁mən
лася
ningar
▁Small
부산
פס
▁daily
▁BBC
مام
ਤਿ
注
▁vé
ене
інен
masa
born
మి
▁часов
▁чест
▁Fl
রো
▁تخ
SX
lahat
يمك
ισμό
صفحه
كتب
cor
▁தமிழ்
▁გ
▁bilder
ομάδα
ôm
δη
派
শি
▁huo
তারা
▁специал
NB
эс
▁сообщ
вень
րա
▁Dzi
iau
HC
photos
▁සා
▁mema
▁چار
▁DR
gør
िंग
yak
sage
▁книг
写真
▁necessari
▁ဒါ
▁gest
رہا
▁לנ
▁Vila
▁context
▁პირ
kj
▁βά
श्य
ष्ट
راف
ther
jaya
▁daw
▁алды
▁safe
▁interven
iana
▁মি
▁Solo
▁forte
هی
▁Рос
▁tort
ermainan
▁सू
więc
▁nim
тем
▁jelent
▁صد
ציה
▁Hij
▁водо
ただ
▁Mama
▁áll
▁afge
▁Вас
RC
▁dispos
ಂಡ
ണ്
▁111
ոս
wear
▁dobro
ρε
edy
Uomo
▁(17)
DK
araq
ύπ
▁Най
जै
మే
列
iņas
▁пита
▁медицин
▁тол
rede
▁regional
gere
Tuy
dating
ања
ரை
▁продукт
右
యం
デザイン
▁свобод
تعليق
◆
北京赛车
Display
üssen
vä
▁использова
▁കാ
ිත
▁pagpapa
▁Marco
կան
ೋ
ьный
सिंह
ujeme
posisi
tico
ittà
סרט
▁saw
▁Ян
▁Εν
sien
kari
būt
▁slut
设计
▁maga
וחות
▁kulit
▁plac
قتل
▁buon
MV
туу
条件
LC
▁penis
▁Beste
银行
▁الاست
zni
nne
▁servi
Prix
dev
нос
чим
▁spel
)?
▁гол
genau
╣
NN
モデル
dest
ጻ
▁сөз
מין
ໃຫ້
cı
ింది
butuh
ьные
▁задач
Latest
▁حساب
語
▁deal
▁дво
lai
لہ
▁nø
▁подар
▁hak
فون
▁0.5
▁child
▁Ži
дана
▁ander
▁nui
▁качеств
▁dine
旗
nap
EF
tämä
▁Association
گان
ਸਨ
khai
▁práce
nyt
ลง
óra
▁enkel
▁Esto
וני
▁England
îl
▁Sang
▁amat
ذات
PDF
▁Louis
jnh
ستی
ળી
дээ
▁lassen
ώντας
ცი
▁жылы
лсын
▁کودک
▁Bang
▁Update
fani
ப்பட்ட
línea
گو
▁рок
▁كو
▁мили
▁человека
liśmy
ലി
▁Regional
▁mention
▁Str
▁vam
▁דור
▁customers
▁Paper
▁Joan
▁Manga
дней
▁internacional
είας
▁Poly
210
▁Pres
▁kater
▁155
传
જે
▁البر
▁plej
india
▁גדול
▁róż
اچ
KW
client
baru
тези
രി
边
bado
▁пункт
▁segu
▁קל
эл
чик
▁improve
вольно
▁destin
HT
inden
iski
אוד
▁ты
▁дав
Selain
ote
▁박
▁пла
SZ
▁رب
▁двух
락
▁Ry
TL
ცა
▁augu
Brands
tif
чих
▁brit
城市
ድር
▁Manuel
ഴ
huis
rada
טע
DT
סר
avia
▁Դ
ará
ינג
رار
ρια
カード
▁valg
طق
ട
▁Finn
तो
▁rodin
▁materia
▁fruit
دخل
▁γε
বর
▁Jobs
éis
▁dara
▁Jon
▁eventu
විට
לל
result
peste
国内
hver
백
▁մարդ
رب
ېر
▁ιδι
country
حمد
ább
těž
dot
▁prodej
cija
קשר
)。
▁บาท
▁Bakı
▁Reviews
sıl
▁Moh
▁modal
rod
شش
▁tabi
Oct
tung
қи
َّ
▁різн
280
▁Kel
▁világ
▁bør
iera
容
stav
そんな
▁Valley
soft
lli
PP
ají
▁උප
▁مجا
玩法
دعا
ново
拍
▁Gallery
▁նոր
▁ఉ
▁luz
امة
▁Estate
لري
nossa
▁использовани
wali
▁Stockholm
▁accident
ධ්
mere
MF
▁Stand
szy
ρο
▁Mus
շատ
Delivery
ivyo
▁себ
ery
▁Wiki
تیم
cies
altra
chose
overflow
program
▁definitiv
lisi
Review
дни
dete
tter
عين
▁Musik
atur
▁Catalunya
▁ժամանակ
ที่จะ
ај
ائه
▁determin
▁կողմ
kubwa
▁running
FX
म्
მაგრამ
קרה
währ
ψε
повы
richtig
▁sopra
▁Mujer
Không
♫
▁nota
▁מפ
语
▁oku
▁thô
فريق
▁laser
▁በማ
▁Ș
2002
growth
livet
▁భ
▁soft
▁juu
▁drept
▁запис
רכת
这些
▁precios
라는
ილი
ورة
▁클
▁Italy
せ
кай
റ്റ
▁سان
zes
HE
▁Ди
▁nyo
indən
ρι
いる
▁sicher
สด
משחק
Czy
holo
それ
ijn
голем
▁симптом
ניות
صي
ກັບ
NP
zare
сно
▁manusia
frente
▁Shoes
▁nime
▁mnoh
גר
лиш
cargo
▁verschi
خاص
▁Male
▁bölg
يئة
PJ
▁آمریکا
ζί
党
OA
шиг
স্ত
atie
сама
iba
▁서비스
HI
noho
із
▁loan
gyan
dý
▁Soft
valt
▁Ras
ದರೆ
▁පි
▁Brit
▁mellom
▁hormon
▁gleich
五分
▁dve
▁rep
tención
▁ngoku
▁salari
▁novel
ters
飞
recursos
▁ef
":"/
▁Muslim
Cette
▁wali
▁Při
aš
▁Kā
वं
▁kaha
▁Kama
▁δημιουργ
lines
▁ред
▁ძალ
stál
рас
िका
▁Little
请
kemudian
▁κάν
▁دارند
▁Florida
anggap
▁خدم
▁manager
ující
▁mengu
انتخابات
добре
чын
ديد
▁світ
رم
State
▁berad
ابة
▁کش
▁problems
מלא
▁NE
หา
ග්
tega
으
masi
▁Σύ
▁adopt
ሠ
限定
ηθεί
▁маг
innen
▁unik
▁109
kap
▁#4
합
ključ
▁verdi
▁иш
ização
权
▁držav
▁દિ
ΩΝ
χρήσ
cre
хий
▁bord
daje
як
हर
▁چهار
灯
6000
ਰੋ
omis
▁εισ
▁security
rze
ಥ
eq
niku
ข
मत
ادي
▁Stein
tuko
▁Mehr
中央
лыг
Ъ
▁کننده
lou
▁szczegó
izany
JE
ڊ
▁ձ
▁sín
▁ور
bilang
iä
网页
deki
bito
obsah
▁چاہ
encuentr
owi
▁professionnel
ද්
▁edir
дик
्न
תנו
లకు
▁деб
▁arra
겨
აზე
▁ಶ
סוף
▁gä
क्रम
significant
▁Роз
▁spos
▁Homme
likult
▁gab
kommen
dele
опыт
Lu
▁փ
സി
▁kont
▁trend
ஞ்ச
лена
منزل
šanās
▁09:0
Những
rim
▁yfir
▁Palm
15%
ociété
ża
ณ
▁18:00
▁masu
δυνατ
▁Hva
▁oferta
▁મે
tiene
班
bahkan
▁хуу
lori
ஆனால்
nama
대구
▁අය
▁Bă
▁উদ্
▁Dress
izer
Wyświetl
▁jobs
ाइ
▁compl
תחו
招聘
▁بازدید
ωσης
▁කියලා
โน
▁bog
Mga
амі
tror
ivät
умов
फी
shan
スト
ぎ
▁pesa
▁Space
ódigo
TD
▁informacj
mong
▁1987
bert
سیستم
ෘ
▁circuit
▁210
derfor
▁Donald
▁inde
peale
יחס
ற்ற
ティ
ndar
گونه
黒
PN
yun
րի
▁ას
čaj
▁""
없는
▁Bilder
▁forme
jot
डे
egu
pilihan
toto
لب
ọrọ
▁flu
ייט
▁ord
BP
όνο
امل
÷3¬
นา
▁Alto
Download
▁dispon
sitä
ধু
难
üm
овый
ёс
2006
場合
iset
▁피
Apr
калі
▁Wind
▁connect
-2019
▁নাম
▁sky
VN
▁siguiente
▁cash
▁блок
ово
▁Dog
IL
بلغ
▁Limited
▁faktor
▁escol
δέ
HB
ņem
▁హ
);_.
rian
▁papel
▁Terra
▁consec
▁μικρ
▁отме
▁Փ
▁баро
▁계
▁코
ein
מאל
▁Pel
)};
宗
ıb
ĉ
त्या
▁gennem
▁Farm
▁вода
御
▁trip
▁(12
seine
▁kuna
iques
▁kasu
희
▁1986
('#
▁fiz
hun
نس
▁tõ
EB
▁Baş
டு
▁Kurs
▁Ren
yllä
▁afin
▁sasa
▁Dios
▁107
menti
нимание
ಚ
حضرت
▁drink
YE
▁қазақ
▁kids
▁neces
känn
▁German
ице
▁parlament
AAAA
▁Prime
Number
WI
anse
తం
▁constitu
نفر
企業
▁අන
▁2011.
▁player
гаш
Sport
実
aku
▁schön
▁iespēja
DM
ಗಳಲ್ಲಿ
▁nhi
▁mio
kke
нять
Ru
数据
アップ
Height
Men
▁Mem
eiros
▁leng
シリーズ
▁Manchester
▁Dil
dər
▁diret
ולה
ването
대해
pw
دفع
▁construction
ச்ச
ēja
▁Tir
▁هایی
▁manten
apena
biz
▁optimal
mektedir
▁vál
śnie
έλ
▁sekolah
isia
ൾ
fungsi
પા
ள்
▁ունե
ŝ
pós
ρχει
▁маз
▁pil
▁SR
lē
тің
▁площад
yb
▁vaja
ような
▁низ
ierung
▁servicio
▁Ду
ตา
▁Title
▁Viel
bia
zada
▁nisi
▁vite
ender
▁ஓ
▁عد
path
▁сфер
воды
πη
▁deel
▁ax
КА
mina
▁çi
posición
лей
დის
▁teljes
▁section
wise
▁مدیر
erschieden
מא
▁极速
▁dil
액
▁Tat
台湾
▁عق
ے۔
衣
trois
وث
lev
▁siz
▁வர
jne
альная
Th
▁Victoria
▁participant
▁গে
تین
▁ambiente
علوم
ရေး
ovou
vio
سری
▁station
μου
سیاسی
বেশ
▁Bot
sor
ಕೆ
▁характер
mismatch
▁рублей
억
▁افزار
▁dou
よく
▁Ζ
קס
550
koli
▁özel
بد
▁Hel
بانک
资料
▁چي
種
▁windows
▁нис
▁अन
▁Պ
эта
TY
▁ដើម្បី
ļa
jun
ংশ
Form
▁අද
▁പാ
ož
▁μη
▁резултат
▁books
▁نی
FE
▁қал
▁demande
▁Easy
▁BR
ських
▁Spin
▁числ
▁Bri
أس
нім
▁ĉe
▁Frei
▁қу
▁ਪੁ
守
dian
ennen
וז
▁pessoa
▁رسان
roce
लिया
Az
ovej
تحميل
▁hil
▁SKU
தே
▁직
firmy
нас
▁completo
▁build
изм
旗舰
▁시간
лиги
▁pov
▁Argentina
▁Raz
메
▁Kup
LP
шел
▁спис
▁sho
▁Related
पास
成功
▁(+
('.
יקה
كل
▁ци
▁thư
မိ
▁vente
ניין
▁dry
række
▁haft
ێ
▁Training
møte
شف
▁افغان
▁patients
▁tehd
ফি
▁soon
▁λέ
نش
▁Novo
▁Meer
▁Obama
łu
يء
▁Vä
eja
▁PARA
String
▁experiment
імі
ながら
01.
▁hodnot
政策
▁tér
ht
3/
▁GA
ók
encari
▁kya
▁poj
▁목
ించి
delen
waż
وخت
coba
▁adidas
capacidad
▁cancer
bër
baie
stellt
▁içeri
handel
▁interna
НА
▁קו
출장맛사지
▁عالم
▁Oy
قائ
▁death
hne
▁ү
MAN
ādā
▁منظ
▁commercial
տի
▁край
▁Cash
▁Rai
ська
▁процедур
▁เพราะ
▁shopping
ήματος
▁लोक
▁Log
▁daugia
gula
anything
nende
lengkap
giorno
mės
沙
▁ورک
...)
▁ус
▁viv
▁Москва
стъп
tuk
▁λειτουργ
▁맞
يار
rich
<=
0.0
▁dav
שלום
арын
▁KO
ടി
ený
▁aktivit
▁آئی
progett
त्र
shipping
▁тим
▁Four
▁bērn
▁sot
▁chyb
زارت
▁awal
▁environment
صالح
พระ
god
▁dv
▁göster
▁kamar
-02
настоящ
quand
NEW
▁tapa
천안
▁Për
▁አይ
Message
average
演
સા
ጸ
求
այց
kast
pjes
氏
▁XX
سنة
/>
ൈ
なく
▁szeret
大全
▁karakter
▁Beauty
rer
▁answer
غذ
svoje
цаг
elen
liegt
▁Câ
必要
▁செய்த
▁ξε
કી
▁birlik
uatan
▁Є
▁metro
وظ
ਕਿ
ரா
▁yil
▁Select
▁tram
ល
ेश
لقة
ım
BO
▁Александр
▁aici
▁matter
حق
▁هن
gøre
Model
▁אח
▁plante
▁menya
oga
ekî
abung
-50
صة
객
вор
▁posto
чет
ический
nutí
▁производ
▁koma
nny
▁homo
ฟ
▁Съ
რად
كد
にある
begitu
ماء
mid
bisnis
粉
انواع
ネット
▁alternativ
猫
▁jednot
êu
(2
===
imų
▁inside
قلب
ਤੁ
arta
▁ఇం
ட்டு
ял
currency
▁madh
▁mb
ară
▁คา
▁toki
عبر
▁અમ
▁dias
%7
▁Ref
॥
irklich
▁한다
▁Mira
anê
▁לנו
гд
▁сайта
▁musical
ረት
మైన
მო
良
امی
▁alam
حدود
KK
nál
▁ஆக
▁Books
▁емес
arkan
▁אלו
רבי
▁spä
יתה
▁لح
▁Lai
ystème
PF
iņu
အတြက္
▁général
organisme
فیت
▁უფ
Additional
▁жүр
▁קי
pub
კუთ
▁Nicht
▁queda
gång
▁Jordan
RR
▁κρ
etiap
▁Government
nku
かな
وزير
▁модел
cesso
ഡി
ومة
jie
▁Kaj
زو
▁excit
▁zone
aje
RP
تين
sentido
▁multiple
טח
סים
▁пет
HL
▁kolor
▁moni
վի
▁Second
▁unge
▁perio
pass
ɗ
▁Ја
یمی
▁Petr
ීය
▁AN
rupa
様
▁suma
اع
דר
▁செ
غم
▁Square
▁አስ
TK
▁UV
▁منا
тын
▁Eg
▁жаңа
аты
▁Japon
fon
כנס
▁Gol
уется
attività
লিশ
▁مک
▁rê
nę
▁différent
▁Tran
یٹ
انے
▁Να
▁अल
▁faci
礼
▁программ
tias
անի
ierte
▁Stra
vídeo
альных
▁kerak
650
▁बार
▁Hamburg
▁Kam
лим
ታት
zhi
▁слож
观
▁haya
нето
▁OP
ahkan
▁muit
PO
▁Vend
তিন
mít
▁relevant
▁doğru
ווא
▁پي
▁susu
▁Nun
▁เป็น
स्वास्थ्य
μφων
қылы
කර
병
тап
▁barang
▁лини
▁activ
▁Have
entire
▁sami
ampuan
留
▁978
follow
▁WiFi
რის
▁vissza
▁Ala
▁zdarma
Les
SF
eto
▁Orange
▁viss
▁Corporation
▁Category
simply
پر
▁عل
нів
109
مشاهد
rnier
▁hum
кә
ವೇ
especially
gach
ပါ။
projekt
▁electric
ppe
▁modul
▁гал
館
目前
▁dobre
ορ
▁tarde
▁Khan
▁classic
▁открыт
ச
▁سور
▁amazing
teva
▁Nas
▁אר
ျပီး
▁ಮಾ
▁proper
▁извест
رشد
快乐
▁Canon
▁vice
huset
脚
▁Gli
尾
▁EM
kil
▁вечер
▁üks
▁eden
जाने
來
ђ
▁Asoci
▁French
الي
▁bax
ੱਸ
▁چین
▁иска
▁struktur
notice
さらに
▁financi
uwa
▁Пер
kualitas
pala
▁πολιτικ
iel
▁Bah
हें
▁Juma
/%
iphone
λει
ുന്ന
format
ድረ
եկ
ebb
▁ame
▁Gin
PH
maduras
如果
▁ljud
nyi
▁그리
▁zosta
ਬੀ
्रो
陈
Yesu
ਾਉਣ
▁modifica
▁поряд
ители
ارے
▁sports
▁consult
▁plast
ünde
leden
▁кг
▁పా
बारे
Dr
▁муж
会社
نما
▁Noir
شید
kuat
▁государственн
▁temat
排
ṣ
੍ਹਾ
лэл
▁Lind
mama
▁أع
lec
是真的吗
▁estat
עכ
root
에도
旧
▁pouc
;_.
reiki
voorbeeld
uw
▁assim
政
▁மிக
▁Tablet
dun
дый
▁curs
גט
тей
tse
▁преди
δοσ
▁08:5
▁beg
▁مذ
▁politika
vam
gemaakt
Läs
▁plot
skej
ove
▁اسم
▁conclu
ולם
רבים
▁நேர
kri
▁Cloud
υπά
facial
rai
▁terja
▁тан
siteNo
පත්
▁kompleks
175
lê
bolj
▁চি
121
πλέ
English
▁राष्ट्र
Mail
unga
▁علا
▁dó
▁Gabriel
▁constru
▁ಫ
▁hê
からの
ίδα
▁kö
今年
▁Рад
▁Stor
▁Fest
salestrNo
▁cross
▁чере
▁Arbeits
vraag
▁rayon
▁FA
▁official
یده
▁결
lukan
send
▁police
가지
ΕΣ
mluv
sociedad
▁Nah
átor
стали
əm
čio
чем
▁تد
_0
uze
标
VP
▁võt
άσει
рийн
tez
▁halv
▁Girl
▁Пра
▁ഗ
zne
▁Plaza
άρτη
▁skirt
▁Dell
▁இட
शि
ছি
hard
▁Sus
ética
ാല്
мян
иж
fick
▁betal
▁зах
▁рух
ических
свои
▁بش
▁счет
▁náv
▁experiencia
daftar
▁Pia
117
eeds
apo
نون
['
▁pili
ayaan
మ్మ
▁uden
schutz
▁0,5
پاسخ
cev
صادر
If
SO
yani
▁Jet
▁plans
08.
ense
einai
▁doktor
linear
alleen
lã
偷拍
▁هند
▁المر
ھے
ഹ
▁պատ
টার
lani
▁суб
▁combin
▁plastic
దే
▁Mail
درصد
▁וואָ
República
ստ
▁Eye
ሰው
طبق
wezi
שוט
VE
▁ਐ
▁යන
υλ
wara
hôtel
▁3-4
▁சு
111.
▁профессиональн
دوره
حن
rige
▁TA
ідно
▁однос
▁rätt
ခ
िले
మీద
▁चाह
ブラック
▁previous
▁(18)
▁enter
aks
שלה
اړ
اف
▁zim
واجه
ίζεται
園
▁dark
विकास
▁ελλην
ˆ
ік
科技
mooi
مانی
umā
ڑی
iškai
sio
vinden
149
न्न
▁kese
▁Nero
engguna
▁Gan
ရင္
▁السي
wari
▁الثاني
▁потр
beh
حف
प्र
לית
ෙන
▁Angeles
▁هاي
▁produs
▁ман
ලු
▁3,5
мага
doc
ਦਰ
დეს
▁Ад
bq
zip
AU
▁шаҳ
▁produ
עסק
sedikit
FP
▁آم
▁обо
fill
rib
▁Eva
vers
awi
▁ড
Chaussures
험
टक
ҳу
▁field
票
ички
nws
登
▁establec
дать
нки
▁Bridge
ikut
▁pont
▁infra
Car
LM
▁Khu
вать
realizar
하지만
arsi
վրա
▁ใน
▁Är
డం
▁geno
нің
മ്മ
জের
hizo
سوال
▁ខែ
▁Has
持
▁आव
lian
াধ্য
▁ndrysh
kring
▁utilizz
ég
▁protest
支持
עד
▁පසු
suas
▁مز
mad
▁SW
વાની
bẹ
▁KU
cház
ਧਾ
▁Bond
▁අර
altijd
▁Firma
pretty
▁arab
▁Vien
▁сай
▁uusi
аць
gari
▁మన
▁बस
▁Ча
ופה
ليس
▁oper
PU
તુ
рабоч
Size
گوش
▁verð
домашн
chny
▁کال
123.
▁gelen
▁Energy
▁Прав
ությունների
▁norma
šanu
▁εγ
▁Dor
バッグ
▁inkl
किस
▁รีวิว
▁nale
▁болго
▁eBay
පා
black
機能
riktig
తమ
VM
▁baga
▁бере
▁Kab
-21
কাল
gamit
مارس
raum
ಜಿ
भारतीय
▁08:4
TN
اتفاق
ગે
▁әр
زار
▁cred
▁Gil
▁pac
▁bikin
gbọ
▁kamer
xf
▁{{
▁дода
BN
▁ayuda
रै
▁ges
ยัง
Ab
▁fundamental
ถูก
طالب
▁Country
▁ostatn
חר
▁Happy
стала
вали
▁քաղաք
▁dato
ذب
ڑھ
ಲೆ
rundt
▁Ankara
лом
ango
▁Rama
▁rot
assets
PUR
▁ადამიან
teil
Тоҷик
▁dich
jemplo
ирования
▁ieg
▁විය
مرح
้
▁Uma
▁arkadaş
ευση
▁cru
▁жизн
UM
ત્યા
赤
DH
rana
ベッド
▁erre
▁$1
104
▁ჩემ
ယူ
dhi
fixed
▁شوند
▁पे
ผม
likuwa
▁اخت
οδο
waxa
▁cliente
▁Ново
medi
tier
▁حم
▁Ideas
▁sf
јо
මි
bild
▁Tie
▁qil
بو
▁science
▁guest
ਡੇ
现场
▁الض
▁participa
▁Sho
▁parts
▁retir
ೆಗೆ
▁σπ
WE
ûn
نو
ског
▁Tanzania
ไม่ได้
購入
▁амал
tiam
hel
rið
▁sklep
▁innan
KY
安装
▁produit
lez
丸
▁suggest
▁bedroom
ਰੂ
▁Trade
serif
מצב
ρη
▁yazı
Ri
▁έν
ڙ
แจก
шта
▁Hub
▁İn
ೀಯ
▁ποι
▁Wel
▁konkret
يلة
:14
▁hoved
stel
▁Season
▁Eur
gər
▁Lut
भव
▁പി
▁mad
ազ
ஜ
გან
ирование
▁Mind
▁CE
师
ליך
activitat
脱
school
vece
तार
fund
▁hukum
ത്തിൽ
▁промен
調
^^
▁rato
atra
puesto
ילים
▁முதல்
专业
▁świat
pra
case
îne
대로
ča
Shop
▁געש
ró
▁손
▁бүр
▁$2
nghe
▁recht
▁skor
esen
DV
价格
編
давно
თი
限
онд
▁компьютер
▁pierd
మ్
▁пен
升
visible
▁transform
זר
markt
行业
бий
▁খ
စာ
▁Even
▁wakat
▁ర
ění
▁เมื่อ
TW
合作
▁(9
kaar
▁tug
▁wi
ويل
arbeit
▁środ
▁volgen
sitio
र्स
جاری
▁미국
▁mellan
官方下载
نحو
लं
คือ
▁dô
均
جعل
▁Zhu
▁Theo
્યુ
תחיל
лады
ούσε
▁Roll
ურ
▁4.0
▁Short
▁Ako
▁қилиш
▁љу
гээр
▁Church
ovanje
▁frame
▁expand
οποι
▁deci
-%
每
တွင်
voor
яз
lika
▁едно
šení
වුන්
χαν
▁xw
fir
▁entrega
▁piece
▁наступ
άδες
kki
135
ביל
имуществ
▁esp
tagata
▁стил
മി
▁מאו
Complete
מרים
これ
▁gram
记者
lick
▁реализ
▁tea
▁Scott
guna
чым
imh
established
Content
▁konkurs
Plus
▁sold
▁Mos
▁reserva
روس
▁toko
ియు
▁алу
▁생
▁basa
діяльн
▁Ann
biamo
▁luna
हरु
irra
▁liquid
haml
▁قا
UL
داء
ffe
▁emas
▁attend
▁viol
arlo
سل
▁волос
▁pono
▁Bul
▁moda
▁pregunta
казва
▁услуги
▁произ
▁çek
副
RB
საც
套
ทุก
▁السلام
▁sever
▁डा
▁외
zil
▁системы
generic
▁proto
▁Order
රණ
▁অধ
Ќ
ျခင္း
▁القو
▁ሊ
投资
counter
ランキング
▁کنیم
לן
▁conce
ก่อน
öm
еге
inger
něk
▁리뷰
responsable
dazu
סי
efur
Feb
-9
czego
jk
evo
▁specialist
Ā
ॅ
خذ
ギ
ADA
essä
êt
βα
▁prostat
▁Mike
▁방법
гал
▁Samo
ています
パン
kv
leading
▁snel
მდეგ
Red
▁sensor
انتشار
▁Oo
▁aero
▁Kurdistan
olid
▁əs
KI
因为
▁treba
াল
ষ্ট
мас
直接
투
▁okol
primary
▁parla
ZE
menarik
▁តែ
▁decidi
▁информация
مال
▁ski
ήσουν
▁hata
▁kritik
”。
추
цца
කම්
действия
නී
ေအာင္
াঁ
▁פע
husus
▁gave
▁లే
▁friend
סכ
▁Systems
പ
khoa
සු
▁عموم
▁ออนไลน์
▁کیل
նք
lerden
sikre
▁googletag
▁Bha
▁Владимир
▁الأخ
னி
gers
bord
komt
ībā
▁pake
▁қатыс
فارسی
▁löy
▁copii
য়েছে
ೊ
▁priprav
AK
اور
▁zna
▁زیبا
loh
ڌ
یاری
▁berkata
илось
situs
▁Տ
制度
EK
בתי
▁Mun
MAX
▁appar
▁програм
▁සි
▁1080
胜
ativa
ሰብ
▁Şu
satz
▁සු
Είναι
▁dies
▁affect
▁рецепт
ֹ
eho
▁slovensk
bere
одной
اش
($(
ል።
公式
bla
използва
▁cent
گئے
minen
owanych
密
▁gun
▁evento
▁aument
سوق
▁Sor
written
chem
ړی
▁mega
▁биз
penuh
조건
ম্বর
zak
illet
stě
เ
▁بج
альной
ията
reg
است
děl
▁oportunidad
unum
▁apartment
TDI
▁salud
unit
usz
сил
ыс
▁dago
ட்ட
▁સર
nič
damente
FG
unta
పై
▁118
ought
▁Norsk
접
▁Comun
брать
▁تجار
▁independent
▁Joe
▁Hack
dil
尼
▁تومان
▁vastu
Retrieve
▁projektu
books
▁Manual
цю
kanye
محافظ
АД
UX
WW
▁fabric
φασ
χουν
▁մեկ
ид
承
octubre
ièce
spel
mut
结
▁izle
kili
▁356
往
▁consequ
▁Km
nca
부분
cela
▁Ash
liselt
ilgan
▁մեր
sida
מש
▁Magic
קל
maga
1200
ներին
▁המת
tempt
▁tyd
▁keluar
indi
▁Ukraine
89.
▁monta
больш
▁Cod
ন্ত
sť
values
▁paa
ары
важно
泉
▁druž
اسة
▁1985
▁videre
Book
स्य
▁ונ
=”
▁fotograf
ဦး
κέ
δα
▁VA
▁stati
اسم
شاء
▁qal
меньш
▁muu
скольк
fang
▁princip
▁pê
▁Typ
它
condition
obě
ించారు
اذ
تاج
ediakan
సి
▁leuk
রণ
erie
▁недел
ήμα
ங்களில்
change
▁ราคา
ճ
108
formações
ूल
▁organis
▁diz
skriver
เด็ก
เอา
進
adu
ยา
▁pubblic
▁gewo
▁ಹೆಚ್ಚ
shall
▁dol
▁Commission
න්ද
ړو
vent
éré
லா
ίσει
ደር
▁දින
ค่ะ
▁Vintage
ėtų
naj
banyak
▁interesse
▁1984
בת
▁тус
itten
ithe
▁zor
▁красив
skar
lir
tage
деньги
▁стал
▁munc
▁пер
iah
▁1.8
قوا
▁Jones
▁infantil
تمر
▁המד
▁???
ώρ
▁consulta
saj
cune
▁любов
▁11:00
▁Herren
China
פילו
ኽ
▁hoch
сіб
player
марта
سی
ობს
▁Language
ropa
chí
ظاهر
になった
wanne
▁ocen
▁Į
conocer
完
өнгө
йн
cima
▁მას
ņa
निक
براي
▁amigos
777.
▁Liu
твор
▁80%
galim
tager
Bo
▁village
час
februari
▁ihm
▁güven
Store
▁wish
方式
datos
caption
suami
Eine
mı
ثار
roma
▁users
▁2020.
ļot
▁destaca
▁Mens
▁ვი
ライト
▁парк
סדר
▁town
rijk
travel
株式会社
▁texto
wisata
▁pictures
▁protection
▁Vegas
▁පව
Ї
uoja
▁أب
GU
Index
کور
▁EP
步
▁දැ
-32
▁grunn
▁mbi
▁Touch
▁BA
Ex
Ti
▁തന്നെ
ಜೆ
▁হো
▁Tik
AJ
产
追
čně
서울
વિ
ैन
▁sinn
▁Ew
기를
ૌ
维
▁определен
▁parents
▁kopi
ロー
reng
নত
2009,
▁Boot
جديدة
▁meni
▁πά
▁mud
▁המח
потом
洋
ejw
▁potrzeb
mie
nuit
▁mê
ပါတယ္။
▁kek
▁Ist
kārt
łów
▁компани
rice
ሁን
ditt
MU
fix
ோ
▁2500
▁Ocean
iyar
ონ
dupa
▁08:2
▁TI
▁favorite
جمع
lini
وفق
àm
▁Chrome
▁vér
মূল
possibile
ရှိ
mil
▁স্ব
ენ
▁ಮೊ
랜드
ène
▁Deutsch
▁Tru
џ
▁metros
▁Italian
EST
NR
ਓ
KL
ions
sagen
▁اعت
▁Ora
онда
▁жив
aše
كامل
owany
Listing
▁تقر
হি
אביב
▁Αγ
oblasti
lius
join
عالی
▁შეი
ենց
گه
ադր
▁Sound
▁состояни
赛车
PI
ליה
津
▁полу
jọ
tā
支
▁Republic
▁ajuda
ကြ
▁गरि
▁learning
▁esti
મી
laden
Next
חות
lut
ポ
alka
ensure
▁выход
kwu
عب
▁bok
قص
ским
▁bathroom
骨
▁мам
▁122
2005
▁japon
سٹ
▁Kunst
▁ఉండ
دما
▁recommend
▁الان
▁हि
ورزش
όπου
▁tube
▁repair
او
జ్
ვ
म्म
ležit
dú
▁Marina
HO
▁Aqua
▁торгов
们
史
ujet
▁μεγαλ
־
▁HTML
oju
▁års
divClass
▁Mario
▁Flat
▁discuss
▁(20
tərəf
нных
▁educa
య
▁společnost
▁റെ
KP
يق
kē
▁Summer
❤
sok
▁nila
▁personale
boljš
gikan
tien
▁frei
White
▁tah
-2016
システム
▁አለ
لون
▁Qua
jetë
físic
ജ
▁представлен
lala
mé
▁stage
finder
▁ней
▁Rome
това
▁habla
tó
lės
品牌
часа
wer
▁equipment
unjung
ペ
тысяч
▁रि
▁Tema
pnin
ുക
▁фактор
γράφ
ڪر
धे
则
▁микро
테
[0]
릴
עבוד
▁Aj
чат
چون
anne
có
ຄວາມ
▁parking
▁cest
WT
وٹ
ttore
Ў
ότητας
置
աց
▁mati
▁ච
adece
▁dati
예약
hiko
▁نج
inne
emu
ēd
▁শি
았다
ନ
▁цар
▁yaş
tranh
▁råd
▁samen
▁중국
▁Shah
série
תוח
▁raport
ដែល
clear
▁ইউ
▁стои
▁zit
ondern
ילד
ીએ
elijk
مسلسل
▁policy
網
makin
EP
▁ره
estilo
▁næ
сөн
vær
håll
λων
▁რო
▁potřeb
▁México
▁sw
▁karo
▁ե
Ь
íky
skin
çar
▁vég
▁دوم
طول
giftBtn
▁употреб
While
-2017
شوي
▁6-
ことを
ුරු
▁karta
最高
bliž
▁ඒක
Not
▁boot
ével
▁Przy
▁مشا
лять
ора
▁lég
midler
زر
nění
BU
itve
▁prove
рам
şı
եղ
▁ត្រូវ
půjčk
slots
інші
▁Quality
дийн
▁societ
▁Plant
pade
OP
hash
完成
▁Reise
▁좋
▁(...)
▁Rab
قی
όλη
adiarsa
增
▁วัน
evitar
▁forward
යන්
自然
▁prime
तीन
unos
дон
ընթաց
▁вул
▁מדי
팅
永
annat
ricerca
imu
▁events
rol
хід
▁collect
▁Popular
yli
эй
والی
ર્ષ
dades
▁अग
人の
▁чер
▁यू
▁элемент
wb
sema
▁energ
▁introduc
baada
▁koos
▁چا
ось
කු
▁دوست
▁Harry
▁Yi
▁총
▁Help
▁condu
iyang
▁Chicago
▁prezident
mely
▁hampi
MK
iebie
▁отыр
▁قص
▁reduc
ધુ
▁گے
▁Era
عمل
▁कार्यक्रम
duit
QQ
▁bug
ርት
вала
▁116
▁Cost
sebut
ða
▁سلام
▁trot
built
euse
թվ
ería
volg
ξης
ორი
One
▁달
▁Grup
ምር
▁hét
▁hayat
ມາ
▁sheeg
طراحی
meter
남원
▁гад
▁২০
ছিলেন
tto
▁территори
ፓ
เขา
ient
▁Regular
▁Mara
νουν
▁серед
kuid
CAA
mā
बीच
sig
▁işlem
Prediksi
▁religi
107
กว่า
équipe
قرار
larından
▁Sko
fordi
nými
▁everyone
▁יח
pujcka
νά
▁زر
▁19:00
lada
▁створ
él
saker
cis
▁מט
▁síð
eerde
▁pasaul
▁rank
ică
▁titul
▁dov
élé
γει
şehir
dob
аш
▁mitte
▁wysok
▁kv
していた
爆
▁Новости
ZS
apoi
وک
のに
▁వే
▁რე
ผ่าน
▁keluarga
ออก
quote
hexColorCode
▁kabel
თქვენ
▁tare
▁역
dä
lane
▁bole
▁Bundes
마사지
▁Uku
▁Diamond
なし
ראש
צת
ήγ
▁форум
▁rein
ολογ
स्थित
▁SM
là
▁Milli
▁රැ
force
▁elegant
ിലെ
voz
Bi
▁duo
biy
とも
ိ
away
январ
▁payment
Val
maa
某
αμε
▁טו
▁Junior
uara
pcs
ഗ
▁أج
సీ
質
ðu
汉
587
misma
(!
uye
einige
lawan
▁мес
ことが
▁aon
▁życi
ıyla
OFF
▁outside
▁Deus
▁Zimmer
вам
īga
ביטו
ורת
сус
▁Turn
န
▁joy
▁įsi
▁0.3
GM
بې
kün
ებში
ował
ینی
▁Step
LOS
ilangan
排列
られる
angkat
▁centrum
▁Mär
▁jim
אז
aking
▁шах
Trang
رده
雷
blue
BH
wanted
▁Engineering
batan
atge
▁(18
שית
▁sorun
;}
каже
▁fresh
ěk
ΑΣ
ୁ
uve
▁қам
},"
România
ekin
▁Ք
əş
тра
ክል
gjithë
ראות
gge
것으로
▁kana
دل
lima
▁Vas
運
bag
yı
▁Бел
▁kamp
др
▁Sac
ולים
дра
▁#5
▁februar
▁administra
När
Xiaomi
44.
হত
▁yourself
MY
▁deixa
0.00
▁◆
▁Kha
жан
▁Cultura
▁kura
лон
gracias
さんの
сіз
▁мү
▁kıs
मात्र
快三计划
ової
שתי
▁رسید
ೆಯಲ್ಲಿ
▁SL
леп
▁elektron
▁حما
azı
īgā
▁skład
▁fark
ত্ব
сім
▁Wij
maximum
开始
▁Zhang
▁Чи
Kalau
▁سل
שיו
dol
▁걸
صاب
στημα
▁бонус
ლოდ
▁৩
▁अधिकार
▁memb
▁રહે
ത്തിന്
និង
גיש
▁Gro
amment
▁klima
▁меди
യ്
วัน
▁Access
▁répon
bos
mä
nikov
oine
ňuje
ਗੇ
Sep
komen
▁бўлган
는데
▁дум
ימוש
▁Event
▁область
дання
▁شمار
fte
ブログ
ído
▁krav
erikali
निर्माण
reichen
дык
unt
žení
利来
▁들어
▁ABS
ਯ
國
▁estab
يمة
ספק
ылған
however
▁serr
მიერ
Avec
suite
ringan
אמת
▁Bá
▁ਕਾਰ
▁vár
委
▁ர
ellige
סת
txt
rong
▁Hey
▁browser
ാൻ
▁Informationen
સી
dock
이라고
onne
▁allen
iĝis
▁paz
tala
▁gəl
author
dėti
▁balance
ením
ტ
床
▁kah
әр
mén
▁reli
▁држав
চার
rap
жүз
▁Cream
▁Է
▁مب
miss
تال
čin
gah
▁রো
manda
▁gai
▁Luc
кие
აქვს
וועט
izar
▁极速快
сен
ൊരു
▁Secret
ల్లో
Դ
حفظ
▁Nak
▁Ngh
▁torna
본
ौर
վար
▁Match
▁Hol
▁ගැ
▁Hin
duduk
-2018
▁غو
اتو
یتی
▁мол
▁אָ
spune
▁хэл
▁Erik
▁നല്
▁pó
喜
▁электрон
duro
يط
▁blood
taki
ић
réalis
▁concret
waxaa
▁conseil
cké
χέ
▁spoj
▁پنج
ţin
▁activities
щё
▁dys
曾
ėje
▁lét
▁Alla
dados
▁finale
▁науч
▁bajo
ич
▁이상
λεσμα
kennen
rolig
۷
LER
270
cell
▁oslo
▁Need
seguridad
ώσει
楼
сида
▁Society
үе
▁sistemi
有限公司
▁Made
uzi
▁Schuhe
يض
▁Respublika
▁cà
▁curso
▁clic
▁živ
тих
رابط
bättr
stru
▁DDR
pla
▁كتاب
▁posibil
tamente
γα
固
Xbox
乱
▁Här
▁глаз
▁facili
বৃ
فکر
chè
▁Там
▁сдела
▁Arbeit
▁využ
▁Nagy
▁אפ
حال
▁שו
roon
YW
নায়
优
▁제품
마카오
馆
რაც
▁compromis
参
rispett
ledig
▁disco
ık
▁munka
శ
▁Lord
должен
▁Village
▁genu
▁ак
իչ
▁290
ក្នុង
▁Lisa
ходить
үчү
▁distance
categories
▁ствар
green
гийг
165
بناء
fast
▁Ata
▁propon
kraft
essi
▁regula
حزب
▁בט
aĵo
۱
▁δί
▁isi
特に
zana
▁المد
▁structure
▁mik
bře
▁қай
▁necesita
▁kogu
انقلاب
▁maskin
▁ҳақ
▁track
▁toto
ਸ਼ਾ
たら
мемлекеттік
niej
selon
","1":"
▁Electric
▁berke
سو
ाले
▁razli
өр
▁abge
▁сви
균
ብር
پولیس
▁tjer
▁Xe
▁CR
نظم
mogoč
temporada
▁‬
록
ebab
▁Pl
mų
πα
▁mimo
▁бит
инчи
cción
▁izdel
▁moun
loop
necesari
UV
manfaat
▁ži
obecn
hjá
▁музык
21.
森
▁folos
▁пат
mentre
▁baza
▁Mot
rais
ndu
técnica
▁আই
▁၂
ాల
постоянн
тел
▁rug
CK
ldi
▁segment
▁Pool
▁kerül
555.
カバー
▁Action
ピ
▁فرد
但是
▁bû
půjčka
면서
▁153
ਸ਼ਨ
ало
▁메
酸
nfe
ээс
யாக
達
بان
▁Sama
індегі
▁افت
▁sve
▁zien
wers
▁124
▁cl
phase
مدیریت
ജി
ाउने
▁ನೀ
bidc
tár
▁2.1
▁Să
juba
救
լին
gram
▁ezin
▁млад
ajā
пон
نځ
zky
▁vero
rody
امات
["
▁Efter
modal
শন
▁Pier
▁facilit
nius
▁अं
▁поступ
選
skje
▁prieš
وض
▁relacion
resultados
▁Partner
になります
▁ово
კი
▁Kart
▁wiring
vað
DU
▁Сол
supra
СЂР
익산
▁séri
obh
medida
主要
blick
▁Logo
રૂ
Տ
บอล
▁maž
sarkan
uş
豹子
sund
тяг
inci
▁Belediye
别
▁תל
▁поч
ļau
российск
快速
▁Vest
▁ಮೇಲ
бой
дори
följ
חברת
▁Say
ċ
תוכנ
ρώτ
▁Ron
άει
▁Normal
▁πό
复
անում
▁Williams
▁બન
▁ці
rú
شر
letve
伊
LB
شورا
யும்
veel
важ
сту
▁anders
staat
▁backpack
තුරු
وزه
席
换
focus
endra
unca
लि
▁යා
ташкил
▁mellem
ادر
ču
დაც
▁يج
▁român
dhe
dám
თვის
▁facil
НИ
外挂
وقال
▁podobn
sty
▁(20)
▁skills
HM
▁balik
रोप
zaidi
▁gusto
▁страниц
▁Dragon
انس
▁tou
ちゃん
لأن
Њ
▁respond
Rīga
ably
▁abi
sına
ڼ
одна
▁גר
▁ζ
쪽
존
▁solutions
▁шт
▁radi
▁leta
olgende
огром
ራት
dekat
▁eben
шир
▁Fly
úr
▁Nos
သော
▁ран
dami
▁Tren
ίνα
huge
kler
Milf
▁contribu
▁formula
▁Glass
cze
▁sklad
oji
חודש
дагы
ኦ
▁нар
▁كم
δι
▁Kot
Cheap
블
▁quasi
▁technologi
▁feu
problemas
hanan
▁Skin
တင္
플
本当に
මත්
▁blok
▁Tro
不能
▁FREE
▁pamat
▁ceva
▁අනු
πεδ
bata
▁Mine
uose
νας
记
ahol
Element
▁Θε
▁Hü
返
▁stol
▁គឺ
▁krye
年度
▁hentai
bruk
pří
ਥਾ
ıyor
ель
까
▁հարց
мощ
ንም
▁garden
▁mirë
▁kapcsolat
▁සිදු
Suomen
▁ministr
мак
dál
Official
地域
▁Mau
▁4.5
▁vert
▁resto
▁condition
▁trade
▁alma
基本
dots
تك
▁மூ
potriv
▁خانه
ntre
wagen
chto
hna
▁кап
▁efekt
ا۔
auf
heden
مثال
▁coup
麻
Mer
ゼ
emmin
łości
102
landi
▁ocupa
lund
פג
▁трет
ಪ್
innerHTML
▁побед
достаточно
ві
رز
ුව
全部
lene
qe
占
estava
ڳ
▁fear
▁comunica
película
▁Nagar
PRO
▁വാ
▁145
▁চে
▁jí
tšo
RX
дөр
▁farm
ували
$1
▁Polski
지는
▁Krist
寺
▁Schwarz
شرق
Francesco
▁Alba
办
riga
аудан
‘‘
hè
なかった
שתמש
িতে
▁ვერ
bekannt
▁Leon
ಘ
Part
▁Volume
asily
▁supra
grund
nostro
▁Johnson
▁κριτικ
▁lua
หลัง
ส่ง
ぶ
▁(19)
бата
!」
сказал
迷
״
၂
▁ф
gré
プロ
ragazz
▁evolu
▁enfants
:\
▁occasion
ΜΑ
▁មួយ
HQ
այի
▁♥
人が
مالی
ධාන
▁symbol
ವಾದ
лап
▁chama
▁हर
还是
▁білім
▁Ша
নেই
▁sm
▁شیر
▁Oro
वो
▁Pala
▁Га
ícia
▁hub
más
лъ
♡
520
▁Weg
私の
▁Linux
lopen
ισμός
▁Werk
▁mera
ற
金融
ட்டி
▁bada
ET
▁ایرانی
ýsled
ંડ
Subtitle
380
▁formation
▁тэ
▁semi
ohen
edit
▁hua
▁millo
یور
▁TU
ítulo
▁weiß
▁тек
▁(15
દેશ
▁போல
tjes
▁resources
\":\"
▁Heart
▁kommen
빠
▁permanent
ของคุณ
CZ
▁песн
▁CM
ումը
▁विश्व
ੰਦ
員
▁কে
eron
▁Singh
aine
DY
▁ühe
สี
▁Magazine
Tak
buena
▁Bey
▁aplik
출장만남
иране
בוד
java
ŝi
답
율
ној
▁depan
тү
salt
న్న
فات
vaš
▁نم
дійсн
▁knih
رځ
ปี
લો
-22
viz
540
▁läbi
▁ڈی
တွေ
сты
▁ಪರಿ
▁يك
შორ
▁මු
▁κόσμο
Search
itse
milyon
வில்லை
▁vou
took
▁included
NK
olması
▁custom
▁flat
▁kodu
▁Bos
▁шин
▁1960
▁programme
抗
بما
пад
▁միջ
кращ
kreśl
▁ਜੀ
▁ім
▁быстро
▁soy
▁கொண்டு
▁جم
/100
hold
▁inimes
0026
وافق
▁teda
\",\"
Event
lerinde
OH
ગી
){_.
acion
ndaj
produits
ensemble
ထ
agan
ОН
ақыт
Jest
یقی
धान
硬
▁batu
ਜ਼ਾ
Российск
ampak
都是
tib
δομ
効果
▁leer
▁බො
യോ
rey
▁bala
മാ
Madura
ैं
nothing
▁امت
ští
гЃ
现在
▁chá
genes
aide
remove
తా
▁кер
▁Kah
սի
▁направи
▁تھے
▁القر
нешн
gong
क्त
▁Ұ
▁груд
izi
▁lång
dog
▁cita
▁zusammen
moje
▁Disney
▁2000.
▁особен
vät
kahi
▁filtr
▁բան
نز
JR
▁Европ
▁lek
乡
رحم
например
▁Living
ΚΑΙ
υπηρε
▁lab
Width
▁thá
▁вкус
▁måned
gno
動画
▁Chen
گران
▁cari
ências
kijken
stat
dę
ovaný
râ
שבוע
ulang
▁175
latina
ە
ඛ
때문에
待
▁Prima
▁Zum
နေ
σεις
lagen
▁provincia
▁fashion
▁توس
asia
ingkatkan
erfolg
designed
టు
юк
▁fata
▁pocz
▁पद
▁Lietuv
υπουργ
tório
دعم
init
▁rám
[5]
risque
ապետ
ข้อมูล
▁minister
onder
▁taga
▁intra
พนัน
чно
▁compare
amília
▁கூற
▁ปี
KH
▁User
▁لگ
▁DKK
▁Xa
其他
▁purpose
地区
toch
ək
wc
119
▁Ska
تجرب
nerima
subscribe
▁Ib
▁pek
hát
קות
чай
▁Pakistan
计划网
取り
▁federal
Петербург
▁හරි
▁AD
▁cura
▁AV
找
System
▁militar
▁Leather
ők
▁2.4
ტომ
ständig
▁поче
▁ነበር
ಿಸಿ
海外
▼
liyev
όρ
र्च
වලට
र्क
▁campan
cken
យ
▁aika
مؤسس
▁टी
所以
elem
ਆਂ
▁להש
▁Salon
▁arbeids
legi
Ư
σία
▁einge
etako
кла
IR
▁MD
▁fans
▁بق
▁MAN
洗
άντα
גה
▁kuku
▁cau
estamos
εξ
▁දැන
מנות
▁switch
▁организаци
озможность
▁constant
-80
admin
▁instant
▁hyvin
▁Sum
▁aver
मंत्री
íska
ания
שני
▁బా
ntau
tino
neš
093
jej
▁forsk
hoki
เครื่อง
tky
يح
▁Eric
mund
יהם
جي
ண்டு
▁ספר
ბა
klart
▁оно
▁positiv
▁Ton
نمایش
▁CC
evi
רוח
▁سف
3.0
仕事
عات
▁Bro
erste
▁Roy
ści
▁друга
▁intent
▁Ach
piccol
ազգ
actions
▁planta
izo
▁இல்லை
ешь
▁sms
rado
도록
Permalink
▁мора
Tech
▁երկր
hombres
یج
이어
ષ
сел
▁09:1
▁കു
▁anul
ਜਾ
թի
rząd
ኪ
▁Pols
лаа
▁foot
▁Aga
τρα
ఫ
▁тон
▁카
רכי
▁നാ
现金
Read
pers
results
ంది
perusahaan
বল
handle
ाओं
yal
▁eest
▁મહ
▁Filme
▁vist
▁passat
qo
ਡਾ
▁mafa
▁ಆಗ
▁darbu
cada
▁финанс
ாலும்
მის
क्
令
▁press
fat
▁Mexico
▁vä
ನೇ
▁kunna
רחב
▁hä
нные
нии
▁ബി
juegos
▁qey
】,【
גים
мәт
▁پن
شل
▁Marcel
▁tien
جات
▁dra
awm
▁Мі
עמ
ansa
随
▁направ
▁тарих
ibu
▁Slim
▁각
▁buen
▁Hart
▁בב
▁convi
pä
▁пак
િ
ITA
rias
good
etik
評価
ливо
▁мүмкін
bane
▁نوشت
ναι
▁Nissan
октябр
ppen
PB
▁Dun
▁ricev
▁Laser
limit
이미
152
cro
19.
▁नाही
▁Indi
קע
▁नव
лау
дары
face
▁지역
▁Wolf
AAAAAAAAAAAAAAAA
대전
▁информаци
satt
▁szak
Lenovo
设备
نقش
▁yapıl
Chi
julio
ituzte
▁осуществ
osi
လဲ
ُّ
▁చా
ots
яр
▁зв
▁య
▁הרא
다음
rangan
▁зі
▁ҳар
ματος
199
éad
▁SEK
ર્
ნე
මැති
ாமல்
▁Вар
جھ
ntu
▁figura
強
suba
Best
pg
▁podstaw
▁Vu
▁fili
▁vrij
ිසි
စား
▁pagar
uja
▁세계
▁სახელმწიფო
▁тор
эх
rish
▁Ivan
▁sola
нал
تشر
▁compañ
RI
▁trai
袋
▁παιδι
dua
TQ
দেশ
▁Bog
雅
ič
▁kaik
тов
Aug
▁Tent
gung
▁Rot
精准
ទៅ
▁اح
IF
▁Бер
abupaten
▁Jose
▁doty
:40
sually
▁Credit
▁Interior
اؤ
▁XXX
業
ούνται
▁passion
tour
素材
music
▁კა
ரே
яць
▁здоров
edi
feng
etaljer
પી
meye
12.
histoire
メーカー
Sistema
yna
▁Dual
ாள்
ില്ല
ابت
▁кей
▁skup
▁mwak
liko
▁polis
เมือง
▁Girls
ξει
現在
የት
▁rezult
יט
▁පැව
ሮች
ילו
дя
eği
ાસ
rida
lack
▁honor
▁patent
chas
▁Voi
▁spolu
人は
▁Gau
्या
▁wykona
place
յ
园
osas
ହ
▁تور
전체
▁Dos
▁포
ඊ
miatt
▁guzti
纳
▁οικονομ
▁franc
sä
作为
adda
ιση
▁мат
dari
clientes
▁kuru
משל
収納
▁deep
עולה
supply
ంద
ĝis
▁seal
組
مجموعة
▁SH
▁less
▁nanti
-70
▁ស
ег
封
▁hér
▁πρά
があり
▁약
▁Solar
tex
▁vale
vrh
岛
於
global
▁완
▁Alexander
ਿਤ
▁resultado
▁tis
בות
Tr
▁Senior
baju
▁OR
маленьк
▁Cá
وهي
cü
操
▁нуж
んで
ariety
pics
오피
▁LO
▁07:5
שיר
minha
החל
صور
▁Matt
Ag
נג
표
▁涓
▁najlep
=!0
▁негіз
▁Кор
conversion
vision
▁liste
▁youtube
▁Aur
tero
领
▁kasih
▁поиск
▁عبدال
mittel
person
צילום
komst
fantastisk
كرة
guerra
????
▁peny
听
material
▁ஐ
מו
үп
rina
▁Isa
▁orient
▁چھ
▁hinter
tijd
Цена
▁polic
▁tama
[4]
డీ
▁نز
費
ეთი
▁08:3
▁Hell
活動
▁fair
צו
▁kore
haidh
▁കോ
nai
mac
▁комп
▁zgod
▁(21)
पार्टी
dlya
stro
แต่
▁rapide
itura
▁juur
大家
▁produkter
فوق
▁თავ
сін
ped
ിക്കുന്ന
▁materiale
▁confort
femei
уп
▁fig
ेल
▁spr
▁Leg
роме
▁קיי
▁сотрудни
▁webcam
Va
рим
tambah
WF
είου
▁Rand
▁tav
Near
▁הפר
lder
▁Pierre
REG
▁سیم
persoane
相关
▁administration
▁Track
▁Tek
Microsoft
▁LLC
▁Hab
ining
Thu
चना
platz
ટલ
4/
গ্রাম
bola
vita
лардан
▁nato
בא
棋牌游戏
▁vaid
টির
▁Delhi
▁Laptop
:30
ewe
▁drie
▁126
▁prices
pita
▁эш
▁efect
▁жо
▁dami
طل
▁Lit
ποιο
گرام
ህን
धा
oda
▁Moda
▁lille
lanjut
▁آمد
操作
手机版下载
принима
dọ
vých
plein
KD
тик
ದಿಂದ
लब
ивает
▁Seat
rien
rauf
هنا
ији
σο
үүс
حاضر
עיקר
▁apk
ఘ
▁population
▁DIA
▁buru
ювання
Advanced
צבע
▁семь
мал
▁Sort
ੜ੍ਹ
▁соглас
uff
▁distint
▁بلا
аж
עט
ակի
▁Dream
زوج
学习
Get
mė
φορές
ugh
▁fik
ides
▁ajo
jur
▁prior
שע
儿
EZ
れば
ęż
▁قل
rou
▁مستق
▁arrive
▁παιδ
يام
lò
▁Silva
حقق
ගැනීම
剧
▁ไม่
▁раздел
▁annet
▁кафе
ေတြကို
▁Ça
María
▁החו
अध्यक्ष
جای
Ő
acción
▁تھی
fw
יית
▁▲
▁2009.
ると
▁politique
▁KI
▁hol
טבע
▁ቤ
▁kumu
Continue
007
철
lade
رفع
▁сери
▁ല
bekend
statt
jā
▁Send
▁घट
për
▁поли
▁tung
▁وع
▁گر
▁остав
tana
棚
гад
nto
язан
▁tum
іння
▁qarşı
▁formul
liku
▁gyd
▁rooms
UD
ሔ
▁Meta
Ju
▁anno
loading
汽车
▁attention
组织
▁jelen
энд
ヨ
layan
అ
indexOf
▁prof
▁vende
族
frei
سان
▁streaming
▁salut
loj
▁costa
▁శ
ттық
▁mā
utom
▁σύν
cari
tonu
▁nike
Ả
ारे
piemēr
כי
awan
▁schimb
შე
▁dator
▁90%
▁Verde
측
登録
▁кун
동안
cje
कै
▁Gut
duction
LF
▁ҳо
ιακή
▁ሓ
ОД
▁pozna
Hvordan
▁Rep
▁құр
▁release
embarg
▁FO
aerah
▁seria
▁여행
nvier
lago
meno
▁Arts
मध्ये
tso
άζει
относ
▁5.0
cía
▁получа
קרים
हाल
Người
kad
▁кү
▁redu
▁114
▁pui
LS
▁וויי
▁round
▁Carolina
dzięk
▁Pře
dá
团
▁komplet
▁подоб
ෂ
▁spend
ਪੰਜਾਬ
▁Už
baixo
েও
▁Images
ывать
▁пеш
▁jeu
semaine
▁pääs
YT
eria
入口
▁කෙ
▁పరి
▁கு
▁Doc
tsi
loin
▁برا
▁Lis
mati
▁கால
一本道
▁iç
▁第
▁३
÷1¬
υφ
marrë
▁sè
3.5
▁பிர
WS
できない
ministro
obi
▁πρωτ
->
esas
arekin
sei
▁fim
▁materiál
сці
sive
olmak
uận
▁власти
১
អ្នក
倒
▁Минист
▁bili
мена
ရန္
měř
▁Ziel
▁stra
גיל
תיק
agli
散
මක්
▁padre
тур
енной
▁बु
▁contro
erinde
Check
make
ানো
ప్పుడు
kere
suchen
▁ψ
որը
skih
វ
▁decis
ały
ета
mayı
uku
▁Luft
事件
▁Fox
▁coloca
ဘ
송
亲
ώτη
▁පරි
স্থান
وسط
εύθυν
зна
▁Aki
※
输钱
teko
הרב
etto
155
unjuk
▁Παρ
▁κορ
▁ہوا
▁anmeldelse
கம்
▁געז
mura
▁sentir
بع
▁tradu
先生
reiz
ικ
▁pokoj
ète
̃
▁सुन
▁articles
یاں
μιλ
لاش
нию
▁interpret
embeli
▁vui
hende
klik
ించిన
mbo
招
ର
▁basi
▁İs
▁треб
▁operation
ይም
▁בעל
Product
▁ಯಾ
themes
esh
▁электро
ingkat
tato
storia
-26
▁посе
▁диск
▁bred
ainte
kė
slim
rej
tava
fatti
퍼
▁exig
града
ьной
延
126
▁Foundation
▁просмотр
非常
וצא
▁shqiptar
aidh
▁Lumi
YL
र्ज
▁мая
333.
بود
▁ورو
meine
▁sekund
tér
藤
▁Kb
確認
GF
買取
▁المؤ
pati
були
▁Вер
▁carta
lent
▁alcan
▁comprend
▁համ
压
ہت
basic
guard
▁difference
折
kura
▁buku
▁สมัคร
තේ
▁εμ
女子
ήλ
▁Сто
ezza
خص
▁秒速
וון
▁coco
▁DES
mala
สามารถ
server
ھر
zmian
գամ
ellement
bumi
dhé
সহ
siga
ंट
▁verdad
▁oldal
ेत
even
▁Bud
▁siku
ാം
into
یوه
əl
pengar
еден
▁имен
ιού
ош
▁лице
ười
▁bestellen
RG
▁וש
مجتمع
▁Money
▁اجتماعی
▁elabora
oya
niya
▁GI
idag
luni
▁χρησιμοποι
udah
▁vene
فته
ី
▁bruke
201
ശ
שנות
▁17:00
▁prek
jw
дің
최
▁Nik
porn
▁merk
▁תח
ելով
▁තර
இ
גי
ラン
▁պար
lán
楽
▁loka
▁Kurd
ნება
సు
plugins
▁Uit
behind
▁luo
▁pack
сам
094
lül
hubung
▁ডি
▁Ś
▁Bull
য়ের
▁SV
Jet
▁Kop
▁декабр
ποτε
aşkanı
壁
êr
-18
ਮੈਂ
▁ochran
անգ
عهد
▁Russia
▁συγ
vila
FD
技術
tetur
▁деятельности
▁கட
▁resultat
▁מסו
darbo
types
▁날
▁OFF
▁ocasi
rangi
ਲੈ
▁nimi
▁biznes
urči
▁वै
τέ
▁സു
زاد
640
▁kër
▁වැඩි
रिक
ערע
poli
▁kê
▁між
▁დე
▁допом
changes
maker
▁Қа
▁rud
▁Пр
hp
رية
▁voit
▁технолог
ză
▁ශ්
ײ
念
▁kila
論
প্রকাশ
rop
енного
▁kurd
▁Beijing
▁۱
яны
yam
それは
רפו
▁morning
备
पन
999.
.2007
▁편
▁Amor
belajar
▁Aero
▁scar
redi
▁сама
pres
өмір
▁banc
నుంచి
▁श्री
výkon
camere
ंस
▁deste
▁materials
▁яш
vic
trip
▁aktual
▁Performance
大小计划
▁temperatura
▁Ár
राज
outro
ανθρώπ
used
▁ترک
▁servici
expected
▁cart
ፉ
%)
▁март
dai
OUR
salle
▁hoc
ladda
leh
也是
Thema
▁bendr
▁objet
цев
▁මහත
▁цр
▁Age
▁Floor
zî
’’
▁२०
ларды
▁Opp
asked
▁Agar
▁elev
നെ
ซื้อ
▁Int
ple
эт
▁آش
▁oike
druk
▁cert
2004
ناء
ίδια
▁контакт
▁plaats
▁Кол
nq
נד
▁corpo
▁ເປັນ
▁autó
кс
塔
ιγμ
ιτικές
警
ֶ
用品
עקב
▁člov
▁Lite
▁hô
▁dú
乳
▁principale
lıq
colare
▁motivo
хо
310
▁moli
lerinden
▁Serie
dunt
FH
▁rə
령
activité
acija
と思う
కా
▁salt
▁uygu
▁Vall
ecer
▁גב
vendita
▁Down
▁comfortable
ував
▁dub
měr
šči
▁numer
দে
sah
▁2.2
▁ดู
-2020
▁университет
ֵ
ומים
▁Jr
ישה
▁māk
δο
।’
▁Policy
▁Laura
darah
ਅਰ
кая
▁sci
visión
ச்சி
चित
litt
▁dip
▁கொண்ட
duk
وش
erno
▁жүйе
نين
▁seen
▁Chang
▁Им
▁heure
ધાર
YH
▁Zam
▁Cafe
▁export
▁poste
-2-
▁aç
girl
▁Bru
finitely
רו
▁vlastn
πόν
saka
vention
роки
Ph
uq
▁ಎಲ್ಲ
▁Victor
ਿੰਗ
аль
iyong
-2014
οδηγ
rist
▁prop
իս
अनुसार
.99
Partner
满
▁Groß
▁ಬಂದ
▁cee
wonderful
▁кино
▁национал
ਚਾਰ
хэн
▁declara
лечение
വരെ
▁prů
июн
зер
story
▁వె
REN
کالا
▁beton
vai
bieten
▁জে
▁Wars
neem
09.
▁bety
▁Tun
gene
침
ኃ
λι
▁effects
▁حسین
රී
LAN
SG
র্ক
▁08:0
پزشک
айте
Tous
未来
538
▁Klik
ΠΑ
▁الموضوع
▁राम
uð
▁分分快
▁போ
▁Till
дээр
തി
구미
▁Просмотров
імен
áin
▁wind
Gu
چی
Bereich
נען
▁Москве
▁легко
▁papier
▁JO
▁කල
▁mane
▁रा
ుడు
▁shoes
▁Komis
ğu
ျဖစ္
shippingFee
ając
ларын
moč
tër
▁որո
ਨਵ
scrollTop
Στο
▁propr
όλ
▁yapma
▁fals
▁Private
จริง
▁strani
▁Asian
평
တို႔
اخر
obra
ज्या
ਪੂ
ūr
רט
▁zad
בט
▁근
spiel
▁rajon
відом
▁rand
▁xi
▁richi
▁Industrial
▁συμμετ
pid
▁சி
xt
рі
ისა
=&
▁Lé
泰
▁Matthew
wah
▁lī
▁bloc
кур
vida
▁DAN
ाउन
▁otá
ਇਆ
wiele
hitta
地方
▁пан
ической
mia
itz
ელს
sterk
▁fitness
مساعد
▁чист
gala
▁صور
▁झ
▁Kem
NF
ayı
▁provoca
sir
ارتباط
▁07:4
cadr
▁kvalitet
▁ihmis
▁sull
rates
Em
դու
▁ሃ
($
▁samp
▁rod
ást
pewni
bą
ിന്റെ
▁Thailand
▁මත
▁Пе
EV
ieć
inh
▁nez
정보
үүн
феврал
erde
שי
তিক
▁talál
ußer
▁Ris
च्छ
▁tena
旅行
▁yapılan
vsak
рии
▁પહ
ซี
▁mel
tijden
ינים
というのは
نډ
▁Бир
▁Block
zv
薬
kola
త్
▁participar
ոտ
▁eins
ամ
▁취
▁Quote
alnya
▁Look
▁bizi
tratament
asında
▁слов
映画
lalo
Quando
late
▁handle
אירוע
▁лес
See
▁urban
........
ıcı
▁noc
יבות
šel
ใหญ่
гай
شيخ
جلس
▁Rais
सम्म
▁Guest
shared
▁oral
▁spécial
adan
▁Schul
▁Quick
▁121
▁colabora
power
▁Spo
र्ष
pieza
▁אד
▁Tier
▁achter
▁conduct
oru
တော်
ಲ್ಲಿ
▁obraz
▁discussion
▁ಇಲ್ಲ
Count
РІР
જુ
▁berat
▁هنر
!?
▁ਹਰ
ራዊ
ža
ală
WB
▁αυ
מיד
▁mol
אַז
μένου
ටි
fosse
害
հան
شه
ťaž
▁Зна
ทั้งหมด
▁haut
옵
hf
▁pensar
▁waka
վող
ഫ്
cierto
offer
▁stát
ਪਾ
ສະ
famille
控
ὸ
▁кандидат
ratu
ლე
▁penye
质
۴
імді
▁inicia
esz
▁scop
▁verdade
alatt
атты
▁spin
▁dialog
▁wear
▁storage
отрима
జీ
▁---
bər
▁العل
umas
▁били
тора
adott
▁leather
▁muž
▁personne
▁noastr
▁РґР
▁Apartment
ыш
XIX
tisch
katu
रान
▁pigment
ніх
▁dru
▁applications
ramai
чему
άσεις
家庭
્યાં
▁mart
▁Լ
▁10-
착
▁BI
SU
Widget
▁పో
▁tempor
▁пользовател
▁QUE
▁summer
Λ
ñe
ună
▁Uk
кључ
garh
عرف
ινε
ध्या
ësh
링
▁Asi
▁представля
▁exclusiv
▁zach
▁Rent
▁active
vė
lloc
זוי
0000
ฯ
▁thanks
esha
tasi
▁Anak
▁пам
υρώ
ازه
hsx
▁이야기
ریال
▁exterior
uestra
غير
▁zelen
▁1982
neeg
▁mayo
▁recibi
▁۲
सान
▁θε
ilta
▁doi
лив
▁compar
fyll
▁Gast
ავს
gái
erd
▁bateri
▁Gear
ită
治療
▁føl
Line
▁ayrı
アン
servicios
▁Tä
תיים
▁التح
امریکا
▁Андре
ئن
oq
▁இருக்கும்
isë
داول
بهترین
▁مشتر
brief
dels
▁Available
יש
▁மன
MH
"}},"
열
▁أخ
▁الرمز
▁財布
משרד
вона
▁yapı
▁113
iers
▁Who
ומה
нен
gó
▁Ё
▁sele
ындағы
▁rien
charge
▁berikut
▁בנו
geld
ไว้
ভাব
▁соли
ושא
▁socio
▁Youtube
나는
JPG
▁Ро
jobb
▁говорит
▁форма
▁Gün
ል፡፡
▁Alta
ώνει
▁बो
ести
▁veg
ahli
bble
'';
▁현
луу
▁seis
loog
▁المتحدة
رون
▁врач
告
▁води
▁педагог
string
ossa
फा
hoje
کرد
▁sê
WR
safety
şe
lərə
▁מדו
INE
्यू
▁Kategori
porno
▁Ola
ítě
▁avon
▁войн
%22%2
ĺ
▁Suite
▁šir
▁ගන්න
JP
nél
host
▁label
worldwide
▁Ов
▁fag
銀行
▁ទី
მი
İN
יוני
ode
ෂ්
LAND
দল
▁pap
▁provid
▁stund
kdo
نچ
enne
▁ember
▁kondi
备用
σετε
IX
prw
యి
Nu
▁πλα
▁Santiago
▁вида
оп
ライン
▁disk
facile
ঞ্চ
▁127
▁550
burn
▁classe
ൺ
тить
▁owner
வர
▁Michel
▁laat
▁core
▁2021
▁stories
tú
orice
вата
rama
▁schwarz
이번
▁priekš
▁extern
▁tali
LJ
glas
▁inser
▁двер
▁இரு
▁Ug
▁Format
לתי
murah
سي
▁категори
▁quae
▁modell
gesamt
طلاق
▁tw
▁באַ
▁Outdoor
Hi
uso
▁Such
▁جديد
▁zase
▁rec
won
eggio
▁Lars
यार
accueil
▁TX
▁возможност
όμη
жо
امت
走势
137
resource
▁Վ
▁Shqipëri
▁aumenta
ajú
cookie
庄
ahawa
▁เวลา
HV
▁prem
скиот
ရဲ့
▁очи
raison
גש
▁Alam
пар
explain
تې
▁හැකි
▁stað
▁රජ
▁συνεχ
▁draw
くらい
қандай
▁Chine
כו
▁nesta
▁ഇന്ത്യ
魔
viv
▁cours
▁пот
ição
ителей
word
ohun
▁назва
▁වෙලා
256
▁江苏快
۵
▁zrobi
▁koh
třeb
▁priv
езд
▁пара
▁teng
▁wiel
gota
中的
aram
USB
ifa
odio
][/
תא
▁Hil
▁大发彩神
entre
▁street
几
▁Leben
▁Tras
eken
▁انت
951
▁Custom
脱毛
▁20-
tunci
▁hey
petite
صلاح
minister
նրա
ίσω
▁Diesel
-29
ирани
mals
▁فور
のみ
၈
Պ
▁дозвол
FK
▁ሥ
wick
úl
▁jar
▁intre
▁Unternehmen
Pagina
ところ
רגע
abban
ième
▁št
formazioni
850
vyš
znajd
▁پرس
出来
▁történ
qh
tyd
극
ബി
dată
▁mwen
▁board
▁возраст
inį
▁HR
對
venit
mAh
큰
رہی
▁લે
Online
▁висок
▁sida
▁ټ
CON
tov
sendo
aza
▁1,2
itor
בצע
όσ
bych
▁τι
kjer
timi
alaman
theme
выше
δυ
région
روز
punt
γμα
ਿੰਦਰ
ьте
▁[+]
นัก
▁임
▁თე
вид
gona
ेट
енко
▁elke
stedet
ZO
rô
šī
▁занят
▁маҳ
とても
मो
▁skil
emikian
rade
آخر
ंगे
▁התק
池
▁диа
名無し
misel
stör
▁לס
▁מז
изма
nast
결과
culos
▁natura
第二
▁vive
checkout
ește
πο
▁imper
▁Negro
▁อ
▁gaga
entro
ená
▁Mount
▁tangan
jih
cuni
▁szükség
গ্রহ
▁caus
efter
休
щения
riya
ائق
násled
дік
erhalten
لبنان
ително
স্ক
▁Congress
▁Minute
▁Arte
Vivo
बल
▁көз
▁ghi
anın
роль
রু
ะ
▁разработ
dong
▁Anonymous
مدير
▁ក៏
▁pale
bí
weet
יתי
оны
▁вър
лико
▁Herr
▁sayı
▁pembe
έργ
dalle
ამ
▁συμβ
▁ජීව
ుల
▁kira
▁1983
▁Fitness
境
▁Бол
▁bár
▁route
dina
tron
Genel
▁fol
순
▁bayi
ðið
▁skol
▁adip
▁эл
▁ընդ
▁naturale
аються
εταιρ
▁бөл
ගම
náš
級
▁qay
ોડ
人人
τός
亿
cuma
ほ
▁Herz
Desde
গুলো
ευ
▁xin
▁נח
痛
οχ
▁mass
▁квалификаци
▁Bett
停
▁Mali
▁መን
静
▁canal
ома
▁ilişki
Min
▁Slots
gum
▁competi
dhë
گل
LO
▁cour
gol
kolo
weit
team
ಗ್ಗ
▁болған
▁lleg
ива
▁කට
şan
▁stimul
▁kemi
حساس
▁Liverpool
Nå
▁организм
ome
צרים
▁cuisine
ජන
вай
▁visual
Рейтинг
▁мэдээ
▁extreme
پایان
युक्त
лица
scel
▁سازی
▁Seri
▁анализ
कों
umo
▁بط
澳门
▁Esperanto
▁FX
formazione
վա
ሎች
ਢ
探
οφ
▁broker
tığı
kurat
222.
ква
贵州
(4)
▁FOTO
763
tida
%25
▁सेवा
▁villa
ಮ್
श्
▁dzīv
▁piln
新しい
▁المس
مدينة
▁MAR
▁22:0
χος
▁Basic
führen
時に
重要
▁Bien
ხებ
▁Trip
03.
λαμβάν
مسئول
powod
osoby
эм
sujet
şağı
დიდ
▁Kia
annunci
ബ
prop
▁loa
▁lov
aitu
пак
▁Rob
据
▁وو
iere
▁Volkswagen
هي
EM
нима
▁nek
manı
ilu
(3
▁čist
▁naka
нный
▁Jum
পতি
▁Address
نتی
▁Nis
ন্য
Gi
nig
▁متن
ững
▁τοπ
▁කියන්න
▁artı
▁bueno
مشاهدة
▁steel
▁rég
पानी
erad
▁Nature
YS
iyyət
▁Conference
remember
▁幸运快
▁Pump
lsa
χωρ
▁चाहि
ισ
▁esku
wohl
宮
άση
អ
▁profession
▁Koh
shopping
▁Qi
ચા
روا
▁прад
ız
HU
▁horre
vrier
▁функци
▁Holland
productos
лку
290
ReviewImage
μήν
یابی
▁Πρό
อะไร
см
▁នៃ
▁arriv
ίζουν
εχ
▁proiect
teve
Ł
▁kraft
στα
მინისტრ
▁кеше
Trans
वाह
pergi
verso
دیکھ
west
rgba
▁loss
▁Flu
ాడు
▁Ple
▁artículo
WH
ês
sort
minyak
מית
▁Usa
Públic
▁felt
သည္။
κα
▁Kind
▁Ман
▁alumn
образовательн
▁históri
▁paso
бут
market
вой
juin
▁муҳ
▁حص
جن
nės
dinero
lerle
Θα
▁ולה
cijos
▁probleme
delig
پور
▁Anton
/01
▁преми
▁Maison
шего
▁Russian
▁junio
▁terme
নির্বা
▁சொல்ல
дей
현재
īgs
ịt
šli
ninger
екі
▁السل
וט
λάβ
TION
▁afecta
Sp
147
iteit
▁Trading
ჯერ
způsob
ура
άλι
のある
║
uwe
နှင့်
mitä
▁solar
वाल
整
▁CAR
리는
▁friendly
규
reden
▁اخ
kwamb
ciendo
pärast
▁ਕੰ
관계
Rights
Voir
▁prec
nuclear
▁ದಿನ
ària
weni
config
▁txo
▁投稿日
▁שר
주의
▁szó
▁slab
rka
үүр
少し
বাই
▁Baba
Based
loha
လိုက္
▁вед
▁Player
ache
▁dam
longer
ต่างๆ
▁questi
ilen
▁փոխ
▁ก
▁نخ
▁40%
▁Видео
уз
طه
سيط
BW
rbox
alang
Գ
PG
Tā
▁coin
▁AMD
OL
boj
števil
مرة
пы
Ga
▁inden
ником
чина
▁məh
议
▁quant
▁Jung
zake
potom
145
Thành
▁afirma
vali
▁فه
שנת
אית
독
峰
فور
375
▁ಕು
jä
ことは
ledes
▁Prim
āla
만남
៖
▁benefici
142
▁vital
▁müs
ුවෙන්
UZ
tuvo
eines
ײַ
TU
estate
china
Ո
hrá
हरी
éné
▁Rag
材料
dort
▁nü
▁wood
pò
▁София
サン
لق
foram
▁KRE
▁реклам
▁mál
▁läng
▁хран
tį
kong
232
ällä
lung
prwidgets
irka
Lesbian
になって
▁언
▁unde
էին
صار
ույն
▁Lá
άρχ
ា
▁зим
▁kül
▁minder
गरी
▁חל
նել
▁Bible
▁650
▁Student
كيل
رين
届
▁पूर्व
תכנ
▁1979
▁hurtig
▁studie
bora
▁кв
1_
▁+1
手机登录
inventory
▁komanda
▁karar
▁Tax
करण
례
drž
claro
▁apart
▁ធ្វើ
▁Punt
츠
😉
▁क्य
දේශ
▁σκ
▁protagonist
ὰ
wish
wife
13.
ेक
aspx
डिया
▁іш
▁vyš
精神
הים
അ
▁Vietnam
▁ஆண்ட
▁istori
føre
inę
laka
▁Dobr
ጂ
▁الحك
nvestigación
VB
ήν
rā
智
ক্ষা
hrer
සර
河南
સ્ટ
థ
▁finish
تقل
cena
▁È
▁Publi
▁кір
ndum
sätzlich
▁Ağ
āli
橋
▁ביי
שקל
▁akar
တယ္။
▁Planet
ضي
义
▁հար
▁Selv
serer
▁cím
▁அல்ல
alternativa
၆
ωμα
യിലെ
▁екен
▁relat
▁humano
iausiai
MN
ಣ್ಣ
Selector
Џ
θέτ
lid
▁점
MHz
▁ਬਿ
huwa
▁доллар
ář
▁negro
▁نن
▁kaki
ического
▁DIY
▁dest
إدار
▁Char
▁bru
aplikasi
båd
▁فا
besser
人员
▁Epi
▁Comp
wit
▁şirk
結婚
▁Account
▁आम
▁Frauen
ظر
▁kare
▁blanc
330
となる
▁Εκ
146
▁trei
▁somme
▁adat
▁Ih
▁tuntu
hấ
먼
▁Diego
▁conten
▁म्हण
آن
▁Baru
תית
370
ења
פר
▁مض
Mobile
男性
▁Round
交換
technik
▁համա
Labels
▁Internacional
.77
ंत
лише
▁Entertainment
emia
▁vul
▁Singapore
▁situaci
ása
存在
Dünya
stí
しか
理解
ඩු
טור
▁ახალ
овий
երբ
essential
iii
▁σημαντικ
▁머신
cing
OB
нис
след
ολογία
mê
ター
▁Gru
▁FR
▁Nice
できます
хол
הל
▁ಹೇಳ
vuoden
વસ
mám
▁amit
航
▁sorte
▁Στ
سازی
цо
ქ
elser
pelajar
ंप
▁بالم
amu
▁اق
▁1981
▁BU
reira
柄
ارب
▁bron
▁agree
▁충
▁tala
ارسال
necessary
קרוב
ပေး
▁வெ
▁Sommer
▁спів
▁Mā
安徽快
▁અં
家具
kazi
41.
▁enem
▁seba
▁бро
▁Си
▁برد
miast
널
шт
teria
ирање
▁миллион
women
TZ
каз
تری
נאר
sey
▁aha
▁VIDEO
acions
قى
▁популяр
ਰਮ
про
GN
▁ගෙ
▁հայտն
gemacht
▁hag
കൾ
ори
hé
طاع
czyli
opa
vanlig
▁hour
▁desta
▁Miguel
εια
ಬ್ಬ
там
dura
▁posts
▁veloc
親
▁ಕಾ
နာ
ವರು
▁Liber
ತ್ಯ
dak
▁исполн
▁measure
ZH
banding
Blue
jamais
دن
▁lima
နိုင်
▁кўр
pris
ńc
Av
〉
total
ADO
▁जग
႕
▁அவர
qw
marché
яется
▁المشا
▁Raja
开展
تل
▁شوی
湖北
লাই
تقدم
्दै
▁HO
kis
▁сед
▁크
▁Santo
▁சா
ဒ
▁గా
έλος
▁bla
門
δε
▁температур
▁Hit
อาหาร
lä
ઘ
▁Bara
atan
▁μπ
dakan
▁рус
ענט
▁البي
setzen
ான்
постој
millió
▁respectiv
まとめ
regler
产业
-300
▁Bibli
ողջ
szą
shim
▁карда
▁пап
叫
امور
sì
▁удар
离
vendre
:{
روض
临
이는
वल
▁Blanc
kii
▁Gem
▁PAR
▁여관
创
▁hala
vere
لوم
▁अर्थ
ತ್ತು
▁נת
სოფ
times
qy
ское
talán
▁Бул
plat
まだ
▁Denn
gado
(/
kateri
시설
▁누
▁attra
▁Ice
▁сур
팀
▁diferencia
cast
мкин
▁uży
典
▁шал
سة
单双计划
▁fuck
▁법
ष्ठ
住宅
ትና
جار
▁ਛ
▁Rusi
>=
▁стр
ymi
▁العراق
▁تیر
▁Turk
实现
▁launch
HCM
▁Titan
díl
ėti
▁diabetes
qat
rito
lauf
نفس
▁erg
▁wr
准
▁Ł
▁kolo
nnen
▁encontr
▁үл
alis
▁glass
▁mutu
▁fou
عقد
શો
▁দ্ব
gone
▁Ер
بانی
▁480
лата
տեղ
hay
avril
bantu
▁бой
▁غر
nez
غي
▁valid
▁jauh
óta
joven
ују
▁edib
イベント
▁ஜ
103
▁menn
shopify
ಧ
jnë
▁Familie
ணி
rico
술
:18
▁entend
теп
給
▁Ам
वेद
مقاله
▁Мін
▁buna
matic
Por
નાં
ὶ
▁басқа
002
▁προσωπικ
θεωρ
اعات
▁dolar
lakini
utan
▁stres
過
воз
information
康
▁hui
▁bied
utta
▁mennesker
ève
تطبيق
aman
legen
▁vesel
▁структур
வ்வ
قدس
▁ειδ
iż
ирует
prev
єкт
▁половин
免费视频
Основ
веде
予約
крај
тиб
nil
аша
Order
막
▁sob
▁буй
τερα
▁tava
息
.+
▁교
▁????
iž
▁Valencia
misión
▁Lor
▁важ
ੁਰ
бул
▁129
იც
енно
▁ডা
මණ
ziu
▁Бог
▁ruh
▁seksi
Mereka
Very
GV
simmä
೦
ृ
▁kommune
цін
▁бут
سط
▁cai
こんな
▁144
▁jä
▁ملا
เกม
ège
▁ше
▁BO
апрел
سكس
rokov
зя
最近
▁מל
šlo
▁στοιχ
230
bong
▁зас
▁spille
δό
▁futur
ujejo
▁button
skou
▁الأر
ראשונ
hangi
ეთის
конечно
▁(11
▁importa
▁қой
▁પડ
▁dui
▁capa
üye
▁Lou
hoko
تو
0.5
шен
▁Espan
▁fə
되
記
▁dokon
▁suport
▁chur
工具
▁κλ
जू
ÕÕ
િયા
긴
▁викон
ishga
▁진행
▁temperature
SN
116
▁التع
▁аппарат
ниците
นํา
▁Prezident
ற்று
▁23:4
benar
iser
其中
▁256
▁copy
נער
▁მარ
▁আব
▁cher
▁Wed
査定
vyks
planning
岁
שפּ
▁৪
мг
λέγ
aktif
▁Bila
▁Neo
丰
▁sede
▁aproxima
اهم
割
лған
Лондон
tën
▁оқу
▁추
version
chain
▁expect
ηθ
シー
хора
▁VII
되고
правильно
тері
倍率
ᠤ
그래
1;
▁файл
diyi
▁선택
сети
دوستان
లే
▁వా
▁இருந்து
delijk
låt
бира
▁உட
كية
▁menje
ਮਾਂ
Mac
enige
▁manage
casino
▁patient
成为
players
ceput
зем
sân
sana
Ak
նդ
▁obd
▁사회
thy
▁ulic
برگزاری
maintain
资
uhait
ៗ
கா
camp
ொரு
uttaa
▁opiniones
▁wait
rini
ације
▁postav
match
▁Δημ
ჩ
▁veliko
fondo
těl
ZY
▁København
्यो
encias
▁PH
오피걸
Daar
ರಾ
שור
▁offentlig
Set
massa
diet
▁бошқа
embaca
مون
苦
রহ
▁লি
シャツ
▁эс
chin
좋은
NÍ
▁تي
стигн
▁ખા
ვით
בי
zien
▁category
視
▁روان
冬
ότητες
▁humor
JU
▁vehicle
ხ
िय
окрем
டை
илди
kry
▁ஹ
▁Mol
처럼
ihan
lucru
▁lun
▁Jeans
▁dugu
ולל
ਿਸ
にて
לק
ložen
▁שק
bé
▁mise
江西
lange
▁Dank
▁ўс
▁Shopping
طالبان
تقد
andre
▁انج
LES
նախագահ
▁komment
ීම
▁impuls
▁observa
▁före
קן
דוד
овом
rdings
▁называ
нер
André
供
egy
▁tamin
vody
▁inch
food
▁jur
ผล
zado
rsi
espacio
вет
340
▁დი
▁İç
▁양
ורות
ండి
▁habit
раш
▁spe
bila
▁Race
ኘ
▁huu
▁건
cenas
eves
▁чад
njo
生产
bär
၇
meio
KR
haqq
Ÿ
juego
ירושלים
تعاون
▁yin
-2013
களுக்கு
ෙක්
maður
▁благодар
▁Lid
河北
changing
pha
Benz
▁інформаці
户
一些
▁plaz
▁أول
сте
▁mitt
рин
vq
bati
▁$3
事業
advert
ано
微信
TER
2001
▁случ
系列
▁kula
▁जीवन
раст
governo
▁ஊ
dne
ifs
▁Stefan
mite
▁ZA
▁նախ
رن
воду
хорошо
▁ባለ
bə
UF
listopad
ischer
▁Юр
▁독
甘肃
▁sap
▁tog
▁იქ
مپ
HTC
ूं
eiras
▁aqu
ада
▁spring
ല്ല
akong
福建
ierten
اوت
opportunity
ACA
ték
▁Օ
▁kota
▁136
▁registra
рӯ
acco
akik
▁require
▁اون
ayi
▁08:1
▁Beau
χει
▁២
quiere
▁والا
▁bald
اذا
િંગ
γνωστ
žino
▁PLN
▁informacij
δικασ
▁weight
▁valuta
κατάσταση
▁тел
vz
дати
출장아가씨
▁flow
▁товара
柳
フル
106
ระบบ
▁Belgi
sburg
ਉਂ
▁مرب
vine
νες
▁Dh
▁asocia
▁determina
prodotti
▁(22)
▁neka
taken
Share
очки
▁woman
gų
▁pêş
sya
▁Tee
ـــ
▁23:0
hsh
ומען
iak
リン
同时
iPhone
Bet
ेगा
▁handel
اقتصادی
เวลา
▁Hum
▁好运快
ведення
ونی
マー
estión
isko
▁Nederlands
গের
▁כב
▁15:00
غال
емо
▁Merc
qf
զի
DG
▁узна
ธ
▁Qa
▁kasi
ਟਾ
▁(30
▁памят
▁LI
night
တယ္
▁ئه
èm
▁esper
▁යුතු
▁categoria
118
dienst
▁sest
эрэг
▁פֿ
▁Már
cześnie
▁−
cera
ીઓ
ぐ
यन
tiques
дым
ודות
ژی
มือ
▁drama
▁ڏ
лум
▁character
жена
seguro
صب
▁නැති
ہن
▁סע
Total
Hoy
োর
विशेष
▁15-
▁zij
قرآن
rës
ينة
/3
πρ
.000
▁PRE
▁صل
늘
getjs
schaft
▁上海
1.2
鱼
VG
▁personnel
▁PVC
стра
нете
▁lisää
▁Num
▁වේ
▁предостав
љу
medlemmer
赔
▁uzun
kuasa
Super
▁postup
▁Eng
uvre
バス
*/
nější
ੱਟ
結
ementara
ayat
▁Palace
iā
hj
▁конкрет
desarrollo
▁Rap
ధ
ाया
ویل
커
▁зелен
بیر
Offer
▁vald
போது
about
▁gagn
▁22:5
▁Ел
budi
▁האי
stoff
SV
တစ္
اسي
ични
▁280
bě
▁Categories
دکتر
独
cích
gla
免
1500
File
иран
ordre
чення
មួយ
▁komputer
▁kod
▁tara
▁pure
▁Бы
▁ได้
ット
VL
▁ಬಾ
айда
▁үнэ
▁nærheten
▁ము
Items
-1-
▁leve
domá
cursos
▁Dead
ùi
▁지원
▁Bike
記事
您
業者
دگی
▁วันที่
contact
▁Chin
огда
برابر
ፅ
ekkel
stil
▁şar
్యం
ائر
▁Wireless
▁FI
▁vizit
znik
細
ਆਰ
。“
ených
▁grow
bayar
▁істор
tiin
▁fari
وده
▁20:00
▁papild
wys
moyen
▁probabil
征
▁vele
uren
юз
пыт
ocht
▁எல்லா
▁statement
tänk
▁живе
おすすめ
▁chef
轮
▁trú
uhi
광
elsen
මග
▁sej
▁funciona
kości
нет
akka
▁pravi
חו
▁мужчин
に関する
▁Fach
♦
മ്പ
▁трав
ਿੰ
▁채
▁lege
▁spil
▁әк
▁Cro
▁gravid
▁бош
ғри
dale
▁Chelsea
šo
▁Qual
jut
째
▁명
对于
љи
▁apps
شریف
▁문
दे
185
physical
▁zde
णे
1100
тал
多少
gående
יטה
ически
入れ
nant
▁Terbaru
▁Expert
ວ
работу
▁Situ
▁максим
أخر
げ
comunidad
▁ਜ਼
▁αγ
三分
▁memory
ারের
نيا
ან
Current
奖
▁Garten
oleva
题
nagyobb
qin
مدرس
ест
=2
mə
▁kapit
▁Agent
▁ਮੈ
▁afla
rica
▁kuba
▁favorit
vale
How
ضای
مهندس
irección
▁terms
▁Livr
▁gew
▁tang
▁hjemme
vus
▁kez
▁magna
uba
پس
▁sinu
ادث
دانلود
szer
▁primi
▁zato
▁ব্যব
末
▁teknologi
निया
▁Apo
ngkungan
▁restaurants
لیا
hlo
▁laten
enta
پی
bun
▁Latin
kommende
ΟΚ
▁лек
▁személy
ීමට
▁Durch
-2015
自拍
▁PL
NU
▁Kil
▁mandat
▁vieta
يي
▁ground
神彩争霸
▁CP
▁Tank
merk
▁फा
ীন
citas
普
▁Андр
▁partit
産
tembre
lík
▁langt
яют
gabe
hò
tys
▁garage
bær
pilsēt
▁бара
LU
▁anime
pequen
OD
omini
dasar
lida
▁بإ
▁అన
▁buiten
▁tat
▁åter
colo
▁aihe
▁anlam
ици
制作
khe
CTA
produksi
▁Ross
▁16:00
female
/2010
▁Совет
rueba
广西快
XC
▁diferent
وج
szym
▁подат
▁спа
dó
ধান
期待
▁জু
ਬਲ
local
-35
JAV
랑
-03
▁8-
▁simpl
출장업소
▁representa
loved
▁Wien
ească
▁пас
wasan
ნიშნ
▁uygulama
ალი
▁мав
Italia
minat
▁للأ
▁berri
quantity
▁син
ంతో
▁mev
前に
sert
▁кир
▁veľk
対
▁boj
▁Від
αρτ
andro
dung
▁பெண்
shift
رژ
Sub
▁Vilni
dro
íveis
678
bound
▁பிற
▁Tol
計
发现
ρας
wj
layı
▁environ
cours
sucht
ිය
▁jij
ודה
дена
zuri
شم
▁Guru
fuq
zis
yuan
AAA
▁Бе
▁হাস
:13
ført
▁эх
WC
работи
άγ
包括
User
▁gång
റി
เลือก
階
שר
ᠢ
øv
▁ਅਸ
▁ශ
▁심
eaux
▁নয়
▁hæ
عي
ਵਾਲ
▁kino
pantip
▁interview
444.
annak
bę
▁Mə
▁келген
лоо
▁feeling
ort
▁bilər
our
ତ
HY
467
āri
íod
▁3:
ريف
OC
ією
▁දි
શ્
報
meklē
▁เพื่อ
▁ቢ
obre
ਖਾ
▁parc
ایل
some
▁Ак
▁Trend
▁dress
قیق
Tahun
〈
לח
225
ыць
▁Há
▁կատար
mahan
QB
typ
adam
▁थ
තාව
jük
قديم
ఖ
▁NI
▁चा
íonn
▁Zem
zda
▁zoek
ઢ
عتبر
Unknown
/2019
tepat
ቸው
▁Гу
فا
NV
யான
kinderen
▁juh
▁tege
ONE
▁کریں
име
▁Editor
ларига
ənin
takse
▁Hotell
همان
szej
▁carro
ෙහි
stream
очек
▁prae
asă
▁hjem
▁boek
сов
▁wol
▁UP
▁duk
జా
▁crime
▁Али
▁(24)
▁Chile
▁Код
rò
▁Fas
ติด
▁sabi
hli
ajan
posiada
koj
largo
/8
}@
segala
▁profile
テレビ
nieku
dición
ोड़
▁Colombia
IK
▁Frankfurt
▁gene
Class
árias
minggu
ÐoÐ
Kevin
ި
▁Ҷ
▁பி
יחה
▁universitet
miseks
კ
מנו
zir
▁stal
▁मं
▁charakter
ucu
▁Roh
фта
-36
γκεκριμέν
achat
▁дол
rach
רצו
mss
▁jogo
جاب
ील
dlouh
upload
567.
berapa
▁kazi
▁1975
uatro
▁הבית
▁Федераци
▁السعودية
▁проблема
cur
方面
▁Academy
қат
كي
▁premium
nata
▁бет
▁comen
됩니다
итель
▁RSS
Hotell
模
▁welcome
▁ಸಿ
▁22:4
▁גי
核
感じ
Sun
ността
▁använd
овано
▁Upp
استعمال
ਪਰ
فایل
▁பேச
▁Many
empty
sillä
තුව
скай
مقام
▁wani
mət
▁пес
▁implant
▁4000
جان
202
▁ഷ
ေ
ginn
হল
▁Abdul
▁Nabi
್
phi
(5)
:1;
ভাগ
ининг
۸
▁14:00
без
DN
▁skr
▁сп
lant
▁Bala
▁က
кле
顺
oedd
asemen
ddi
lever
ίωση
▁bois
▁aw
▁मान
▁шаар
▁Wedding
▁Andrea
ců
▁полі
ண
▁peri
ešte
▁норм
ਹਾਂ
abili
kiri
▁117
dvendig
▁ಚಿತ್ರ
▁edə
সূ
Blog
йт
▁ret
τικής
▁Jed
ický
цвет
▁прием
▁Try
▁दा
atasi
▁skór
آذر
pdid
political
▁fana
▁2008.
cit
▁jardin
ေရာက္
174
▁Интернет
vragen
▁neza
игра
lmost
čení
arm
▁Customer
▁arrest
▁регул
Yu
▁poc
VD
eşte
▁porad
▁használ
▁medi
▁Admin
‭
耐
▁gul
ාව
▁ღ
▁пор
SHOW
подготовк
terima
JM
他の
န်
▁podatk
和值
▁ypo
ρων
▁Neue
1080
三级
стане
אָר
pareja
elesai
действие
съ
▁Руси
μό
129
▁kép
920
▁Kari
custom
resume
Mon
henne
%8
▁Cuba
▁lupa
▁børn
کیل
jad
▁rue
▁싶
▁凯
▁показа
▁dun
ALA
▁fail
ninu
gren
▁تصویر
gày
▁komfort
▁metode
heller
эрх
▁Java
igis
124
ந
全球
rí
وله
▁stránk
▁Luk
▁#6
▁Earth
▁متر
▁vær
▁perder
றி
▁doda
▁fed
ingure
▁tarvit
বাজার
▁consist
▁душ
እነ
entlig
▁무료
பா
עלה
emand
▁Corp
ਰਹ
ælge
liš
▁आई
▁មក
ங்களை
▁eğitim
arla
▁pies
▁개인
נוע
-27
▁கூட
计
ຈາກ
ujte
ическая
асці
/6
▁hår
▁Mall
pagbaba
▁qh
पति
职
昌
ವರ
▁ہوں
رکت
ät
stellung
работать
▁хә
yka
jit
Back
erakhir
▁kasva
▁CL
▁veril
▁تست
▁партнер
정읍
чение
▁Фото
רף
▁race
яг
▁Cell
بعد
▁median
тгэл
raf
stre
▁Hang
▁এস
▁countries
hid
עתי
pụta
determine
هفت
▁مطال
▁SIM
▁random
həm
ாத
在线播放
IOS
सं
नेपाली
关于
اج
υσ
йде
▁football
▁Jeho
jeun
▁Quan
.44
▁trabalha
▁Ул
መን
guns
uche
▁Gross
▁ఉంది
▁навч
done
quí
▁membu
的人
களின்
końc
ambo
berlaku
▁Şe
▁روا
aad
nari
alert
mėn
▁تج
..!
versión
dahulu
imp
vest
случай
ໄປ
కుండా
▁કા
కోసం
גון
▁родител
wszystko
▁numur
auteur
▁Booking
JK
עצ
ด้าน
lā
Webcam
られた
φρ
▁gud
▁مال
طريقة
IRG
چن
▁Тр
▁Haupt
▁rosa
arrera
▁Dai
ļā
4-
▁contest
wind
ruhan
eľ
▁Horn
Rumah
▁ребенк
▁ajut
دام
▁electro
50.000
▁izin
으면
▁Council
▁भर
▁dau
▁Vitamin
bog
免费观看
ക്കി
试
رته
នឹង
shed
glede
ביא
▁Jur
كبر
▁tash
▁ჰ
върш
ניק
▁Tea
kjo
лд
▁nélkül
penas
июл
်
smi
▁vozi
zut
▁Bratislava
يدا
▁znal
പ്
וין
כלי
stelling
ified
▁Tang
iciembre
انہ
еше
Spanish
tuaj
সার
▁kerta
▁għa
▁breakfast
ਨੁ
▁വീ
fald
▁өн
▁kona
zeker
дете
▁সম্প
рік
kalian
odo
කා
▁kalite
▁Janeiro
gga
▁λα
▁사이트
իայի
▁செய்து
▁ekran
▁CU
oor
(4
změn
については
gad
वन
стране
etje
VV
أث
ONA
▁empe
ಪ್ಪ
ຢູ່
letto
-60
talaga
▁stre
teng
▁hilo
▁Beitrag
▁1945
seo
▁રો
▁bitcoin
abilirsiniz
▁ಮೂಲ
fj
▁kunde
▁locu
▁дизайн
playing
▁бал
▁leto
▁πι
gå
▁wonder
וסט
▁सद
ģ
ქალაქ
▁Republik
▁Sá
▁pressure
╩
▁රති
▁continuar
خطر
▁protected
నం
ੱਗ
▁NC
▁அதிக
▁Apartments
不可
のお
自分
ial
▁Çi
ఫ్
▁internationale
▁Monat
דיר
▁relation
▁FIG
ћу
ISS
ניים
▁aprob
选择
لوازم
quatr
▁disponible
inha
Flags
▁producto
▁gid
שט
mena
odd
kuru
皇
れる
bilen
▁bran
ída
īm
":"(
үүлэх
جاز
ZG
fecha
▁Кур
▁teu
ġi
▁кан
▁Rating
lga
וי
écurité
enean
teman
niño
هر
inch
▁مرت
ђе
▁enam
ihen
▁Henry
חור
DJ
ΤΗΣ
स्या
▁ប្រទេស
vodu
▁165
ங்கு
▁UTC
lú
maakt
ም።
serem
Kon
▁Deep
▁dl
АҚ
▁privad
OM
دھ
▁(16
▁käy
▁चौ
▁σχολ
▁театр
dän
ແມ່ນ
▁wit
▁listen
hā
stin
ejf
▁profund
のような
Inter
▁hesab
מל
bez
▁comentarios
133
▁шарт
مو
saját
▁اوس
образования
leder
vaan
▁predstav
▁prev
▁magazine
기에
שאר
cional
קי
▁پاس
▁Modell
Welcome
”,”
▁γυνα
▁Ep
▁stadi
חברות
▁애
bokep
wag
gebied
ابتدا
▁информации
▁döne
boga
▁moviment
▁cambia
αρκ
چک
واصل
▁ಭಾರತ
자가
ẵ
чан
▁Сан
əcək
▁သူ
blad
▁moo
middel
ätte
gadu
있는
法律
?」
▁sorti
בעלי
▁ಕೊ
▁SSD
▁Аб
dzień
▁рассказ
出会い
cadre
σεων
▁говор
▁Μά
▁тот
ucun
탄
množ
otten
ADE
背
père
▁Record
しない
▁cafe
usted
▁mahdollis
Ọ
כט
▁discount
▁Буд
▁फे
kurs
нік
lhe
rile
řej
yah
▁حا
▁hoog
▁பூ
電話
▁deyil
▁cant
▁методи
ŭ
不要
нового
▁1978
▁samle
RJ
begyn
▁Kate
▁Govern
CAT
▁Avenue
▁filmi
▁Yoga
加工
▁הל
palabra
▁আহ
▁godzin
▁Dansk
wert
▁ontvang
undan
▁Album
KAN
ம்ப
▁геро
▁Queen
ಳಿ
▁කියන
鲁
▁සේ
▁Perfect
吉林
gehör
vare
相談
▁implica
▁тал
јав
▁гро
んです
keta
όλι
▁peli
તર
losti
රණය
herefore
▁Wand
インチ
Yamaha
▁კონ
ъде
ավար
ION
▁Rück
▁ekonomik
тоимость
▁obr
قه
hó
▁opinion
▁abri
▁Mora
dret
افت
ส์
ап
اتصال
್ಯ
Torino
았
▁гост
СЃС
层
▁Bé
▁prost
даа
▁turist
ели
▁қолдан
acqua
▁offici
▁ап
Bahasa
wollen
/20
šia
▁پڑ
ခြင်း
▁comple
006
ワン
ագր
Telugu
читать
▁conseguir
האב
алтын
▁dép
حين
சு
XB
▁נמ
ιαβάσ
damage
▁व्यक्ति
realidad
엔
▁সাম
vald
یاب
與
スター
علاج
লাম
Hvor
czny
▁insanlar
weeks
جماع
▁રાજ
▁prostřed
▁يست
zás
вол
auté
menor
՛
▁carbon
lur
679
▁Vit
▁Suzuki
092
同じ
ทําให้
یو
ையில்
▁hazır
spôsob
▁освіт
("#
1.6
нуть
▁بندی
▁ҷа
▁lager
▁Mono
steder
קול
lub
ўйи
▁pakai
pujcky
▁artigo
amine
TF
▁סט
ندي
Vis
مار
▁resulta
egar
сля
そ
▁shar
لان
ját
பு
▁ਪੈ
YI
▁occur
عظم
127
handen
▁написа
마음
▁previs
▁ປະ
ције
Setelah
द्ध
dada
▁yli
大会
кат
([
GAA
ल्म
▁उत्पाद
hotels
дек
杨
▁quali
sent
交通
额
只有
App
旅
▁bakteri
▁Coco
تهم
ටම
ொ
thumbnail
▁succes
▁πληροφορ
json
вило
呢
ציבור
▁நல்ல
ماده
▁సీ
口コミ
にして
▁tarix
▁Football
普通
Kh
ähän
▁qara
άνει
▁दिल्ली
التجار
madre
▁Şi
내용
hotellet
vý
hậ
मद
приклад
▁ສະ
aime
rra
▁projects
Hyundai
▁(14
205
▁εφ
sul
яе
▁Nick
svilupp
carrier
▁коментар
▁उत्तर
gruppen
▁Rey
tores
ينا
/02
▁נש
▁klassi
▁depend
tugas
▁стро
dër
AIR
යුතු
ielä
▁média
唐
ტის
▁pey
▁ordin
dine
пис
него
]:
▁tools
মুখ
▁00:00
▁පෙර
▁Vår
▁sommer
▁Save
cun
actividades
adě
fashion
οποίηση
cycle
ਕਰ
▁132
▁225
▁kilometr
lasan
miny
تجه
значення
īgu
▁Iš
skola
▁pront
áž
ult
ође
됐다
itenkin
用户
ikuti
▁Stil
ikat
ੋਗ
zuen
ström
▁aplikac
nni
▁Rev
ahami
யே
▁ಮು
▁indo
مطالب
ůvod
▁власн
▁Ком
▁تھا۔
▁cop
軍
arı
ನ್ನ
▁leven
Grid
ترکی
κύ
ZD
▁שח
משפח
▁இருக்க
jezd
▁kos
pito
▪
▁publica
▁outlet
▁posu
勝
ویی
创新
▁pís
ogbo
nci
याँ
Where
monės
āda
τικών
▁המס
▁organization
cent
▁ഡ
illi
▁marki
KEY
trê
工事
মত
ลา
医
▁Sach
library
חייב
ез
一覧
juda
올
ලේ
эж
症
ുന്നത്
iedere
zbyt
▁მხ
ናቸው
ركات
▁Universal
LH
▁Bernard
▁خون
شد
▁Boston
師
▁calle
टो
▁clip
Jangan
פֿ
նախարար
rave
ਦੇਸ਼
梅
764
ටත්
▁මැ
▁Fahr
vertical
▁שת
灵
kirina
▁Nau
▁Tid
xí
Adobe
▁musik
▁Moon
▁багато
фер
ikus
orna
rys
UH
▁piat
舞
▁Anime
حرف
사실
ങ്ങളുടെ
tief
лес
Internet
fólk
WG
چشم
qr
גור
▁privi
▁komentar
igkeit
راز
▁Само
viation
▁DS
▁사진
рек
ണ്ട
ingly
sulle
ಬ
rą
▁coffee
秀
▁heat
mbawa
0,0
bûn
BJ
lion
ύο
மு
branding
ρί
考え
▁Driver
▁γι
▁კო
状態
ورد
▁Pou
▁Πρ
Puerto
niti
maksas
265
▁baca
460
▁Дже
)،
cache
portal
بری
bala
oak
szám
ывают
▁Pang
publique
▁گز
豪
ભારત
álló
rasa
发布
నుండి
ሀ
▁छो
▁haj
آیا
දැන්
شاهد
లీ
▁Kina
▁termo
▁Miami
▁taw
▁lesbian
υψ
amy
дегі
▁Directory
jali
架
▁Frau
▁pier
▁Chip
▁Dj
امریک
ヘ
▁Energie
▁Covid
▁beat
olas
άζεται
corp
yard
▁episode
▁Building
lô
▁मी
▁சம
ेज
▁выпуск
ტო
▁methods
ението
Array
▁Arena
▁ola
cover
▁PEN
업체
OX
▁käyttä
र्ड
▁nepo
▁Andrew
▁चि
▁condicion
เน
▁Screen
дал
▁panta
pesan
gă
▁дур
ніж
完全
නවා
▁تحر
Um
bid
בור
▁تك
▁സാ
▁முன்ன
▁quest
▁rabatt
▁keçiril
elijke
ාල
bli
xia
▁турист
▁lys
▁অর্থ
▁Kir
▁arbets
▁Slovenij
ibi
▁منه
浜
мм
eram
▁Ան
Stück
šiu
רח
αριθμ
günü
Tags
▁повтор
▁260
τική
ユ
▁joc
canonical
ظل
▁ฟุตบอล
غذا
onia
arbeiten
চি
범
tube
▁Kak
||(
▁egész
miał
▁Ink
▁Clip
FO
())
▁Тэ
]=
▁Bok
legger
סביב
MENT
VW
▁Bandar
ادت
▁difer
▁café
оказа
▁TN
joint
sinin
-3-
लों
▁сыр
▁leader
adolang
▁Ax
ではない
hanga
зан
-23
šem
▁Belle
▁SS
tiny
Universidad
▁integra
▁akci
▁Ida
▁muzik
▁жет
▁kunder
▁समाज
▁01:0
▁Rud
▁obi
▁sac
▁Prav
▁『
acje
▁UNI
;}.
סוג
vient
-28
vre
ΐ
grij
▁ಏ
هد
tained
mål
▁spus
ાવ
▁család
▁böy
نیم
စု
▁destina
روپ
рах
временно
ክት
פרס
aging
gegeben
imba
▁начина
zku
undefined
lles
sional
画像
طي
▁помещени
most
صباح
edì
kamer
bbi
traditional
▁Ху
NX
▁Xin
▁matu
βαθμ
▁rid
▁តាម
rri
対策
รา
▁snar
!»
סור
▁тұрғ
▁bilet
idu
谈
▁yaptı
ελ
▁gri
وتر
比較
▁меж
קרב
rei
wh
▁puo
árov
पण
llar
etapa
год
जय
▁disc
Ą
▁preven
▁pema
といった
فوت
▁රම
ඩ්
ลีก
έτο
atus
jian
pointer
▁κοιν
atı
▁Movies
▁هز
پا
출장샵추천
вели
▁сў
هان
▁skole
▁antaŭ
פיק
▁pull
▁winter
amentos
סן
▁punct
▁feature
Adolescent
χώρ
家族
▁Gh
étud
▁Παν
іжнародн
üüd
කාර
پرداخت
▁радио
▁кры
طبی
كار
▁roll
ify
NING
▁прави
▁откри
fete
▁Hoa
عشر
ਵਰ
VIP
▁GM
اته
wil
lets
Financial
▁Latvij
▁programs
▁الخط
mien
ព
रु
▁mez
వు
сентябр
▁07:2
eure
▁ਚਾ
zwi
Dla
moni
cate
ęs
▁锛
▁tika
▁CT
nytte
丽
Ә
हीं
യാ
famos
▁medzi
▁Lac
avere
हरू
▁festa
অন্য
▁Steve
▁AZ
▁dob
善
ambay
▁belirt
UT
▁confront
animate
▁kupi
TripAdvisor
▁νε
ична
muş
▁التق
▁Timo
▁pagi
ಳೆ
yib
▁component
blende
ulasan
▁أر
কী
guzi
usług
/10/
ставки
cla
pratique
сила
▁Superior
▁régi
▁Magyarország
وصل
▁VIP
लर
(0,_.
couleur
회사
държа
rlo
ukuran
▁frequent
hair
▁şu
▁Ett
gobierno
▁Middle
없이
▁ඇත්ත
축
vamos
quest
мый
▁Körper
▁Cart
આ
fine
▁хур
ਪੀ
වී
اك
▁Sneakers
▁político
straat
inc
▁retour
isiin
olup
▁хари
QD
ಕಿ
χείρ
écrit
备用网址
stroj
خارج
▁обще
conjunt
▁сад
▁kazan
▁VS
▁liht
زا
▁ચા
▁фирм
break
Erotic
ывает
▁confer
▁റ
▁Сер
:50
▁Цр
▁dieta
▁career
əfə
فنادق
embed
super
нице
aylı
▁Lock
cup
▁Sav
οτέ
今日
大きな
عزيز
▁kosten
kiş
siapa
гледа
marin
▁ամ
sure
іі
ներում
▁Kos
livro
▁Innovation
ಮಾನ
▁verd
▁ول
вед
EH
注意
▁Yun
Para
话
▁moz
▁гу
lwa
▁politi
مسلمان
١
voll
жы
よりも
▁dés
ód
まず
אזור
প্
න්ට
▁Περι
▁activity
▁Plat
ياء
▁Hello
Xperia
▁Rem
ització
▁Oto
ообще
kers
ろ
◎
мови
▁AF
▁Tree
▁Dí
▁techniques
பர்
▁egun
▁Beispiel
קיים
▁kokku
▁147
магазине
▁Franco
▁Active
▁समा
ακολουθ
▁convert
eriya
▁obliga
tela
▁krás
nią
جواب
พา
ැයි
▁Barn
▁imagen
uwag
טון
डियो
XH
▁Major
býva
"==
ייע
veld
▁HI
▁túl
ała
▁громад
álně
▁ചെയ്യ
FOR
▁français
▁Эт
▁дис
▁ໃຫ້
دين
जि
ashi
▁Fax
▁പറഞ്ഞു
▁Ryan
חזק
▁mok
▁develop
▁Edge
atzen
▁Kep
▁nation
▁RO
siasi
successful
өөд
kutan
వాత
୍
irways
avlat
яне
▁anim
tory
ٹس
قف
เอ
▁prakt
lakan
▁Quin
cheats
الله
remo
▁opening
▁molest
▁Beat
técnico
ेंगे
效
ուս
▁nauj
▁جوان
GY
または
gging
بیش
168
იანი
関係
▁ענ
ველი
▁pit
הספר
valo
dda
▁Zin
ești
KF
▁yakın
ുകള്
▁4,5
▁grill
▁қ
eptiembre
بته
▁aad
rif
дардың
콘
▁(2016)
место
ccc
jó
▁hind
羽
ቱን
▁ചെയ്ത
作業
ימי
ullen
ページ
▁pū
変
다는
gegevens
gua
ři
▁GR
▁доход
苹果版
uerpo
▁drop
قدر
мах
▁pras
шим
tano
tyy
▁jól
√
АЙ
▁omdömen
ТА
sza
/12
lelo
▁ابو
ouvrir
▁plane
শু
▁større
ندا
▁pes
▁elektro
丹
ċi
▁conduc
рид
▁dél
▁Channel
▁Joy
bib
▁ដល់
▁Creek
wyd
▁اص
▁initial
भा
スポーツ
▁வழி
anî
QU
▁Chair
نهاد
卖
CCC
۶
▁تعل
полага
ماشین
▁gak
ിയ
ටු
rzenia
▁Latina
ुरू
▁engelsk
ranga
රේ
ದೇ
удың
חם
Cabinet
аси
եւոր
ҡ
എ
ਵਿ
ที่สุด
itud
▁твор
תחת
▁digit
χο
lista
▁sikker
▁Rain
jent
XP
ностей
▁məlumat
blant
提现
ευθύν
季
ზი
ांत
آگ
222
▁Ekonomi
тие
▁איי
▁труб
▁жак
работе
▁siste
▁kong
نتي
pont
ţe
Her
לו
▁Monitor
▁φυσ
▁בדי
▁అంద
▁inge
▁Chan
){.
Алматы
▁Jord
לוי
▁publication
נון
Fernando
klu
▁bagus
进入
▁վեր
২০
▁simptom
/7
程度
▁impre
ভাই
баев
▁Świ
▁صف
තව
▁Hul
hún
▁Clear
▁Gang
gai
ੂਰ
رفة
management
▁krok
dă
▁bild
libero
▁רא
▁oc
ќа
zg
▁كار
▁Pes
žiūr
OEM
때
zicht
ขาย
▁audi
모텔출장
▁کور
▁00:3
▁шүү
ಗಿ
физическ
omwe
מפ
▁Чу
▁koment
▁formal
ңғы
يبة
مباشر
▁এম
▁mire
▁آف
कुमार
حكوم
dagar
فرانس
άνθρωπο
дох
▁رضا
▁tuna
siūl
rwa
▁organism
ൗ
ණි
אולי
رير
▁137
ҙ
▁процент
klas
LX
▁проис
engine
005
cję
muka
▁juridi
ździ
▁kub
وزن
ærlig
▁piedāvā
能够
уються
▁Eli
World
▁delivery
ریک
▁پل
control
▁পর্
▁choi
çant
▁Option
狗
tinggal
▁αξι
пор
▁Castell
რომელ
▁vrst
▁cad
▁sva
▁Politik
▁доктор
▁onge
ාය
▁okt
竹
0.000000000
▁cast
▁Renault
ਯੂ
успешн
▁спец
нак
▁calcul
ждения
▁1974
дут
のように
ganda
emy
ול
▁мө
книги
▁Haz
ոյ
према
징
ительных
▁Hollywood
▁Snow
сом
tej
▁إي
ισχ
ರೋ
所有
▁зуб
▁Ass
▁реал
zení
▁férfi
ദ്
▁diesel
işi
▁sca
kning
不是
▁Лі
Style
▁בלי
otu
llus
▁సా
▁Jane
▁►
орон
厚
ಕರ
vilka
шин
Ve
▁Present
سیاست
RET
čné
פרק
▁Tage
▁cin
μμ
аг
дів
รูป
▁feed
uju
▁ბე
δρόμ
алпы
اله
িকার
قدام
▁bos
Лет
▁መል
сутств
▁aktu
欲
қаро
madan
istic
▁الصف
▁Kenya
情况
期間
drugi
ələr
идаги
Qu
50%
Türkçe
-04
▁gemeente
تن
umus
čná
▁தே
tului
▁bide
▁fica
र्ट
رمان
▁hånd
ურად
wissen
获
шло
▁пови
▁kag
:24
ілі
ملت
ету
onces
▁134
讲
▁۱۳
oir
صورة
▁Pemb
just
▁Display
التعليم
ქონ
Kr
▁Level
ịn
projeto
▁නැහැ
controls
كتور
▁آزم
▁сло
чого
наруж
żo
▁mother
▁1968
▁liga
▁ξέ
▁кри
2017-
▁verden
yote
▁gratuite
čem
ציע
▁feedback
入り
lijke
single
denken
▁bek
brica
พร้อม
▁говори
▁BY
tuh
laget
ි
ෞ
üç
▁Wann
▁Iron
▁бод
ئیس
ாய்
urban
▁напря
סות
preis
управления
▁Strand
▁09:2
kia
conocimiento
teli
liyat
posa
رمز
रात
მც
▁உலக
▁ത്തി
▁Lí
гр
▁Sí
sieme
lze
1.4
öð
콜걸후기
ues
Xem
▁taba
▁ഭ
ដោយ
ισε
▁460
তের
koh
مشک
▁Cri
łatw
▁Month
قاء
▁Մի
أت
urang
▁(25
▁جل
KV
हि
ZI
▁grandi
▁Japanese
month
wą
▁Иван
▁тав
▁siti
LAR
▁wada
場所
urna
Privacy
▁(13
▁Large
▁በሚ
fold
▁singur
sumber
icio
KJ
▁innen
▁Cinema
estructura
قبول
▁නැත
市場
buru
صنع
nesi
ημα
وڑ
дой
skim
▁બી
출장샵예약
গা
▁выда
tub
▁המע
niž
▁comfort
日本語
▁dura
▁בעי
ųjų
celor
▁boshqa
▁SHA
▁kitab
vsem
ဆုံး
▁Ав
▁завод
čnih
round
Play
igita
瑞
药
▁поста
taque
▁Poland
mètre
▁requirements
▁Yellow
няя
langkah
ภาค
utus
▁Jaun
хгүй
▁πρόσ
lés
olib
2.2
entrar
证
▁Sensor
drag
hale
▁traffic
▁Desa
chádza
导
ātr
אָט
8000
センター
roh
ੇਸ਼
▁diskut
мес
▁<<
▁설
▁Pří
डि
▁άλλο
crisis
库
▁ඕන
нок
سند
▁Spiele
ajte
▁نامه
Header
sebb
555
øy
ાઈ
afa
ноябр
Sample
Вот
▁Jay
技
גבי
▁1/4
بيان
ҳол
тә
▁Oli
dors
▁νομ
որոշ
共同
ร์
жеке
աճ
▁сохран
stk
hil
▁morgen
▁מתו
ставить
▁Oscar
▁plán
arklı
▁21:5
▁אש
▁moe
bangunan
əla
▁menge
▁Ley
ђа
▁niez
▁Georgia
▁transmit
▁kil
▁bele
▁Award
▁Peru
▁комплект
▁прид
بیت
▁xan
таж
Full
படம்
сер
tamu
एर
Möglichkeit
1]
▁tó
ودة
inya
enulis
▁исто
outer
▁Santos
▁fho
rios
▁שט
标准
hely
▁Viet
▁baja
▁käi
▁लेख
עזר
غط
áci
änner
Todos
take
▁۳
dado
▁простор
ခ်က္
▁Ces
学院
Room
handa
մի
▁’’
िया
θος
餐
Segund
kende
ıp
▁Justi
育
▁terminal
ぞ
▁prend
福利
িকা
▁Հայ
szinte
ugno
▁rakyat
дов
▁geldi
bangsa
▁مقا
▁hinta
iniciativ
ήρ
sik
▁(17
▁дев
stancia
czej
ЕС
▁проф
출장최강미녀
При
advantage
▁valo
бол
bera
ירט
▁Sig
~~
ZZ
blik
أخبار
ولس
තී
农
дук
రే
▁парти
靴
ƒ
▁Navy
콜걸샵
▁හෙ
염
решения
▁නොව
▁Done
interesting
illy
anças
▁reflect
jai
أعمال
uring
▁понима
سال
wụ
▁қат
顔
Wi
肌
weitere
▁African
opo
lás
▁នោះ
▁눈
▁wame
▁Galicia
píš
olish
öll
▁masse
▁Merci
äre
czę
videos
لهم
▁この
ově
▁نف
콜걸출장마사지
خبر
▁Gai
▁smak
tried
▁አል
下さい
يقول
голов
▁arti
▁أد
יהודי
-45
▁nito
credi
teile
letak
ැනි
▁ထို
▁экан
ípi
▁pok
▁gyven
izing
▁caut
mare
iacute
kord
▁hør
тағы
روغ
نگار
ual
KU
ບໍ່
Bilbao
tora
สูง
kow
▁mele
▁বিশ্ব
ণা
أغ
នោះ
▁majorit
▁chan
▁대표
യം
ንድ
uña
银
ডে
▁nevy
▁Chal
oties
▁فو
berry
EJ
0.1
▁الاس
▁Beli
▁hå
liyi
▁אלי
▁HE
tyck
ચે
▁BB
יפו
▁coach
ака
agit
學
tanah
)))
သည့္
▁Yer
volver
ulla
لما
obowiąz
▁Finance
milimetr
▁vest
▁Maa
علی
TOR
ведение
▁займ
▁Abs
EI
łych
flag
ÈË
containerClass
▁decor
▁अह
प्राप्त
▁ថ្ងៃ
kadang
ถอน
▁Kei
▁mondial
dab
практическ
▁Desp
▁biologi
ăsește
ietet
tags
▁აქ
ējā
▁indonesia
හේ
調査
difficil
ğı
هاتف
▁항공
sino
▁Grill
jās
▁kw
كات
loyalty
δρομ
▁rata
▁Forest
▁முன்
魚
役
▁preto
00000
wesen
amaan
ელ
ины
klass
▁કાર
▁модели
▁pump
출장오피
▁elektr
మీ
emploi
limited
▁выступ
▁Susan
ույթ
.33
▁Пі
▁banka
▁življenj
ikke
baina
▁दर
▁syne
nimo
测
▁1972
чак
▁услови
▁vuosi
二分
मे
▁Vita
ərək
▁conflict
tenido
▁Haut
svg
正在
▁mina
▁Dio
زم
▁centr
콜걸추천
141
ਮਾਨ
▁Twin
동출장마사지
▁ਮਿ
pā
ister
තන
Ρ
ಗ್
Gb
юць
であり
▁ኤ
avimas
介绍
▁scene
/11
VC
الدين
経験
▁yön
▁основа
▁Γι
aturan
▁පෙ
ubmitted
▁hà
▁ٻ
ške
RV
▁фотографи
раб
がない
▁картин
tki
▁трен
reich
▁hát
pli
▁Id
بھارت
▁VW
zionale
ථ
కే
▁roj
暗
▁islam
▁produto
onych
▁kuu
▁prod
overlay
▁Gegen
lings
▁Licht
দার
▁Comfort
:4
▁യു
زده
новые
ষ্ঠ
lha
▁১০
imli
▁eder
Београд
tau
▁traduc
転
bey
áció
▁نوم
udin
▁çocuk
931
▁šport
▁ALL
▁ജന
ьная
▁gin
ંચ
tumia
▁sorg
▁фар
▁डे
▁notes
مخالف
▁Massage
ค่า
▁risiko
▁தர
рос
ीले
ૂર
涓
ґ
llegar
ences
ซ
▁хат
egiata
▁қос
▁mut
▁Ј
politisk
takže
iens
יחיד
лази
▁TS
▁Drama
дем
ubah
▁grupp
stark
▁শিক্ষ
andet
이라는
▁reforma
출장샵안내
iladi
तुम
죠
▁сним
lisa
habitant
டா
ғи
304
▁celebr
PW
▁adam
▁olej
केट
μαι
тога
Availability
▁publi
▁kalb
الی
▁fél
прошл
▁современ
▁میان
▁réserv
▁Drug
▁Aya
▁Results
▁bani
несе
12)
EG
678.
▁rete
egyes
▁studies
hut
ರಲ್ಲಿ
龙虎
▁тво
▁Baj
▁evident
rati
жения
ullam
흥출장안마
▁schedule
按
▁opere
▁personlig
på
яд
osos
eyi
კის
šti
응
▁pelu
▁томо
thumbs
▁матеріал
▁(23)
TES
usan
▁JavaScript
▁Institut
igtig
▁combina
▁hands
출장미인아가씨
▁сказа
▁заклад
▁경기
▁kW
سعود
▁српск
ترل
교육
▁vand
▁прямо
▁sat
شاعر
▁دهند
▁Simple
▁teren
▁llev
▁gry
冰
▁autobus
ชุด
rights
efficient
זי
▁automatis
اینترنت
oki
▁Gö
και
豆
推荐
алы
▁Studi
▁hú
tian
λιο
XO
քեր
▁meaning
plass
nepieciešam
ింగ్
▁articol
▁lamp
▁asia
ujuan
贵
▁versi
출장몸매최고
小时
uję
ファン
increas
▁కో
وء
ités
rnière
एम
▁انگ
маган
bell
ژن
▁cinema
▁salva
act
Ћ
卫
ψηφ
▁необ
▁bali
stanza
therapy
▁الي
▁edition
916
arii
торы
▁Rate
▁Glas
яў
யம்
75%
▁born
▁получи
contoh
スーパー
oduleList
▁පත්
▁brak
شة
▁külön
▁kri
efa
насці
מנהל
tice
▁Taylor
売
▁vote
Cuando
▁느
▁mense
理由
▁док
16.
▁полез
象
ując
▁console
역출장안마
政治
wall
▁1950
▁nx
ebi
▁thank
▁υπερ
▁Chap
▁Alan
▁вак
▁mand
sposta
produtos
gged
▁Stre
rona
फ़
▁1977
QUE
环境
▁symptom
击
YP
وچ
etaan
ላል
2;
▁város
능
260
▁রে
23.
▁rede
▁olema
मुख्य
▁experi
▁CI
▁Children
외국인출장만남
Title
▁pats
ўся
▁haka
アプリ
хийн
▁(24
▁цели
مشروع
▁ansvar
▁Document
▁rodzin
▁late
ֆ
▁hiki
two
출장색시미녀언니
▁nõu
kanske
ität
فندق
òm
tats
ண்ட
нути
ፃ
тър
출장외국인
콜걸강추
quez
势
▁долго
incontri
▁membe
સ્ત
▁Decor
▁περ
출장소이스홍성
▁internal
City
فية
▁קט
▁relationship
ድን
termine
▁Fabric
▁போன்ற
▁света
crear
locales
popup
货
сить
▁прост
属
▁tü
▁Kauf
▁uprav
▁politici
▁outdoor
estudio
üdür
│
▁орында
ећи
▁понят
дает
▁rose
▁wrong
▁pha
╧
仁
FW
вої
giving
unci
▁Bass
garan
scale
यर
ټر
這
เท
▁tana
▁Tower
출장시
▁Schu
ément
▁בינ
▁Deluxe
残
rëz
اسية
▁Kre
besten
ики
출장연애인급
ાઇ
▁Dami
دری
metus
▁sko
全面
októ
μή
▁Prac
tli
antoj
김
▁kone
▁edin
▁CEO
▁الدر
찬
▁സര്
nogo
▁stá
.........
▁Vale
▁spar
▁Platz
ృ
▁yaxshi
▁Exchange
atkan
וּ
▁арт
YD
rta
▁الشع
▁Zusammen
▁Moment
ostí
sura
лэг
▁غل
▁امر
аз
▁foc
▁fonction
▁北京快
ملة
ハイ
2]
▁Marine
▁Fred
▁مشر
▁VR
periodo
▁ук
▁Rá
holm
▁yak
출장오쓰피걸
▁manifesta
▁grav
samt
포항
schrift
▁संघ
▁chip
mbi
▁kari
▁हुन
ব্য
▁tradicional
ън
▁szem
union
▁Luna
პი
Cargo
[6]
ളി
ಟ್ಟ
▁glu
abit
▁қи
▁leid
ช่วย
winning
▁Enterprise
είχ
출장여대생
advertising
출장코스가격
ತ್ತ
▁الطب
▁Crystal
ceb
tut
▁#7
▁Hann
▁Historia
έας
ျပ
तर
▁stav
▁PHP
หนึ่ง
▁කතා
ninc
릉콜걸샵
▁மக்கள
發
ovaná
ydi
▁Retro
บาง
Київ
激
tata
▁programu
ાદ
riye
starting
▁Markt
▁Clean
οδ
ஜி
ington
lności
▁дара
ளை
izzazione
▁websites
தாக
패
овић
vido
σκοπ
qd
▁situat
Ղ
▁праз
▁தமிழ
jón
Asli
моя
출장소이스
руш
elanja
▁നിര്
観
өө
นะ
ಿರುವ
භා
Win
ဖို႔
bliż
▁Bab
ύτερ
▁ಪಾ
ээн
कुल
zīm
slider
associated
stis
باد
hab
correr
▁laut
巻
jek
عية
출장안마추천
lewat
rão
▁gba
ick
सो
න්ත
▁यु
출장샵콜걸
futa
presso
رر
▁Sak
▁исти
▁ustaw
cka
JT
वेश
demo
887
斗
riman
▁කි
▁ekz
ᠠ
▁actu
▁ibi
уари
End
פא
출장샵예약포항
НО
▁discover
ібно
▁மூல
োট
λου
naio
άλ
╕
income
▁ид
stavb
{\
▁sweet
raci
emo
播
VU
▁Parc
מע
обычн
סל
သို႔
司
▁ప్రభుత్వ
compare
nese
▁일본
▁compos
▁citi
έξ
جو
خير
▁Nazi
▁quier
▁1600
Τι
▁тең
وقع
аб
ारी
ஷ
өв
萄
বড়
בק
▁krem
モン
طف
דל
प्रमुख
▁aparat
ellas
▁ผล
نڈ
▁политика
▁haha
takie
خر
▁Ville
▁служ
今天
출장샵강추
출장업계위
▁مسلم
راہ
▁बच
▁taşı
▁lave
▁высоко
▁slow
▁mission
▁kalo
▁1973
řízení
firma
▁Jal
▁프로그램
▁RT
्स
ගය
▁doprav
YU
peliculas
▁priorit
▁масс
dini
Друг
ائب
aber
িং
=!1
ರೂ
FJ
禁
adhya
क्र
טר
bouw
▁pô
▁Він
▁bid
▁Lanka
▁Cad
▁түс
▁diam
혜
нийг
▁praw
պի
미시출장안마
▁flott
ваць
големи
▁incorpora
▁المق
mele
▁Hei
กระ
▁πραγματικ
عدة
naga
iskt
skem
▁Bosch
صاف
imme
众
▁Fé
яват
▁श्र
েছেন
क्रिया
▁kerto
としては
▁русск
καιρ
▁cose
сами
▁carne
දිරි
AW
WP
сек
πή
ధాన
출장만족보장
Ка
keit
feet
ANA
čni
mniej
вания
Od
▁хе
▁aban
95%
▁जे
عمران
▁ře
level
950
출장서비스보장
૫
ுடைய
αλλαγ
▁cria
paper
eksemp
男人
734
rekening
▁Хи
уса
▁बल
ંદ
QS
▁збор
विधान
▁7-
aksi
▁sohbet
▁ਕਾ
.2008
출장샵후기
Remove
▁tän
wajib
▁名前
ಿಕ
стос
▁nove
▁Ari
181
tanda
콜걸업소
▁φα
кот
išče
▁باشند
αυτό
FU
▁தலை
耳
▁περιο
ίγο
Kar
eş
siden
창원
▁حي
▁indic
пан
▁ճ
▁крем
▁verifica
טב
▁ሀ
▁zakr
▁Executive
ኛው
rée
იცი
ಚಿ
▁агент
▁jedin
İR
iaj
▁nosotros
QL
▁Nap
ķ
▁sür
lager
▁шеш
5.0
レビュー
opoi
woje
▁אור
▁hjælp
▁شم
状況
▁Egypt
мова
▁electronic
لنا
iuni
original
▁[2]
zyska
kaum
▁المط
سام
店舗
▁Solutions
▁усил
zzjoni
OV
1.1
▁rozpo
▁ગા
న్నారు
▁stud
▁എല്ലാ
YN
국내
콜걸출장안마
▁juta
চ্চ
▁IA
▁የሚያ
▁למע
manna
año
فع
inas
▁කිය
ভে
here
▁холбо
mela
HN
ыў
▁төс
'',
▁вип
goo
বী
wyższ
maha
▁VPN
▁puhu
改革
电话
▁రెండ
IJ
ദ
.88
▁cheat
лығы
ZR
दै
seks
▁ফি
▁συνέ
▁setTimeout
មិន
▁kada
성을
▁ឬ
িসে
otta
asp
CQ
fond
bringen
▁30-
áme
Може
libat
ваше
▁फो
btt
icamente
▁държав
ಡು
▁grade
▁еже
domingo
چرا
laj
▁Train
новый
Det
embro
Когда
почат
łą
νωση
běr
ание
jini
isser
יער
▁ked
▁λεπτ
ebe
▁Linda
ék
▁sija
Datum
土地
▁એમ
▁1976
prava
▁kadın
▁periode
▁vision
ثلاث
▁sahib
▁saan
درمان
▁איש
▁plastik
metro
हत
»:
Der
▁أبو
manj
▁шлях
▁Trust
доб
ជាតិ
▁miliard
▁shtet
▁Turbo
zón
yə
▁mature
GD
erkait
▁ορ
▁progress
क्षण
λία
▁التن
сяг
rete
dates
▁шум
▁suivant
▁ട
gaon
фо
▁Іван
▁pense
▁mili
لمان
మంది
ERA
▁INC
▁Киев
▁barato
134
毛片
zini
Како
عد
eher
▁tieto
/0
출장안마야한곳
▁Itali
حات
ާ
そうです
▁district
umlah
فض
elis
կը
▁Aan
ૃ
▁sted
▁poti
▁Professor
▁зохи
▁ներ
ولد
止
▁Lima
tša
▁Gram
bug
▁bann
项
mob
▁американ
atividade
kich
▁Lokal
출장최고시
LOGIN
шко
அரசு
▁τρ
aujourd
▁AI
▁Close
່
isan
समेत
олиб
▁Dance
ຫ
交流
ריה
taille
▁mə
항
үйл
▁Paket
弱
есь
▁προβλ
jumā
文章
object
ΕΥ
tuurlijk
▁Республик
scope
ነበረ
▁Že
genommen
zaki
vou
ustu
વાત
▁පිරි
▁Нов
ює
arin
暴
svenska
▁olsun
passen
ssg
▁vue
▁movies
ڈر
▁alarm
lud
Puma
yakin
▁diren
wart
וקר
gesteld
ുള്ള
▁указа
▁использ
▁Ask
▁Len
▁កម្ពុជា
보고
▁پیر
ಡೆ
শী
rire
▁attack
▁tev
نگی
▁dimension
niem
▁Παρα
ārst
чев
▁Bach
▁проти
עש
▁Cé
िता
dą
쳐
▁Pinterest
▁бага
▁UE
बे
?)
inius
aika
▁Temp
▁портал
gger
тис
سوف
хвор
▁Torre
φων
隆
মিক
▁designer
ابط
ņemt
সেন
daran
가는
rozent
▁yarat
tière
▁בהת
▁Gener
ত্যা
oleks
lett
▁kuul
íz
▁ಮನ
imai
pending
▁kopen
▁દ્
▁drag
hány
▁habitu
̱
עמד
WQ
▁Boh
▁pozor
acho
لاب
▁чиқ
ख्या
聚
тебе
▁Köz
▁прекрасн
ፀ
žet
목포
ΝΑ
سير
wane
▁ਯ
լի
folgen
esso
aziri
rendah
▁først
▁Ahmad
ało
▁ಸರ್
commenc
▁времен
▁hep
▁жела
одрж
stanie
IM
▁tarp
▁Oxford
בו
আ
тах
▁смерт
▁gem
dark
▁fotografia
▁завис
▁κρατ
Cor
ጦ
fourni
negative
leider
▁wild
▁खो
ניו
▁балалар
асы
27.
łącz
instagram
▁Sali
corre
▁око
матч
článk
▁270
▁голос
ෛ
▁yksi
▁skill
▁խոս
нул
剤
צמ
▁Bod
lariga
▁Jackson
▁virkelig
ybė
▁मत
▁속
.550
dürf
▁vorb
alkan
ουλ
铁
ಬೇಕು
টু
Volvo
gjë
▁norge
▁stad
▁знае
▁rural
▁eş
▁barri
뉴스
▁דק
▁лиц
rve
ებზე
xw
▁Siz
▁확인
मिल
джа
programm
Shirt
▁Kumar
▁KH
▁Spain
鉄
▁mał
▁wedding
τυπ
قبل
OUT
бал
lyst
၌
৷
ימות
بدن
ፎ
017
▁disease
▁nguy
▁fiyat
▁הבא
Daha
əbə
entukan
▁accord
▁Explorer
istoj
پروژه
বাদ
îş
▁Racing
sec
▁minuti
טרה
▁miljon
अमेरिक
7-
▁kasino
試
▁çıx
▁vysok
ācija
اعتبار
▁पत्र
甘
hade
$(
ātu
izado
▁veni
▁Menu
▁сот
trader
فق
▁பொ
kweli
anas
▁sleep
▁orienta
usunda
கி
ኸ
stamos
έχου
outou
ovan
▁Dollar
▁Wan
walang
▁уви
ล่าสุด
acc
▁muun
ोर
▁نویس
sequence
unar
зори
tenção
▁abu
06.
▁сә
માન
رمضان
маг
介
zos
ისთვის
արկ
テーブル
▁Hero
食品
ත්ත
يارات
imeve
ถ
自由
▁330
águ
▁gjer
Map
Chevrolet
cán
▁kobiet
zima
פק
summary
مې
▁Eb
消
සට
ريد
▁Medi
▁Tweet
lið
hiya
▁Cole
▁suna
batang
ZT
aigh
ttura
яўл
▁fina
zam
dispositivo
▁akhir
igas
uvede
▁отказ
ụk
Consigli
ຢ່າງ
▁евро
▁Corte
၅
ube
ünün
ኳ
▁കൊ
ከፍ
▁fantastic
Tribunal
رضا
ntse
▁لد
▁ವರ್ಷ
▁недо
▁питан
▁aufge
▁wen
něj
▁Prev
▁капитал
zaj
قض
воде
▁benefit
όλο
_1
▁Sole
fire
▁bawa
help
алган
ਸੂ
שוק
▁Cov
után
วิ
pros
尽
▁ചിത്ര
▁produse
appropriate
gie
▁Burg
skich
▁ہوئ
▁ажил
rab
▁07:1
טות
▁נו
ತಾ
විය
▁1969
15.
arbejder
wand
vár
▁sih
▁ಕೋ
▁Patrick
resmi
ภายใน
▁komun
▁дип
▁기술
ਜਨ
▁ඉන්න
▁Гр
xyz
aikana
▁тұ
პირველ
▁визнач
検索
eliau
ология
▁Μέ
gitan
okkal
▁arriva
හන්
病院
▁валют
También
▁лидер
oys
явля
henti
техники
▁tilf
aţi
390
Op
▁jednoduch
26.
▁Ost
GJ
brai
▁Ons
끝
عر
iš
▁cabe
▁bill
ály
▁விட
havas
▁мәселе
▁bes
▁loop
ulement
иста
CU
▁границ
rir
กําลัง
▁rub
▁představ
▁amma
fikk
▁रो
▁yükse
▁vytv
لين
бра
▁Cai
없다
fullscreen
▁පහ
חול
вий
拾
▁Mina
▁Kri
xq
▁സം
▁ਰਾ
▁pomaga
ancia
əli
สุด
▁07:3
葉
גת
返信
jud
agré
τύπ
isci
ళ్ల
岩
гаа
▁[1
sale
▁fala
הוד
ңа
korzysta
ZU
રમ
▁страни
natin
▁Ndi
▁survey
technical
JJ
tho
illas
▁राह
▁používa
υμα
▁düş
جنس
र्व
ίτι
mannen
hendak
دوی
▁ಸಹ
sud
▁Todo
▁Größe
ctus
enangan
人民
▁turpi
▁gesti
들에게
rzy
580
ήσεων
уды
aña
shows
센터
числе
sider
▁selection
▁tagasi
购
िन्न
▁Sarah
pek
▁eman
▁presentar
၉
kým
teurs
ლად
▁Follow
▁ravi
▁kaw
lip
▁RI
▁kitu
▁заключ
ému
ങ്ക
lecht
дії
▁Seg
اشی
läss
tui
sma
voda
▁Игр
izy
▁paid
▁Ori
änder
خرج
▁Koch
▁tranquil
梦
▁nieko
таш
jste
▁равно
▁лу
gba
URI
ద్ద
▁φορ
اسط
▁패
▁beds
▁Samuel
ory
▁Bou
ਪੁਰ
▁Essen
▁অ্যা
ย์
▁nako
▁atsak
yendo
ári
▁spirit
حان
叶
▁Frans
▁silver
ကျ
▁Uncategorized
עיצוב
▁տես
▁risc
▁Napoli
த்திற்கு
▁Cele
▁morte
▁יד
▁dot
黄色
jel
মী
чини
ריק
update
ægt
ark
▁kua
▁Ż
אָל
dka
▁подход
▁anunci
כלו
tzea
▁lapse
kesehatan
处理
kada
▁любим
gelijk
▁тара
rier
▁საქართველო
▁փո
▁ajal
╬
môn
зам
محدود
شام
rako
▁gospodar
tý
НЕ
calc
▁Fre
ಿನಲ್ಲಿ
▁velk
▁لإ
ший
▁వీ
シュ
▁מאי
gą
xy
▁koszt
リア
▁կր
받
▁ақпарат
▁дале
▁POR
▁힘
aceit
hvil
▁promov
▁Artist
òr
ունի
▁Stop
▁encar
▁133
雄
fish
▁Kort
▁furniture
▁Regel
▁OG
▁SQL
▁رفت
sidan
huga
▁комнат
ēšanas
mercato
齐
▁Sono
stående
련
yahoo
▁izvē
RN
仕様
LR
tärke
▁специалист
▁zda
भन्दा
isant
▁Coast
▁Arti
제주도
▁EAN
▁gwa
্ন
▁타
õi
▁2007.
▁гледа
▁Drag
iště
انتقال
▁ਕੈ
▁пари
ruf
tij
▁bruker
EY
ையும்
大发快
▁Days
ença
grazie
жен
▁نب
үл
▁barv
▁енерг
aggi
mums
費用
leng
▁Dim
धन
▁sare
▁Bathroom
سون
▁네
ीत
▁Lö
▁филм
={
▁hō
▁Champions
▁Rd
Skill
ická
mato
throw
richt
шан
▁בחי
▁memu
fach
▁conserv
зда
のも
▁канал
ացի
▁zakon
אב
poner
voiture
pemerintah
២
Yehova
▁ഫ
▁timer
mot
▁sigu
presión
▁Guy
ցել
▁прос
panjang
滑
▁kuji
▁debat
euch
нах
רור
▁Wohn
ثالث
▁kommun
алт
மக்கள்
▁اقتصاد
▁pata
▁кров
नौ
▁negli
pontos
לע
naan
▁таш
▁Leo
Cómo
ندگان
▁Nil
бър
▁dodatk
▁२०७
opp
sys
ਲਾਈ
დან
ላት
تاب
был
groupe
▁نظ
éves
ക്ഷ
▁வேலை
λης
асць
мов
▁pink
vie
ၾကား
יס
rían
Ż
titre
▁τέ
Є
▁žen
כתוב
cola
▁التر
▁behandling
▁hör
▁Release
▁Mumbai
▁Paint
机构
putih
ايات
atul
әт
bunu
▁Никола
ખા
犬
▁Bath
נן
▁Magyar
▁Mein
705
ыл
اري
buscar
ubro
之后
▁Πο
سوی
тите
▁volupt
أنا
jahr
klar
каў
▁ПО
美女
▁Soul
ฟุตบอล
nong
קב
▁ubytov
رائع
▁Καλ
▁vieš
느
▁Gj
ریان
nten
durch
▁iho
故
▁گرم
ысы
ovací
جمل
evol
vî
啊
▁종
selamat
tze
आई
挂
▁राख
სრულ
▁өтк
аның
голя
▁Espa
▁Fus
▁Zna
cento
LK
हाम
veřejn
▁бур
εθν
ckých
▁복
▁spun
...</
lovely
▁Engine
▁sukses
65.
▁yox
erst
▁Кара
ձ
landscape
▁Honor
▁Lebens
▁Mik
slov
.2006
07.
евич
KZ
shkil
və
▁NEWS
rane
pul
तै
264
JC
▁stanov
▁effektiv
ಷ್ಟು
図
▁министр
thinking
極
▁passage
▁Istanbul
▁celular
▁henkilö
5.000
▁вли
κυβέρνηση
▁ספ
jou
▁halu
র্থ
rsa
▁담
тага
▁Bata
(".
ताल
gyéb
▁наруш
▁შ
▁Hyper
▁μυ
ίνη
▁Gift
▁Roj
▁لە
▁BL
シャ
sọ
▁NATO
ucci
رص
功
hum
▁bajar
linde
éveloppement
قيقة
ု
lust
▁minul
ਉ
معامل
▁NH
turut
▁samma
րանց
▁MAS
.22
kään
FY
kamp
вото
▁болды
ונית
▁Oak
▁13:00
▁jew
qanda
TON
стало
rating
daan
pag
▁inclui
ど
лат
▁Application
říspěv
▁երե
робіт
138
盤
다고
▁ау
▁vra
andingan
eixen
▁السابق
rni
絶
nso
soek
▁Johan
▁ከም
▁konto
వీ
ներից
▁وأن
▁models
داخل
BOOKING
▁¥
▁полож
вання
▁Kra
▁kiri
iutat
かった
slu
ụn
کام
یار
studio
▁Nom
dienas
▁Phil
Vol
තත්
▁예약
▁kvar
ුවේ
жал
аючи
кви
▁формат
▁Rui
▁مغ
WITH
щата
indig
▁mma
ела
控制
רקע
reservation
サー
тела
▁Ellen
Վ
▁täi
ುವುದು
კარგ
הול
▁נכ
เห็น
정도
▁ኮ
τού
цене
▁கூட்ட
γραμμα
cou
ٹری
▁Mano
note
zę
حت
ovanja
த்திய
▁بیا
ንግ
ລາວ
ठा
يها
▁সো
▁Nama
▁pā
huru
ٹو
▁كبير
▁nema
▁GL
▁Rok
хой
アイ
▁கட்ட
▁คือ
Об
مشاور
णार
เจ้า
මී
▁kanal
▁Fuji
17.
▁gö
▁miljo
оборудования
▁podob
под
▁тра
▁Lyrics
forbindelse
▁Ig
ਕਤ
ότερα
islam
▁Tay
▁приход
aľ
▁sofa
ilkan
▁вече
ਾਇਆ
лок
časn
施設
▁persoan
ছাড়
▁πιστ
▁efficac
▁Ир
▁கை
RH
▁Elite
▁Эр
▁Melayu
▁Dortmund
(5
ग्
▁шығар
બા
xu
Day
தற்கு
自己的
▁фу
▁Fal
шение
िव
▁universal
anlar
ವೆ
ၾကီး
▁Course
טיס
chito
2","
▁कं
्यु
aving
▁funkci
▁့
ēr
▁Amp
Ciudad
▁WhatsApp
utang
ук
इन
▁Cors
▁neuro
esie
Response
్యూ
итися
bele
hlas
deel
NES
.78
▁liitty
جاج
вялі
مشارك
Since
▁Acer
ált
сучасн
▁చిత్ర
結果
rette
Unser
kasi
ドル
現
▁RUB
klare
ゲ
▁пациент
rano
▁Велик
▁அரச
▁посет
ମ
▁أق
▁tilbake
▁ferie
▁Бір
▁κό
▁уни
▁полно
▁rink
▁gaba
sjekk
climate
azo
ersedia
чала
▁বো
▁Ř
varit
ाको
ously
kino
▁bygg
売却
▁medium
2,5
ώματα
พนันบอล
iston
acheter
點
NIA
の中で
娱乐官网
جم
▁स्
เร
سا
▁poku
FLOW
૧
▁представител
ацыі
ává
BOOK
itus
▁ಕೆ
▁шта
▁গো
φόρ
思い
▁permis
-39
▁fór
usage
▁байда
▁(«
▁سای
▁gross
gruppe
dhur
лож
ову
410
▁magn
бора
гиб
▁важн
اغ
puebl
direction
percentage
カメラ
▁Haar
▁convoca
ക്കു
▁turun
ੈਂ
赌博
▁Geschichte
ੜੀ
▁mh
셔
МИ
게임
llones
ngono
▁reference
▁고객
▁صفح
760
▁Robot
▁εφαρμ
▁#8
▁Natal
జి
▁yolu
ලෝක
▁Helsing
▁rob
FQ
▁execut
ICO
▁zawod
改善
hall
овете
▁Tours
▁Bols
bác
лаг
▁Απο
νων
ကား
▁ര
նական
moving
नु
▁911
мога
负
စ္
▁Clar
+00:00
▁الرئيس
▁acontece
▁casual
▁12-
cen
▁Hog
域
giat
▁Figure
انية
▁התח
الإنسان
▁Kommune
▁regn
cmd
וועלט
▁৫
дъл
indra
őbb
Tout
limi
▁remont
десет
跑
▁politic
خط
▁Απ
▁гарант
▁Lund
дог
asca
▁قم
haupt
సర
▁devices
adı
уч
жид
einde
▁obje
dalam
▁Vie
놓
quem
оплат
essu
▁Did
▁සිට
ಹಿ
ستر
▁отправ
رسم
▁documents
▁ארו
▁BER
kiego
▁Rin
τηρ
▁kultūr
▁facilita
різ
▁cua
ショップ
ন্দ
počet
іў
sore
▁сли
▁בתו
▁aid
▁chwil
lica
новых
lokale
▁împ
▁Letter
vlastní
nult
łoż
▁Transfer
▁хи
▁keb
▁použi
▁স্বা
μάτων
ästä
umba
▁Jer
polo
ጀመ
▁култур
ders
广西
hele
▁боль
▁poet
456
میں
mtu
丁
пада
owana
ላቸው
▁стен
spread
ovým
▁(25)
itel
ювати
ંત
OO
▁בחו
ধা
▁sisi
etten
▁Pine
▁Amar
fly
▁හි
▁neve
менш
කින්
रोग
erin
gün
ліч
▁Taka
Bueno
້
冲
ству
▁Stephen
▁Osman
araw
▁locali
▁gaya
▁развива
▁inner
▁સે
амь
યોગ
▁រ
▁conserva
▁Kaun
▁되
qiq
ቤተ
203
RES
▁servir
ლები
ભા
▁rendszer
▁कॉ
▁karne
møde
▁сбор
▁Том
살
feliz
bund
šķir
-08
戸
▁የማ
▁vun
amme
..?
പ്ര
حصول
▁Кан
يلي
гэд
ећа
▁Ев
ట్లు
▁sole
رایگان
において
уми
Scroll
Berita
類
▁доставк
cius
ગા
lərinin
negeri
▁snabb
giovan
▁المنتج
▁wohl
▁Venezuela
ቅር
▁الرياض
▁мира
Service
ევე
▁promet
▁Санкт
enga
သည်။
▁zdroj
والي
▁Awards
Action
株
▁separa
▁znan
pengalaman
液
رین
區
▁almen
ację
功能
रिया
ngkang
▁23:3
פש
チャ
νης
رآمد
obj
▁وما
ヶ月
certo
egne
צרי
▁Bergen
օ
lux
紹介
층
kart
▁Kö
▁Songs
▁okul
QH
▁5.5
キー
غرب
▁Klima
▁даст
امج
841
ił
ths
дум
سوم
/24
דאי
▁abord
දර
▁નિ
▁gott
hith
UI
tomar
▁अर्
▁عب
▁użytkow
Facebook
asse
▁Roger
通販
裏
▁バッグ
تنا
▁prevent
▁Час
罪
ındaki
ССР
ባል
▁marti
głos
▁Valle
apte
urah
یاد
έλε
свет
ушы
▁converti
▁тре
ندو
bambini
હે
ования
дро
ධන
▁Klub
▁quin
料金
енні
YO
▁stør
լիս
▁աշխատանք
ţiei
▁mwana
פנים
ină
شق
/1/
▁መስ
▁Eks
▁wykorzyst
▁տարած
▁җи
1","
talan
▁PD
▁interessant
قطر
ਇਨ
逆
▁Нав
तु
multi
▁העל
куда
▁δικαι
benefits
revista
itta
iese
1.8
▁әс
Nya
मले
Nj
gė
़
ڀ
▁tulis
▁вод
杯
دون
▁крас
▁mani
▁Қо
special
▁Nell
gute
▁Ши
cabo
▁страх
tiko
▁Nei
▁Bewertungen
▁Wit
▁байланысты
ingine
優
▁00:4
ція
shu
טש
ško
▁күр
טוב
maja
科学
▁buka
▁Brian
West
されて
taget
▁daya
▁datum
▁başka
▁ubu
тој
▁télé
ారా
zig
hê
▁fej
енная
lainen
ensä
▁өк
ናት
Samsung
ahau
aweza
▁Conse
コース
фар
עצמ
տարի
årlig
▁Μη
שבת
login
における
klif
၄
occasion
dzieck
▁gyvenim
▁πλε
جاه
ליק
▁қилин
▁Nar
▁காரண
▁मूल
▁기업
▁때문
925
edited
bereich
體
plicații
▁elektronik
ච
INA
.11
▁hrá
:11
పార్టీ
ాలను
ੁਆ
▁Amateur
भर
▁skip
▁нем
ლ
obierno
آنلاین
věr
▁Ferr
ander
ieť
稳
▁sentiment
▁138
▁وج
ը՝
▁warto
xon
▁Ні
vw
اصلاح
五月
تاح
Тип
▁оқы
传奇
klā
▁optim
高い
▁galv
IQ
epa
▁cabinet
▁clas
ුණා
έβα
radh
CY
▁superfici
紙
ghan
▁ткан
šim
▁יא
hanem
حافظ
OG
ылып
▁Pari
ුදු
high
phe
510
reuling
mulighed
বিএ
puesta
대통령
▁Cita
mend
009
▁호
7:00
郎
न्द
breast
వే
▁vali
аюць
▁scor
skolen
▁pieni
リフォーム
ashtu
▁учеб
מבר
▁HDMI
▁Irak
▁velik
вај
▁kru
ובים
▁idej
019
▁arbejde
▁тепл
ината
Adresse
▁MC
68.
提升
ős
enberg
φίλ
जना
▁09:5
jami
김해
686
ëm
ரிய
मै
255
▁Recht
კა
660
دية
をする
মের
দায়
вих
▁Alpha
▁ಕೂ
ٿ
▁hiss
▁administr
ערב
▁Police
sidebar
πορεί
ISO
системи
▁conc
יקט
▁geliş
njem
arti
▁сна
ائیں
LW
enero
▁131
▁voll
▁kunst
נז
桥
148
▁ഹ
▁ให้
▁হি
▁wai
ລ
▁comune
▁බි
ющих
▁kirja
▁טל
КИ
▁Finland
หลาย
రం
தில்
Fr
Running
akt
తు
Div
すれば
▁Kl
ائے
▁Filter
:8
▁3.1
९
Bán
▁Бор
211
ije
恩
לון
itian
▁arrange
wyn
ruh
▁слуша
▁interessante
▁кошт
унда
▁hao
ΑΡ
▁rich
басы
skipun
анын
支援
сында
iwe
υρωπαϊκ
aĵoj
Pu
▁lā
нда
তৃ
▁Bes
▁visite
dė
víc
▁zło
EO
▁мастер
▁gall
▁magic
krevet
상황
▁Gaming
IVA
▁св
▁chair
▁sebelumnya
baran
healthy
776
опит
ΤΟΥ
portion
כוח
ระดับ
לער
▁kirin
rage
kenapa
▁վերա
▁Ў
dies
ኙ
顶
ijā
iller
бур
▁घो
▁financ
▁கே
והה
క్క
▁สําหรับ
▁Gör
▁Kati
doua
زع
زي
ллоҳ
▁beauty
▁valu
скую
wahi
αδ
▁широк
семей
SY
▁kwam
এ
mix
▁حی
뒤
▁vaj
ției
▁memoria
ຈະ
semble
091
▁sapien
層
430
および
lne
পে
لاک
არა
тып
▁תע
rash
YX
▁trust
cial
▁muert
propio
▁követ
▁օ
▁gerçek
ΙΑΣ
▁ریا
anuari
૦
արգ
▁verme
▁Edward
父
еб
▁అంత
më
▁Analysis
▁eco
▁glob
▁политик
ヌ
혼
ads
らない
gama
пу
▁Sind
▁zap
ամբ
دأ
bai
เกี่ยวกับ
pesquisa
ਸਟ
▁terület
▁Mic
kau
րե
▁Né
rën
/2017
▁أح
taro
Ě
▁баг
▁ਦੁ
ინ
▁ké
koll
评
▁कोर
เปิด
YY
meli
▁grond
▁Свет
▁후기
өт
▁คน
Euskal
▁GBP
▁Baca
xb
▁ομ
▁እያ
▁solicita
emi
▁rare
ağı
▁propi
▁ἐ
▁ජාත
siyasi
انت
тели
-1)
လုပ္
ገባ
hiago
▁Legal
xing
plataforma
▁fam
ΣΗ
Booking
λια
▁Kamp
▁Öl
က္
מחשב
ети
leaf
▁విషయ
▁Culture
认为
houd
▁Its
▁លើ
▁ਮਨ
▁tē
mic
жок
▁strength
▁Dra
▁sym
্যে
▁EST
▁mesi
▁Hua
oyeur
김포
Resume
169
▁Dame
▁mesaj
וג
▁leik
▁pru
andung
haps
▁185
▁приложени
▁appel
واض
Start
▁dejting
▁soda
钢
āciju
snad
baut
oca
tře
える
▁زا
Ber
▁offen
▁Patent
▁Qo
▁прес
▁өл
rath
ıldı
245
社区
ضر
иялық
235
原因
▁cable
licher
elig
団
▁figur
ked
όλου
bold
צח
ظيم
чо
vern
vidéo
▁регистрации
ক্ষে
▁персонал
個人
▁plak
wszystkie
▁سید
politik
▁prezzo
tinci
akan
βολή
rero
کي
ənc
▁qualit
▁Lag
▁legend
arme
▁debut
ología
▁ბი
▁عز
/11/
aître
gunaan
▁izb
日本の
ишга
معرفی
▁onderzoek
volle
▁Pré
óvil
▁դա
aljon
שן
▁allo
28.
▁München
płat
carga
▁aurk
တို့
same
Off
Բ
▁déb
ρού
だけで
▁اشت
広
▁сервис
KC
▁povr
▁നിന്ന്
▁নিয়
▁11:
ılması
440
▁critic
▁agama
нын
▁resa
mesti
ಳು
▁Balance
নিক
eus
▁escrit
▁kontra
זכ
выш
ending
▁grab
कता
ארבע
▁11-
▁SF
▁spal
ΡΑ
ច
▁valam
darbība
صدا
hlah
ivat
▁Erfahrung
দেশে
mera
range
oamne
лина
nais
▁نمود
ගල
norme
▁Xo
▁muslim
طلق
▁respekt
▁скоро
kový
YB
کنم
▁verso
nale
Level
piękn
odèle
▁slo
▁ट्र
venes
▁fon
マイ
▁פאַר
хона
▁век
وفر
▁தன
qar
ਇ
▁nutri

▁গা
امین
▁1967
nąć
▁tilbage
શા
myself
▁மே
▁дит
Soomaaliya
▁mahal
▁password
köy
▁kesk
Salah
▁Москв
Да
▁슬롯
▁popula
▁Jazz
amenities
דו
точки
राम
แห่ง
ොත්
vče
plă
ρκε
usp
èk

wsh
结果
▁meme
істер
▁prijs
παθ
άκι
mila
libri
يري
احد
дата
рина
▁bă
▁الكل
முறை
▁пиш
根据
▁بودن
▁пле
شرح
vista
pression
▁Nic
میت
ські
opis
улы
luj
वादी
▁hapa
▁доста
АТ
▁Adi
keskus
חזר
tako
minum
ailleurs
ghe
នៃ
▁italiano
ဗ
▁gl
▁atom
Luxury
ከል
XN
ntar
▁gjen
▁mieszka
▁ദ
▁полици
▁wereld
▁legisla
▁Cos
مجموعه
tojų
▁fh
▁פרו
▁finance
医療
kina
سکتا
▁අත්
тврд
▁EURO
▁hadi
▁lou
▁00:5
▁posterior
тро
hundred
▁Polis
▁wod
041
عج
mik
cado
▁pria
သွား
unan
▁богат
▁Holz
رشت
-31
bú
▁स्प
▁dodat
▁باش
▁сигнал
▁کردند
klo
▁хабар
ege
ств
▁mening
▁dream
▁retra
รักษา
▁Sweet
کھا
samsung
▁segur
stack
ბი
▁india
ciencia
NM
▁Corre
чать
imene
▁mw
▁raw
míni
▁погод
inchi
belakang
▁데
plats
laiko
РО
représent
单位
▁국
▁creat
▁149
response
▁Legend
▁näi
▁организ
зия
▁Ireland
andra
▁gana
రోజు
KEN
тно
HERE
siger
▁desarrolla
क्स
▁giriş
😀
ေလ
τρ
▁lika
τω
σι
努力
▁participat
:25
перед
▁מוס
kowe
ģi
▁కే
מח
▁zakup
ంట
ələ
▁charm
ðar
ಿಸುವ
▁Št
▁Cut
▁RC
増
▁खि
▁lisa
જ્ય
156
▁мета
▁schema
၃
လူ
JO
▁0,00
▁mic
▁тарт
EAR
▁Vej
ကြီး
ੀਰ
โลก
inform
難
erii
▁yoku
حب
ством
פעיל
▁దా
operasi
คิด
▁Dani
▁σημ
113
▁Repair
▁فت
▁push
sports
▁neh
▁இன்ன
▁Seiten
▁Coffee
苏
asis
2003
lace
نواز
▁دول
họ
▁Pirm
асында
▁personen
dakika
Ụ
ੰਤ
غر
گست
ище
-2012
▁всичк
גות
лаар
文字
laku
培训
requires
ätä
ASUS
したら
wiem
▁тас
chal
රය
▁stopp
בול
▁тэм
▁Мари
▁мах
وسی
zł
▁Люб
▁Рі
ÔÚ
aalada
هایی
ਰਾਜ
оне
دید
یزی
▁viaj
ις
dens
levet
/17
सँग
▁کول
ไม่มี
▁rejse
bula
Turkey
▁Bella
haere
SEN
▁dificul
Light
▁vej
されています
▁ներկայաց
▁celle
Media
ēl
លោក
▁ust
▁እየ
pela
▁rgba
యన
▁svensk
احل
▁soud
▁વ્ય
▁մեծ
קרא
▁oso
ists
▁alter
▁szint
▁tj
▁205
맛
gesetzt
uria
غیر
чку
QI
tale
cinia
▁Ве
▁Pani
▁Copa
eit
▁(23
▁Experience
▁voyage
275
▁Indo
▁DPH
مولانا
Asus
прав
▁чак
nick
teikt
πλή
▁CPU
베
عراق
▁брат
▁basta
നാ
Each
GCC
▁zw
لاس
▁Solid
orci
674
τές
▁сақта
▁التو
▁gras
▁stuff
▁koha
▁nő
▁సు
▁bone
額
▁hast
iddi
ione
▁acce
ძლებ
Mat
▁ក
acara
▁Radi
فير
territorio
ological
ટો
▁operator
▁168
Pablo
▁ҷ
îr
▁locale
تش
▁grau
тна
▁приготов
kirja
rende
uak
wajah
gebracht
دات
verwend
▁extr
▁управ
▁tikr
SON
虎
▁MM
hina
ಎಸ್
!!:
basa
绝
анда
érez
▁challenge
▁Diagram
固定
увањето
tenzione
즐
不卡
ीद
▁koš
▁qytet
▁компані
▁Inform
▁Deposit
▁jawab
▁09:00
onye
▁줄
nth
ggi
▁tard
elche
▁Lion
▁концерт
▁amplia
▁운영
▁હા
▁Kvinn
gaban
mostrar
▁ति
亮
وران
▁წარმო
▁الأو
liegen
siamo
laskan
▁Medicine
▁Mundo
▁ξεκ
صوت
택
831
দ্র
tatt
empi
▁սահման
▁budo
▁Privat
▁1971
แม่
gues
application
▁வந்து
ático
减
innig
allow
дания
▁Суд
▁əl
льше
قية
лийг
▁Item
gadā
ekerja
▁χλμ
▁Saba
одним
araan
▁disponibles
ပါတယ်။
▁Ас
straße
giri
いつも
▁nedo
▁Pac
spół
▁รับ
uuta
▁contrast
私が
aði
maksud
寒
ITO
wedi
lekker
▁plano
▁۱۰
lova
aknya
ttiin
eck
▁Switch
What
▁институт
▁Hän
尚
付け
▁Αρ
▁Vé
▁Yorum
▁genre
jy
үй
▁deklar
بير
▁editor
▁hija
ительные
▁开元棋牌
تصاویر
▁выра
▁нека
មក
JH
悪
▁elements
▁148
prod
▁pů
▁bout
۲
tunk
Республикасы
▁'/
észlete
jung
▁blu
▁login
...]
ذي
.56
▁moh
▁Lyon
onga
▁necess
dama
4°
▁CHA
▁session
обра
وك
▁добра
▁surprise
▁Mela
dois
▁pid
▁GE
λο
zeer
▁NJ
▁shka
ነገ
ואת
enig
рэ
▁Designer
ык
▁ello
òl
更多
ック
sef
araha
ہد
YK
/">
▁vintage
▁hayo
一次
▁мъ
Љ
வேறு
▁fand
пыта
уу
office
▁ръ
▁Је
▁CHF
კვე
धि
ჯა
フィ
▁vais
aoga
ποσ
erbeda
▁proteg
▁trob
▁Й
عدالت
qə
▁jár
람
当然
谁
▁dansk
賞
הצל
▁සම්බන්ධ
аваць
лды
나이키
▁szól
کان
▁Кам
첫
municipi
нова
▁அரு
▁Syn
▁אויס
INLINE
▁мебел
▁منت
▁leder
жі
фон
લિ
ゆ
əsinin
▁Mua
closure
velit
▁Cy
▁açık
තින්
odpowiedni
look
λύ
▁cut
شمال
我的
erviços
▁Jacob
▁technique
toon
▁menang
Больш
▁რუს
бя
תק
เรียน
чил
წევ
▁Fran
wishlist
DAY
лж
▁økonomi
rust
▁руковод
▁Production
imbo
▁06:5
узе
իվ
に対して
מס
ुक
توق
4.5
נצ
▁коп
▁Го
KN
▁Kla
રણ
▁двор
▁പേര
▁varia
▁инструмент
怀
▁^^
ใคร
▁ponto
▁اللي
র্ষ
▁Mauri
kken
நாள்
▁poja
dok
varias
ಠ
āti
▁РЅР
czyć
صغير
query
тив
▁şer
▁Wai
刻
કામ
დევ
QT
podjet
kúp
צאות
▁Rich
HTML
▁책
▁madrid
မာ
neet
▁larg
▁Bla
▁Thor
▁обла
ық
151
▁วิธี
▁Angli
▁ಕನ್ನಡ
ReplyDelete
경주
속초
sætte
▁برچسب
ould
юсь
शत
▁gad
غل
▁اه
panel
▁მის
pper
contains
ዳን
预
wadi
edge
κίν
eerlijk
زام
яться
▁প্রা
▁Ри
▁Lok
▁κιν
▁voks
स्क
▁gewe
уверен
▁bari
両
vano
小说
ूर
▁машина
number
▁פרי
annual
▁भा
poziom
प्रयोग
▁kolay
tool
▁arbejds
ವ್
▁цифр
िवार
▁hap
▁Termin
ינוי
▁Esper
బ్
UAB
رج
✓
prov
▁йўл
cipta
ധി
tras
▁katanya
heng
▁ဘာ
ьми
pse
Saint
Nations
▁counter
▁ತಾ
לאומי
ايا
▁obli
▁לאו
trato
▁éve
ejte
▁Beautiful
▁دید
েয়ার
ալի
ZP
ZB
Unisex
▁スーパーコピー
▁agenda
jumla
▁Jana
سلسل
▁victim
▁欧美
Ма
নীতি
▁мэд
čín
▁болов
채
汇
isma
than
saving
▁îm
▁захи
671
específic
과정
▁Sek
Essay
دهم
Ah
φαν
▁holde
▁cloud
つの
μος
гө
▁Arc
werkt
ұлы
فرق
▁Rou
dende
▁156
▁Yap
▁07:0
幕
available
▁använda
lau
טת
توبر
アル
강릉
ناصر
▁журнал
▁teb
▁asmen
inkan
▁τελ
▁0.4
ขอ
palīdz
دور
▁revi
arah
male
▁declar
▁munká
▁respuesta
▁cr
▁ฝาก
▁தோ
ٹا
מצו
مما
▁திரு
enteri
nipa
livell
▁Raw
craft
▁préc
nev
ുന്നു
▁fle
通常
ಿದರು
يرا
▁стру
▁Dong
▁넘
piero
▁פל
Та
ендә
möjlig
trans
▁эффектив
پلو
áir
δικό
▁hyper
வரை
άθ
▁krij
▁América
▁Kiss
▁embo
밀
سوب
ukwa
lots
nahme
▁വേ
aktuelle
Vše
boda
еле
nų
กา
▁tez
▁Pul
scribed
▁cro
rought
рынк
arma
hre
θην
irim
삼척
▁խնդ
▁עצ
▁pož
▁обществен
தன்
ন্ড
▁jude
بح
▁व्यवस्था
ervaring
nnan
▁Hir
रत
Om
▁zmieni
▁drum
ビジネス
ੂਲ
කම
▁kaka
▁Ante
▁quiet
沢
▁szer
512
▁۴
liten
gono
เกิด
ोना
서는
album
バック
евой
▁intern
gatavo
oseb
λος
▁jina
▁dirigi
መንግስ
444
▁дээ
▁pē
ანი
języ
132
ůj
ግባ
▁ridic
▁приз
antis
ීන්
▁gyermek
浦
एफ
▁tipi
▁tata
▁Alfa
▁dvoj
બી
▁ከተ
Loan
▁தீ
jeve
slå
▁zip
▁Leder
▁оригинал
káza
及び
▁Ike
ALI
хар
▁Status
wad
rtbe
交易
камі
▁Cine
▁నీ
▁Visual
▁rak
▁βασ
этгэ
▁albo
තුර
ACC
pořád
ені
ières
▁মার্
оҳи
สาย
北海道
スタッフ
▁ўт
îya
ბოლო
▁ging
hhh
empio
▁gjel
ално
læng
▁asa
▁التس
tih
ञ्च
สิ่ง
▁Jud
▁Maz
hoto
▁grafik
ทีม
▁varie
ήθεια
marca
ρύ
▁empat
▁Kis
кала
婚
esar
▁Outlet
ವಾರ
业务
▁üst
icky
ুদ্ধ
noteik
প্ত
ושה
ৎস
yx
хэд
maggio
插
balik
▁load
בני
ardo
通信
РѕР
276
bury
IDE
пуска
ARI
▁cé
kommunen
์
чке
قاد
▁įva
sprzedaż
وح
▁Bangkok
PRICE
рения
cenu
795
daag
▁koi
▁pair
▁قي
console
자는
▁mód
Tony
laksanakan
типа
▁exemp
▁โรงแรม
▁rahat
9000
avoid
▁Фа
▁hr
yum
ાન
ण्यात
skab
gro
▁doon
ager
▁налог
أما
אר
▁Vag
dropdown
▁вел
▁Prince
▁먹
▁Мә
treff
▁rett
قبال
▁провед
▁solicit
विभ
ума
ホワイト
借
خم
▁rekord
韩国
ಿಲ್ಲ
▁முறை
▁Երեւան
▁Profile
adó
▁emo
外围
gilt
▁кош
▁пят
▁Мал
fas
▁Hə
▁yanı
▁Tə
▁စ
ລະ
▁gros
ของเรา
▁комбин
roulette
設定
ուկ
wir
suk
هاي
nikmat
еры
طب
خوان
schließ
ιάς
▁aho
կական
VH
Ĝ
▁undir
zapatos
უმ
▁Brad
bahin
mam
▁سین
▁இரண்ட
高校
wymaga
lös
ਵਾਂ
خف
判
▁kend
▁Pacific
ோம்
anan
▁ціл
wide
▁кадр
▁Ej
ãn
▁Авто
刷
▁komma
ају
LET
▁πολιτ
šej
あと
▁közel
2562
ngkap
▁ਵਰ
▁boven
▁Castro
▁Spor
▁detect
▁gav
wch
具有
▁власт
йм
mão
endur
Ol
tə
président
▁התו
XI
ház
▁compost
还有
ural
άνε
означа
ਰਨ
욕
Que
ximo
ரு
ੋਰ
▁wifi
っと
ግር
童
▁processing
ੰਮ
ough
ебно
შუა
▁Eh
▁정부
都市
ท่าน
దీ
പ്പോള്
했습니다
दिए
▁anbefal
▁зон
▁tillegg
ڕ
▁planet
▁മറ്റ
vate
rast
ު
मिति
▁sco
떤
▁Virginia
/]
▁groups
晚
espanol
▁wet
akhirnya
juan
▁చే
▁Kou
ភាព
Српск
نبي
▁Brazil
佳
öv
▁travers
▁പ്രതി
職
گیرد
ಸು
правила
▁Še
历史
zināt
▁kosk
LN
ējo
تاک
кол
▁सुर
▁aspekt
▁Regi
וב
خش
▁152
▁Wak
▁출장업소
ည
ገል
▁verir
[7]
0.3
ующие
▁intelligent
▁Phase
223
زال
▁آهن
▁ease
nju
▁fjern
уб
▁Messi
βί
nivå
▁Andreas
▁asegur
갖
შინ
▁bha
▁Fle
əyə
नको
άτω
▁शे
▁Alma
ээл
▁stora
▁dili
▁Pula
▁červen
तात
广
lahir
▁1940
daļa
▁активност
提高
▁chap
دولار
▁దీ
▁Mort
tanggal
mega
ngan
▁государств
ukung
ieht
▁ingres
ንስ
رګ
▁hund
▁01:4
▁асу
arian
▁Sigur
▁दिव
▁жам
gte
бен
▁വെ
यान
▁Automat
▁kuto
▁soul
वास
luas
meg
isoa
▁kuva
šla
▁sə
진주
тый
지를
説明
čast
maggior
sje
פע
लत
adə
▁linea
бөг
etni
▁өзгер
бет
graduate
佐
ച്ചു
▁קרי
▁Sultan
നും
cards
▁huku
frame
Gujarati
understanding
XY
▁domicili
▁plats
lita
альні
ူ
муниципал
oxy
▁ຄວາມ
schema
▁ország
τροπή
▁άρθρο
adequa
گار
භාව
ڇ
▁rev
▁Salt
sprechend
сат
μο
ಂತರ
վիր
dán
зня
ेड
▁livr
▁لر
uno
עליו
公開
opera
▁Vida
▁cyf
what
expérience
asto
ละ
ٺ
이유
人的
crédit
▁Wah
iswa
▁നീ
▁dlh
ग्रह
реєстр
▁CAD
minst
ার্থী
สาว
eya
▁lug
milik
――
▁ára
▁ozi
TAC
mıştır
▁Dic
있어
രു
พอ
developed
პუ
oil
韩
bing
лице
▁יי
▁қау
වෙයි
fla
ليون
▁시장
契約
▁කොට
▁Fei
ார்கள்
원주
ිලි
களும்
ملي
ႏိုင္ငံ
bali
obí
▁באר
මෙන්
:6
בלת
▁strand
▁кезде
WEB
urat
лэх
▁kolm
Zapatos
ernes
СЏ
ျပဳ
▁interface
▁ਅੰ
バン
▁litr
▁риск
kje
▁kullanı
уур
лого
ခ်
sikan
▁Talk
▁teles
تركي
▁маш
zęsto
ralık
Users
тир
▁Blau
▁devi
сини
South
bizim
▁Ҳа
cran
מקצועי
▁યુ
biri
νό
жно
▁металл
حسين
应用
જન
صحيح
▁ваз
▁sebenarnya
აა
▁минист
IES
have
▁yes
zb
זכו
▁зад
▁observ
▁одежд
پشت
crític
▁waki
بوع
બર
プラン
моқда
Bank
▁weten
▁voe
volte
008
▁прогноз
կին
čných
週
upper
▁reng
▁lives
indu
希
▁espe
▁зараз
tých
ılan
పా
meuble
▁aile
▁মহা
▁മെ
▁Foll
/2020
자의
▁1900
▁асыр
ppr
▁layer
ہار
dida
▁natuur
开发
▁১
ावा
▁پاک
ทํางาน
effort
欧
ייַט
neho
▁المه
何か
▁öğren
Αθήνα
▁बज
▁úd
lies
едно
Tartu
▁Nepal
▁있었
リンク
▁Ion
▁Гар
صر
جلد
ettu
▁neki
cinta
াজার
▁przeciw
▁médico
▁hels
710
Power
▁გაი
alone
ڪي
தம்
υξη
▁Fresh
pływ
tecnologia
岡
▁bruger
ilir
rasi
多くの
▁كا
.$
ቹ
▁раст
▁Tum
iter
▁vegeta
▁originale
тых
移
චාර
ப்போது
指定
เบ
indah
▁තු
▁channel
ഗ്
randa
obec
▁Putin
альное
▁controll
alité
вайте
▁corri
▁kny
▁веществ
Group
eien
kò
that
reset
ляет
তর
▁guitar
ingat
▁Akademi
妹
činnost
▁ಬರ
هداف
guru
щення
ahu
▁saam
▁protect
▁القي
333
紧
ેલી
nub
ிகள்
changed
▁Три
عود
ႏွစ္
▁Dum
▁վերջ
žel
寝
ახ
▁LU
▁Dot
weza
katan
▁κυρ
schau
▁○
そういう
▁Universit
៣
সদস্য
▁odpad
▁දු
▁lob
▁NOT
support
");_.
확
▁advance
▁Büyük
▁pais
▁операци
Waxa
mei
▁medic
▁historie
▁Kurt
runga
tail
時計
▁Оп
чий
▁Tue
▁пач
nå
allows
חדשות
۰۰
אור
iyah
štá
▁rating
ುತ್ತದೆ
மேலும்
іледі
▁haq
எந்த
vní
perto
渡
▁preocupa
[3]
▁serial
ribadi
▁reis
▁корпус
IU
▁Vent
▁іс
▁пазар
ач
▁окруж
▁Mä
▁väg
▁tuta
▁ووف
Sc
▁συστ
▁dyr
닌
▁دوس
kota
jonk
ليو
dense
▁Publik
רם
ناک
característica
▁24-
▁Palma
ебя
aș
▁setting
▁novin
ёд
▁교육
RAM
ngati
▁Finanz
źni
▁termina
BQ
كاف
▁കെ
!!!!!
▁Kamera
▁yen
▁twitter
▁ಇಂ
ិ
ระ
καί
tuju
▁loko
▁fysi
▁remed
καλ
▁кул
सच
мс
▁Publicat
▁soc
▁tep
Ek
עלות
هنگ
služby
χη
ودی
vės
を見る
▁gero
ското
►
بله
კო
Ed
түрлі
▁ссыл
quq
▁probleem
▁მან
منتدى
▁ucha
▁лег
copy
一分快三
▁Inspir
吸
تعمیر
стро
այ
ที
circle
معروف
▁поме
nový
▁kriz
ニー
▁мај
▁inaugura
buhay
ística
ndani
▁Petersburg
kB
੍ਰੀ
று
どう
▁вред
▁lehen
参考
▁1.9
ρά
нной
▁भाग
哈
▁Cali
լավ
uș
ਨਕ
▁spill
▁Lodge
sæt
XG
个人
▁Jog
દો
টন
ίσι
سرمایه
كر
▁Петр
quoi
Той
κε
▁ರಾಜ್ಯ
▁₪
czne
JN
689
▁окол
音楽
رست
▁शि
▁Hasta
سوس
INI
zhe
दर्शन
inud
immediate
▁ව්
wydd
ಲೇ
еч
315
ufa
保証
▁кро
времен
▁perc
ító
▁wiki
이를
[2]
wong
tone
Наш
lio
ņ
adidas
tingkat
شرف
աթ
etlen
模式
4*
kö
食べ
▁lyd
ոց
▁GP
Tube
▁provoz
▁vann
▁കാര്യ
▁Pure
▁Heat
穴
βλ
▁soi
pole
säg
دختر
▁Sher
▁Semi
rilis
▁הרי
થા
έρα
Herbal
git
▁برق
144
ስተ
ütle
المزيد
▁===
‚¬
floor
direkte
▁Marian
gwe
մամբ
လည်း
▁kab
▁kolme
▁Versand
ឲ្យ
▁രൂപ
▁præ
יי
▁gyf
arriba
ਿਲ
ғана
റു
gados
olog
▁zah
▁sağ
WO
cido
▁подобр
レス
زين
122
וסף
▁Під
سلامت
kW
رح
▁Moj
会议
▁پذیر
permalink
ဆ
ေကာင္း
▁կան
毎日
▁звер
лам
娘
ھا
reise
ใส่
ọt
하면서
▁طب
▁$4
kroner
កម្ពុជា
伤
ilay
施
holt
▁וו
▁(26)
不断
ZX
краін
gård
ません
▁temperatur
▁Jel
urun
ндан
образ
ಗಳಿಗೆ
▁143
▁Lie
▁заболевани
كريم
▁රා
▁procur
メンズ
637
pura
ències
▁concentra
▁Wu
ဝင္
▁opis
▁reikal
anında
schien
▁Abi
▁görev
улс
製品
-05
618
кт
▁sample
▁fikir
ባት
тили
oyat
洛
▁iom
lasi
ケア
▁המכ
▁Toe
حية
nemos
▁बोल
රිය
vő
နည္း
▁cili
Questo
▁1800
made
INO
kama
odik
ISI
▁Still
minta
▁১৯
гэх
ബ്
▁kvinne
▁Μι
▁employ
3*
136
ери
ನಿಮ್ಮ
▁мобил
这样
gou
▁minor
yev
Cat
allem
letter
▁пора
▁இந்திய
▁146
ümüz
▁Breakfast
▁zasad
웃
posizione
▁Ide
คํา
सद
вільн
광주
ഷ്
▁gesch
сматрива
ction
▁округ
GK
विषय
lata
सु
ТО
פיל
other
બંધ
evole
▁magnet
ƙa
Cart
ඔය
równo
▁Zel
ນັ້ນ
▁toege
hti
▁award
▁(30)
▁comp
lingen
▁hitt
影视
▁каш
▁เรา
Once
maks
▁naz
▁ගොඩ
▁lavora
▁Cons
MW
▁намал
móve
DX
▁Challenge
▁чин
oldal
нка
▁처
000000
atau
▁төл
gosto
аче
לול
səd
نفت
ances
4.0
▁188
▁ключ
نيك
▁octo
ensis
▁напад
▁Ami
алуу
χεται
▁बदल
IMG
▁olmuş
▁ignor
▁webb
AQ
英語
pū
koodi
iseen
▁socia
lægge
ík
▁κατηγορ
Iraq
充
▁Burn
지고
刀
estä
لباس
▁xav
положение
▁Petro
▁изда
antar
ठे
กลุ่ม
/2012
▁permiti
schap
▁(22
벽
zina
▁properties
лета
lengua
▁ബാ
atas
uur
tree
শ্চ
αγορά
ļi
▁කු
▁мероприяти
答
▁сон
pagrind
σή
Чтобы
tória
▁réc
▁తో
Iz
forme
▁potenti
▁tuin
▁نیوز
上的
final
هشت
▁Rest
modo
quattro
зависимост
рөн
▁hinna
▁parce
ించ
wasa
venta
▁комфорт
宿
▁പറഞ്ഞ
▁matka
▁255
ഫ
▁langi
成分
ООО
▁voy
:00
▁Kaya
jaga
▁terren
arbeitet
cq
▁Cruise
▁žal
kerajaan
▁Rug
வல்
▁peru
\'
מער
▁febru
▁odpor
เม
▁ref
اما
▁songs
সের
']
goede
nós
૩
▁mú
158
чек
▁βιβλ
▁inscri
▁utile
aris
dara
เสีย
સ્થ
▁01:2
傷
اردو
früh
нут
▁الرئيسية
ચી
emme
دستور
▁slu
291
▁كرد
րան
▁zin
тини
略
এস
laiku
▁шир
▁funzion
▁тыс
શું
▁DIN
▁τεχν
breve
▁1944
ڑا
▁ABC
বো
spielt
▁specializ
mino
▁βο
▁persoa
ūn
aught
য়ার
Notre
erings
تابع
中文字幕
ಸ್ಯ
қоғам
▁condizion
теж
▁mesta
▁ചെ
pír
▁Salvador
fields
ਸਰ
▁menghi
▁janu
tsev
▁Boots
jim
▁Cars
▁seuraa
▁பெற்ற
▁podnik
▁દે
Hilton
厂
▁תא
争
SKA
ungu
coche
大型
.10.2019
เพียง
روی
обращ
▁marque
안산
मृत
المنتدى
▁kontroll
роб
זל
sina
▁የእ
HF
카지노사이트
balat
ဘဲ
▁веб
▁మూ
ဆံုး
llum
탁
▁Wahl
sala
ကေတာ့
▁Prie
轻
artean
нутренн
▁register
ክን
ganti
▁Elektro
mán
▁посад
tně
▁translate
اتر
チェック
;00
▁tjetër
▁қажет
▁Feder
宇
پوه
yahay
▁ಜಿಲ್ಲ
vend
єв
▁Accueil
▁Piece
Korean
7000
barat
▁베
▁dispar
ğun
xit
skega
듯
業務
陽
游戏官网
▁коле
遠
▁partid
spørgsmål
λίου
lelaki
▁poza
▁Svar
▁орын
lier
▁2.3
תורה
წ
▁кай
▁Sevilla
▁ගි
▁Před
▁аш
▁iṣ
▁කියල
▁العق
öpp
▁zina
潮
cións
Zona
▁shum
▁installation
٣
ገድ
utting
sə
▁ընտր
▁спас
tuig
ojmë
təb
▁Hava
▁pase
▁užsi
▁cot
yg
၁
үк
Los
0001
場合は
ഷ
Jorge
дий
139
رسال
veg
▁dwa
▁општ
בנה
▁geçir
tesis
左右
▁Netflix
▁inferior
▁rú
▁Suome
Left
ბ
▁компонент
▁gap
경산
▁construi
गो
kowa
pts
▁Federa
6:00
▁connection
▁disfruta
事故
154
слав
▁nasled
▁Dou
▁conhec
179
▁Faz
classes
▁надеж
ニュース
▁raja
▁vii
فو
▁fee
▁Alg
iwi
ड्
▁යන්න
▁secund
אינטרנט
ošanas
▁запро
UJ
▁139
danske
Presidente
▁Ня
qei
odob
ത്തി
koniec
355
strategy
▁prez
▁3.2
▁Child
▁новости
vala
אכט
▁сен
ético
▁niñ
▁cí
ຫຼາຍ
eşti
ητές
738
▁والد
树
Instituto
Big
▁једн
will
αγωγή
▁Mittel
ώπ
▁கதை
qida
텐
宫
▁Self
▁Ferrari
▁사업
530
น่า
▁obs
ాల్లో
محمود
released
τομ
辅助
βλέπ
flu
soir
毒
etmek
的时候
تنظ
▁Շ
ljub
▁теб
dri
╗
▁האָ
qv
影响
▁terror
▁ürün
raya
大阪
tado
tog
▁хизмат
تقييم
▁pill
▁Dru
▁ABD
位置
wać
▁नाग
곡
"،
▁Quel
▁cinta
ຜູ້
▁Xiao
ဟ
▁patron
HW
▁vacan
WY
туры
였다
ටික
vente
دیل
quin
درج
передач
▁curios
▁преду
Error
▁WC
▁Tool
▁ҳисоб
prio
▁Kost
زن
▁заход
maj
ळी
ťa
▁voice
obten
afia
αίνει
සක්
▁кат
ісі
▁output
ंबर
цё
ιας
džiu
reven
▁negoci
surgery
▁mom
cases
ingar
▁Philips
SELECT
বন্ধ
▁piş
adik
ヴィ
ंगा
券
▁Quant
ууд
gade
Genetic
wasser
ністю
846
naka
▁grei
▁explic
▁Pá
eventual
▁suce
364
گام
▁თავის
tente
fører
ड़क
satte
▁exp
With
らしい
▁10:
▁සමා
חי
anud
háp
kimi
mizi
034
ឆ្នាំ
保护
رپور
iunea
الب
▁הקו
销售
▁쓰
zona
clone
▁bakar
ávání
नमा
▁2,2
पोर्ट
▁tidur
Grupo
显示
▁Bear
依
样
ಾಯ
▁nava
ień
▁159
▁Nicola
รวม
▁ಹೆ
822
դարձ
atış
▁इत
▁CAN
WL
▁Whaka
▁Equipment
▁పై
kolik
Arial
▁Jugend
▁střed
▁запа
rent
江苏快三
eveniment
ប្រ
дааст
▁expres
ਮਰ
一番
▁berda
一分钟
ικούς
حاج
цов
▁Bhi
Br
▁praktik
opération
▁รุ่น
jq
▁217
Cultural
ঙ
לנו
470
bọ
薄
աջ
برگزار
务
tivi
▁Donne
▁江西
contactos
dymo
▁expos
(0
▁чо
▁շրջան
▁Bug
▁transporte
▁køb
▁техника
কেট
▁kér
IZ
zwe
企
øde
RED
єм
abilir
улар
рата
melding
Request
τρόπ
TTC
tavat
bieg
▁ဘ
▁ന്ന
volut
だろう
skull
▁продукци
▁Hits
▁청
▁doel
▁kei
024
tulo
▁विचार
octob
elə
bru
컴
▁tsi
офис
aban
▁bab
▁Gui
ಿಸಿದ
ளி
▁Comme
▁նշ
יץ
ገን
เอง
▁vreme
Ji
▁Buk
▁açıl
зод
▁кил
▁ពេល
▁investment
Menurut
▁respons
maybe
ていた
wili
rest
▁Jiang
▁informasjon
▁võimal
▁మే
nung
-2011
hemos
ություններ
iklan
▁نوفمبر
▁обвин
cular
ējās
予定
овым
адзін
geval
Па
thology
vement
"0"
ূ
ගත්
Har
▁Reading
▁erabil
-90
穿
ΕΙ
となります
jQuery
▁Dev
три
▁lauk
▁Inicio
▁Hen
▁ভাল
익
▁Creative
હાર
▁1.000
2560
owski
▁Mach
مع
▁850
▁одговор
▁мой
stwa
▁Paw
ysa
▁العلم
▁Kamu
▁panjang
න්ගේ
हुन्छ
ndlela
afghan
sons
bilder
йин
務
ruta
завтра
ивать
▁Otto
тина
mesto
▁promotion
ardımcı
квіт
ың
aldo
bölüm
▁المو
variants
াই
ගෙ
▁exception
צוות
▁Beck
ስራ
▁Cast
▁víz
wyr
ዞ
помага
联系
fone
▁müə
reveal
▁blod
ôr
011
圧
sākum
▁ferment
ניט
▁Dub
France
▁детал
▁8.1
ottaa
▁aura
araka
жить
▁Lim
▁Pana
▁Lage
▁myśl
養
Domn
угаар
▁გე
▁panorama
▁Accessories
▁Sofa
كه
▁Loc
τέρα
ാൽ
欢乐
Ī
▁stare
ምህ
වරයා
chemical
اقد
ਕਸ
▁strada
ште
חצי
▁ügy
လံုး
mpatan
guess
▁сектор
ány
کارت
Œ
▁Vene
כיר
▁प्रकाश
▁Kurz
▁guy
ефективн
čina
años
ACT
863
祭
נייה
▁Ју
pena
lma
նա
▁Polska
nang
▁trud
▁frase
213
▁eset
ஆ
temps
▁cú
looks
ጓ
emente
▁Tamb
▁hra
จัด
uoc
اقل
6"},{"0":"
PX
▁καρ
▁토
සින්
annen
▁каз
peng
▁151
ுகள்
ωθεί
zij
▁Дан
ச்சு
وزار
kta
ԱՆ
▁Við
▁Saudi
▁μηχαν
营
હેર
creto
šajā
▁замен
דק
620
発売
lako
▁እንደሚ
did
▁sopi
▁Client
▁vivi
▁thread
▁sveta
луч
byt
ext
▁সমা
▁médica
▁присут
TOP
▁Meh
રૂપ
توں
juma
ców
vasti
ளவு
▁եղ
azienda
rgan
▁добр
Addition
خوا
ौं
เพราะ
2°
▁көш
악
erfaring
ساد
cherche
Ҳ
▁Jab
▁Сред
త్త
▁consig
ставляет
▁जल
高さ
▁propriet
▁Carbon
▁Серге
▁colour
▁연구
▁Change
▁fei
▁ged
▁count
▁скорост
mennyi
kabul
czą
ettel
amach
naste
▁libera
▁tæ
▁هه
ობით
nosi
femmes
▁Math
▁คาสิโน
mbro
արան
քին
bbs
lav
평택
ΟΙ
▁define
লেখ
ישע
לעך
Ժ
contenu
ādi
▁Kes
▁მეტ
ದ್ದ
▁Sever
▁lw
▁Bee
▁təh
тип
과천
ریم
▁proven
周年
▁ম্যা
▁Delivery
▁Beni
tendo
GER
dste
эди
▁oven
▁workshop
▁тепло
tindak
▁високо
2.000
وطن
14.
δεί
▁Մար
▁leva
珠
osios
ილ
chom
ărbați
ností
βολ
стояние
▁Firefox
▁Dato
日に
▁елемент
▁Gua
snieg
▁contrari
اسان
込み
▁seven
estrutura
▁näit
områder
యితే
आर
▁Mie
කියා
fare
195
▁Мир
▁23:5
▁Future
ncer
ということ
vého
249
▁Strip
▁accus
συχ
embrie
૨
▁(2011)
lais
szego
▁interpreta
vaak
▁Kec
ланд
▁месяц
hani
mál
▁ಅಂತ
▁СА
nij
▁interessa
Semua
वान
finding
▁moter
ujem
▁ամեն
ნების
āls
ጆ
▁औ
▁мектеп
Enabled
ובע
aiga
▁Tus
▁shipping
igba
ugu
ങ്ങളും
▁kuj
sistēm
6900
adet
▁spesi
▁ক্ষ
▁assum
ביקור
ਸ਼ੀ
▁spod
վեց
casa
ائز
වන්නේ
257
▁péri
疑
OY
▁fonctionn
▁märk
▁Πα
োজ
行政
дарга
ාගෙන
/2015
ማን
ግብ
suficiente
лаж
▁Español
dné
▁Стан
በረ
erpercaya
▁Uber
jakarta
▁Vesti
Oh
▁Gob
▁အဲဒီ
anchor
ได้รับ
▁គេ
▁kete
開始
▁Arsenal
ጌ
춘천
unni
licht
пре
cuidado
Sam
▁1901
▁achieve
▁вход
▁ხო
▁yako
gure
tene
▁роб
▁mundial
बंद
▁başladı
▁Eğitim
▁Helm
′′
ходят
ცემ
кал
ੜਾ
מנים
คู่
振
ените
চ্ছ
kurie
મના
abin
ירת
Wy
▁KW
▁شعر
▁tadi
▁stream
कट
▁энерги
ώμα
不同
▁konsult
todo
вищ
िए
guys
Maharashtra
λέξ
▁Teh
▁lini
تخب
▁Rau
tonas
▁объе
tiket
▁invi
wär
ेशन
藏
ALE
bina
출장부르는법
▁규
pohyb
sites
kuten
ચાર
ાં
▁resurs
▁Norte
ppa
▁Haf
বের
medium
哥
/18
පය
庭
engo
ikal
総
▁온
▁достиг
לילה
Real
データ
平均
▁சே
▁wh
▁යු
▁bandar
▁øk
孙
راد
klasse
కర్
▁corp
▁Cable
▁ادا
stejn
▁jum
▁Pit
twa
JD
ન્
АТО
цій
▁constat
▁(27)
познат
אַל
GET
нэр
▁flag
▁proporciona
▁wata
▁poko
μον
فائ
мя
ေစ
▁lost
▁ұсын
▁inizi
ტურ
▁προκ
prej
mír
ujete
первы
enable
▁Mung
740
კავშირ
лез
▁чуд
လို့
▁రాష్ట్ర
קד
▁WI
уц
គ
rès
yuki
ବ
відкри
▁చి
▁Беларусь
의정부
▁fyl
layout
baby
▁۵
illon
ではなく
Япон
klady
DQ
मारी
мур
lep
nyone
▁ekspert
观看
▁الوطن
▁støtte
▁ఎం
▁αντ
mwe
lach
▁ప్రతి
▁прояв
त्यस
orul
erbaik
سية
▁Cada
enger
▁מול
▁Vuo
ธุรกิจ
onda
ντι
▁għal
▁ブラック
▁carre
▁pły
▁главн
상주
924
intura
øje
λους
excelente
గు
▁158
abai
▁витамин
лева
integrated
rings
wani
ulit
ických
ΕΚ
tsatt
5:00
atti
▁imp
tră
異
จน
város
tad
▁nemzet
formação
connected
щен
▁юри
▁Austria
▁генерал
护
载
▁تز
ылды
▁RA
部门
▁السو
Save
peli
รัก
▁ಬೆ
ncia
kém
▁freu
força
▁دین
ména
含
чна
င္
λέ
ások
▁gum
לוח
tawo
超碰
ważn
beri
rež
ASA
Dunia
▁médi
яви
求人
ημάτων
vlád
tiri
▁trov
umiem
skrev
ဟု
▁האו
advice
overall
तरी
HJ
▁Kommentare
▁издели
ehk
ությունները
aiki
폰
בלו
▁erreich
Film
严
▁محت
▁Gam
ಲಾ
▁säker
యా
▁għall
embe
malar
▁Three
▁rule
heart
÷2¬
▁fro
▁veh
▁bashkë
▁rival
▁נק
sap
1024
ਰੁ
ቢያ
ක්ක
Ng
viņ
▁LP
անք
дите
▁luce
▁իրավ
אוכל
포함
▁በእ
▁Voice
wlet
ப்பா
申请
vender
10)
▁Programa
dell
аас
ζε
taba
▁Wine
watan
▁ті
▁ფ
ชื่อ
uksen
Nuevo
स्तर
rynk
▁yöneti
▁Economic
ombo
178
coin
çin
tråd
看到
mang
▁гарга
esco
▁änd
هل
ările
Ẹ
▁seni
аємо
▁06:4
▁Spirit
▁Eta
ләре
daya
lö
ስር
なんか
nāk
▁Toki
وجد
uthi
Tom
esimerk
aldi
▁Dann
surat
▁разме
690
رسی
)&&
突
▁služ
▁speciale
ludz
研
▁نح
▁строительств
▁"/
jaren
emang
क्टर
▁straight
▁Spot
ریز
▁contacto
ដ
möglich
нием
යින්
▁trup
▁xəbər
▁pension
▁holiday
媒体
728
▁vurder
▁ресторан
ฟรีเครดิต
▁tör
ίζονται
▁kati
ਕਾਰੀ
▁culo
irgend
kig
▁Тем
▁trygg
▁kuka
gul
夢
▁EA
関連
▁қаз
جام
tratta
lapa
▁сни
▁خور
\";
важа
"></
▁wer
その他
▁чар
gens
▁얼
Bagaimana
abantu
деть
▁접
▁SAN
610
artista
Tri
ále
作用
▁намер
▁чалаве
▁males
▁NOK
▁cadeau
▁bosh
డా
▁শ্র
наша
UAL
▁पार
вна
▁siap
▁Toto
iedy
නායක
dyn
шчэ
▁Влад
这里
յա
▁actor
ėjimo
వా
fram
▁terre
මයි
▁යාප
RNA
бел
שו
varje
▁pussy
ΗΣ
▁ადგილ
▁kep
rü
▁kandidat
▁YOU
ვალ
▁פא
شاہ
▁Ще
context
eld
─
10%
▁consumer
▁чемпион
uge
ಲೀ
נר
▁ምስ
cli
▁haf
▁kredi
▁apel
підтрим
odloč
▁shower
もある
няко
▁Κα
▁рез
ய்
tenei
▁ਮਹ
சை
elik
▁SOS
ඡ
schein
▁Kapa
nali
▁prov
games
ിച്ച്
ątk
াতে
386
ujud
doit
Alle
▁Αλ
▁accompagn
▁True
▁labi
▁Produkte
module
Mustafa
uzu
Before
eles
CMS
temel
ець
літ
▁klimat
ύτερο
BV
geführt
xan
Opel
▁Hope
tulad
ન્સ
жоғары
。【
▁Мат
▁åt
▁înce
βαση
▁једно
rost
īgas
▁тема
lly
ԱՄ
లేదు
likes
іше
▁അത്
▁parent
频
oase
niso
기업
געה
▁selg
elde
ੰਦਰ
▁Corona
plān
исти
fahren
डर
Рё
νος
▁copil
neb
UR
▁nö
거리
varer
▁Dina
стати
▁tenis
네요
ኋ
добри
aktuell
istik
▁उद्
eshte
▁체
voru
listen
abu
niger
▁Lago
τερη
ASI
▁appartement
істю
▁мемлекет
дав
dov
▁Hau
γματα
10000
milh
▁Coin
cita
iež
preset
ラー
メール
▁Näh
▁Zoom
السياسي
માંથી
mbuhan
▁getir
▁អាច
ince
編集
▁142
▁కి
Mitsubishi
▁Rund
inizi
▁Study
ające
izz
▁Lauren
192
اتها
▁продукти
VF
ლების
":"\
transport
총
UC
رجل
▷
取得
/2011
攻
▁incident
PQ
sniedz
▁Vet
봉
▁পি
idé
돈
▁direktor
ожида
▁vähem
▁Elizabeth
měsíc
ҷо
nthu
的是
▁shun
плата
▁inkluder
ədən
938
ılır
seis
जिक
▁elu
▁выбра
▁mots
▁Bush
▁ನಲ್ಲಿ
▁Porta
исключ
▁роман
▁BT
ίσης
ілген
stal
kkelijk
ブルー
ুক
góð
体験
▁druk
▁pizza
benda
nze
γνώ
▁BLACK
वर्त
سيد
▁maailma
nok
manufacturers
▁масло
▁ગુ
ובר
側
מונה
ւ
录
胸
▁河北
▁இணை
contenido
▁marg
രോ
报告
▁Bors
adir
ब्
▁אס
▁naam
chou
onde
Pas
ਚਾ
परीक्ष
359
φά
urbo
▁Islands
থ্য
▁Βρ
▁повер
adanya
▁دم
querySelectorAll
vacances
▁vär
င်
રમાં
ข่าว
мий
moda
▁нико
пері
yich
ද්ද
කොට
▁zon
▁үйлдвэр
καλά
▁මි
大香蕉
▁Delta
▁հատ
uina
érkez
▁vorm
ஸ
0%25
五分彩
▁homes
▁consent
▁Fine
떻
▁diminu
Файл
значение
▁Сав
equal
Msg
▁кем
ξι
▁територ
carry
ikas
கே
▁קור
înê
▁başarı
ִ
эч
▁Adrian
모텔
▁сэ
Photo
▁141
▁पढ़
▁fint
▁العربي
64,
11)
▁pab
这是
代引不可
īn
値
▁روح
ליט
cipit
▁उठ
Labs
/2008
โครงการ
involved
вибор
▁kelle
zimmer
יולי
▁개발
ήστε
▁Jis
▁заб
ьмі
доо
mpah
▁Ты
හිමි
▁Sites
dicated
▁compri
いたします
▁Platform
никами
▁κοινωνικ
▁xid
ტა
ался
დე
皆
خصم
ettre
έπ
ريل
rike
sını
▁KM
bour
▁Ін
쉬
kék
ukat
FZ
র্
▁резерв
sender
kiam
▁nomi
▁(21
▁Gate
▁обуч
adás
děla
rọ
kien
αρχ
▁1965
שא
awalan
▁scri
▁автобус
RIA
▁hoofd
šov
عادل
chę
▁Ling
GGA
्ध
पक
වු
নী
rýchl
מתי
pq
véd
오늘
ۀ
hadir
curation
▁kinder
اعة
▁Siri
▁lätt
φερ
τοι
ხედ
үүд
▁beslut
持ち
bangan
▁LT
fő
744
IRE
sunto
▁Wen
ніш
நிலையில்
adka
推进
753
בעי
uš
वाला
शासन
▁вирус
366
Ή
俺
sau
▁руками
ndje
冠
plaatst
▁kredyt
▁عاد
▁yardım
▁esime
άχ
▁Cancel
▁shape
Новини
很多
czym
平成
▁ապա
иси
▁Detail
▁gé
dwe
▁Gäste
▁논
▁корис
▁Ned
κοπ
கோ
signed
▁അദ്ദേഹ
시출장샵
نک
уулж
Hoteller
▁ਮੋ
cabeza
káž
ruang
▁Или
سد
▁fant
őt
▁Gris
▁scale
▁nero
▁Nigeria
powiada
980
זק
▁financier
tres
سهم
▁jasa
-6-
▁liet
günstig
▁программы
taimi
necessári
ನಗರ
devăr
φερε
▁dolgo
Van
्ते
╝
▁لک
แรง
▁olacak
Rwanda
▁Haber
hill
ací
▁ishla
gold
apne
anggo
▁faka
дели
ngwe
ះ
▁собра
laid
찰
duration
ancak
pytani
iteľ
▁Kala
▁Timur
▁explore
▁nokta
mayan
華
राजनीति
▁বির
納
▁demanda
roof
تمد
viens
maintenance
▁Στα
这种
157
▁gratuito
▁transforma
ભાવ
▁JU
▁identifica
steps
▁2006.
▁Zur
gelegen
▁Fru
▁நட
rsat
▁טי
saga
关系
ūd
մը
募集
ancy
ryn
ධාර
БУ
▁αποφ
upi
▁seat
លើ
▁21:00
仙
gaz
wak
▁Európ
thousand
مح
റിയ
▁Direkt
scarpe
United
judicial
フリー
дь
vul
▁พร้อม
▁الحق
▁tree
Pod
▁Brun
▁ebe
▁interne
идан
група
▁старш
ád
▁10.00
ήφ
Ę
▁گه
▁geo
isas
▁रु
安卓版
▁анықта
specialPrice
artikol
kpọ
ψει
▁suspend
▁исследовани
ŝanĝ
lån
▁starost
▁Rossi
偷
Comment
গে
妻
עין
ısı
lakat
▁Тре
хь
▁eyes
альних
альна
-07
-03-20
aktiviteter
▁satt
EQ
▁المنا
引越し
erkek
▁מתח
▁belgi
741
iyi
▁wyj
чера
▁pene
Can
▁Sä
鍋
žem
рис
▁တစ္
Zu
▁వారి
ન્ય
trzeb
асос
פעל
▁спор
▁természet
▁vurdering
▁dön
▁Campo
propia
▁հա
splet
▁Добр
":"6005","
commod
▁przedstawi
▁ŝ
▁asal
▁Զ
tinha
مسافر
▁normale
ですよね
一点
▁vold
捕鱼
рім
หนัง
케
▁integral
نترنت
▁$5
▁blind
വ്
▁fru
▁друз
кими
ғылым
▁peti
릭
▁journal
▁Fruit
▁татар
▁변
▁(28)
юр
Fiat
ండ్
налған
కం
ηγούμεν
ೃ
▁Џ
hma
สล็อต
▁protocol
▁Francia
Europe
▁لاس
▁ngan
っています
napraw
lokaci
秘
екс
jām
voce
▁otel
żą
apud
▁կապ
▁Commercial
Avrupa
▁acces
▁Sayfa
▁Trail
▁imagine
utilisation
bide
పి
Other
ထဲ
akin
advanced
Because
▁Connect
нае
usul
▁ভি
▁Люд
sada
▁Index
▁мере
▁уда
万元
▁1941
▁Sei
sāk
علم
▁package
альным
▁quantit
DEN
▁Engineer
كاتب
▁வழக்க
▁Right
āta
particulier
لل
▁VIN
הופ
íř
нести
▁films
▁образование
▁ბა
▁բաց
gena
လွ
cra
ald
▁글
ندارد
positif
zetten
hona
▁भो
▁zbo
▁Lek
▁angle
ראו
拿
▁sker
arra
ניס
مقدم
▁Oba
ΓΙΑ
164
▁palm
thú
▁Sad
Cô
ീസ്
ติ
ngel
јави
▁പരി
inzi
▁Gali
▁paslaug
ኢ
вон
áveis
32.
▁Cristo
開発
▁құра
എസ്
▁кухн
duce
▁Ard
どんな
niam
offering
angang
lî
TAS
▁Profil
▁Basket
ماری
▁elektri
กิน
տվ
▁көн
▁rask
работка
ongan
▁Прода
Svenska
▁முதல
▁Member
▁להפ
ිහි
▁зг
▁shot
uvchi
▁apert
▁국가
▁prodotto
lope
ታዊ
▁WE
があった
къ
Weitere
ರೇ
▁lol
čních
▁java
透
utter
且
graph
▁Sü
▁Fai
продълж
Ikke
▁Hoch
▁PI
▁protec
▁ସ
VY
▁Got
عصر
大人
allah
עשו
끼
▁?????
ختیار
נסי
▁বাড়
▁<3
オー
▁Chef
ауыл
rules
▁Pont
aise
أطفال
věř
ități
ittadin
吴
ျပည္
ганда
▁арна
управлін
▁bygge
▁zam
▁Angebot
၀င္
▁данн
▁المال
ócio
loans
dje
▁paku
klep
voudig
▁αρ
▁Satu
ივ
pio
▁Cook
ppi
▁Nikola
▁korun
kesan
UB
▁талап
▁potr
useful
▁проста
ANCE
čiai
суд
▁사랑
શી
mála
crew
健
gericht
▁предлож
ਮਿਲ
204
▁پول
epi
▁maq
▁투
זוג
вън
ponad
▁Konu
▁bunga
▁API
št
╛
▁montr
▁korting
vende
ေလာက္
தற்
▁lib
▁Pola
991
▁tela
áciu
əq
pracovní
▁gent
lal
př
エル
pasang
.[3]
گری
jati
Рѕ
▁qilin
▁Meri
▁beoordelingen
তাকে
▁recensioni
tarik
prí
▁زی
▁viti
切り
강원
▁nope
迪
anser
мөн
▁тъ
▁αλ
▁Raum
СП
chapter
▁מקו
reported
162
parti
society
▁здоровь
어서
መረ
ït
hrem
▁musica
רע
UY
쉽
allowed
1°
дневно
เดือน
塞
իսի
жин
lék
cteur
ළි
▁Yar
سیم
انع
ジャ
▁Tiger
empre
Mature
▁dev
ిని
арна
数字
Bagi
ூர்
Allow
788.
▁examin
jik
ψεις
rovna
tutta
скі
▁חמ
▁gost
▁Dig
kasa
tiya
▁Ст
ruar
▁‘‘
Размер
▁Personen
wees
▁açı
ευτ
slav
▁₹
させる
வாக
▁שבו
▁негатив
ester
▁Drac
wó
Республикас
▁Rah
כס
▁genere
▁Every
vina
▁дам
caminh
庆
glaub
▁vaxt
▁РІ
▁አገ
▁görüş
▁regal
istif
▁monet
▁பே
tör
388
ringer
Ik
sho
ukan
身体
kre
▁współ
cretsiz
čku
θέσεις
ေတာင္
▁έρ
landa
▁Much
According
əti
hiro
шкод
hiab
▁गिर
▁Ideal
▁мер
horn
▁olmaya
bestimm
▁terve
kelas
jaké
aye
ظيف
AND
▁искусств
▁ਹਾ
▁Seven
▁பேர
▁blogger
▁avalia
otti
▁pokaz
ਜਿ
cosa
יכה
▁Стар
мире
Roberto
Ketu
▁şe
▁Kommentar
▁00:
/16
mysl
▁195
изации
▁fizik
cando
▁പൊ
omat
ujące
이며
▁розмі
▁py
▁12:
താണ്
वित
sının
▁impos
əfər
luat
▁המצ
▁ساختمان
▁Phi
алған
পাত
▁üreti
గ్
onlar
iling
асида
ולי
▁380
Русский
▁Justin
espace
▁Arma
vom
▁urmă
løb
ખો
あの
ΟΝ
▁შენ
▁stats
pharmacy
▁मुद्
вяр
дж
▁geb
etek
োনা
themselves
יוד
▁Pasa
▁milit
▁локал
▁уй
▁annonce
▁klass
議
lahan
άλλη
ussi
सिक
▁Import
běž
Kor
нин
▁medži
kör
ὴ
ranje
From
を見
▁photograph
▁авиа
ומות
връ
ակց
而且
▁ಕಾಲ
▁nima
нного
וכל
۳
화성
▁պատճառ
жение
▁स्ट
ቸውን
ولي
wido
ერთ
דוגמ
абсолют
ורי
▁благо
pili
క్కడ
▁башка
▁ભા
ainak
▁സെ
▁KR
mobil
riko
arias
unud
boek
780
مكتب
▁kwes
polis
UMA
dwar
렌
tige
99%
TED
▁localiza
रोज
▁տար
さんが
▁позици
လုံး
マンション
anci
παραγωγ
Inggris
izm
Ur
▁школа
रक्षा
▁湖北
zing
راحت
▁komisi
sağlık
▁Châ
」(
▁طلا
iuuqt
215
جی
άσ
lüğü
384
ویت
остей
สวย
▁revis
diment
▁glav
ians
▁nerv
친
kerja
kultur
masına
▁Rechts
▁Cina
éférence
ират
▁blogg
▁conte
жат
▁sili
▁זע
▁Гол
/08
epe
baca
▁камер
größ
پک
▁IR
konec
▁Cul
wód
▁शिव
желани
ولم
▁Дом
▁kou
hart
▁печ
råd
reyn
▁וועל
▁SUV
telen
خانواده
FN
▁Кі
▁diagnostic
▁Www
hasVariant
ေဆာင္
শে
▁ເພື່ອ
.68
θυμ
▁Gian
kinci
tupu
▁Ω
ರಿಂದ
▁stone
profile
heavy
دفتر
sconto
zki
▁sicur
35%
▁involv
▁социал
▁hopp
▁жаш
溪
▁yek
ළු
оор
puma
Agosto
Ấ
ર્થ
なる
หัว
▁Furniture
ડે
▁(26
▁seve
দান
гли
conhecimento
843
Sz
▁neo
lassen
▁अन्
styrelsen
үндө
▁Events
131
itoare
ږي
▁Mest
▁பெரிய
ərkə
▁215
▁ПРО
גב
▁china
னம்
▁vere
قر
ဇ
▁ਰੋ
坐
mínk
јќи
▁taxi
ites
arom
ISA
edifici
වර්
▁супер
▁Bain
状
jamo
коў
¡¢
▁strat
Default
obo
টের
agak
183
bridge
රෝ
گا
requisit
ాలి
шов
▁(2015)
ierbinte
▁06:0
ญ
ekben
ਲਿਆ
▁၂၀
zeig
▁AUTO
kazuje
الک
pok
▁சீ
▁176
▁hea
mağa
ทอง
нидан
▁գր
▁yam
▁Wol
intre
▁батьк
oidaan
leni
karan
▁תג
▁Yahoo
索
ætti
▁compara
▁சட்ட
重点
جوان
رې
аралық
▁ფა
▁Vilnius
▁Шар
نصر
talk
ైనా
▁తెలుగు
ÖÐ
▁Animal
ziehen
rip
▁Jedn
jente
ංශ
153
▁TER
economia
ovice
Holding
▁Sf
egeri
част
ebo
▁teplo
▁mamma
▁ගිය
▁Segur
▁funk
▁Ελλην
▁Банк
▁informe
saw
새
리고
▁δημ
scé
▁ўтказ
▁walio
▁Weight
egno
дого
מענט
ङ
sprendim
▁Serra
tornar
▁முழு
/2016
ដល់
դեմ
▁Tara
▁пакет
rick
▁tarjo
考试
nā
aproape
▁потер
▁проход
вши
OTA
ေရ
▁লা
التاريخ
▁republik
▁ຈະ
)【
ソフト
lol
▁Sé
onnées
▁dez
▁atve
▁corte
▁(31)
OLA
▁Мак
Locale
▁вещ
▁Keep
antidad
▁Alu
▁يس
安い
တိ
llisesti
▁rodz
/32
ંક
فاء
▁tomo
වත
ணை
▁informations
リスト
零
عباس
führt
/2007
▁Levi
øj
▁игро
ṣẹ
યું
▁Roo
▁muist
siaj
ಾಗಿ
asının
כע
▁zai
▁سرا
อัน
stico
یست
▁tém
ubi
▁nude
提出
▁תר
θαν
▁encanta
gni
▁çıkar
▁6.5
▁skrive
ᠨ
▁przygotowa
ане
راب
щение
Jennifer
ייס
tës
상품
gini
▁(2014)
bbw
▁išsi
gree
ogno
րագր
▁zdjęci
chsten
مقاوم
▁cuid
Str
чә
def
оци
eid
▁Snap
این
бир
ξεις
вър
▁SUPER
شته
kuma
الصين
сына
пълн
▁Роман
▁neat
▁выс
▁meh
1600
▁таб
ত্য
мыш
▁Teknik
Lorem
animation
▁Memory
лук
Україна
ဒီ
bird
ujących
▁Centrum
▁жой
kati
ियां
あります
▁tasa
पस
ైన
Татарстан
▁7.5
▁distribution
autor
GCA
чного
lelei
cano
GAC
lje
么
موبایل
▁Rua
lnie
/#
▁١
▁wybr
▁الخل
▁Rol
ಮಿ
кара
JL
baren
ΙΚΗ
▁Zip
öğrenci
▁VER
ręcz
▁1964
spite
▁asigur
▁157
▁lin
▁מיל
▁Sobre
ીય
呼
▁gym
▁māj
▁Поль
/19
ರೈ
▁consigli
▁folyamat
▁пото
безбед
ساعد
짜
▁زد
▁வழங்க
▁නව
▁krist
▁Teatr
▁główn
எனக்கு
}],"
▁phi
▁Panasonic
▁Folk
▁zero
brands
だが
اعتماد
supuesto
▁החי
sere
▁1.7
لول
▁Kosten
色情
桃
ழ்
二手
7-8
ليد
▁cyn
dienā
▁kato
▁الجو
jade
▁soli
sinya
ulike
sweise
▁Safety
eating
▁kundër
▁pracov
ukul
نيو
تفاع
fred
рода
До
enburg
编
crise
species
▁Field
laufen
пише
enky
ßt
ガス
mira
▁կո
încă
гаар
əv
****
ntungan
елі
▁oras
撮影
аецца
enzi
ദി
761
placements
rank
wijk
ריב
lân
/12/
▁medicine
ဲ
▁лекар
▁გახ
siad
Apply
られ
8/
kroppen
▁громадян
quid
▁схем
▁plec
▁nën
pendidikan
പ്പ്
ಕಾ
hali
信誉
▁Չ
▁fille
▁(“
lava
▁meri
▁especialmente
▁ör
▁Digi
▁Boss
013
ायक
方は
视频在线观看
яє
embangan
carrer
дыр
▁txa
袖
Ұ
ಾಗ
▁limite
зни
üstü
ární
▁μακρ
బంధ
tent
লক্ষ
povedal
urusan
ተር
တော့
сний
는다
分飞艇
▁Kub
тэл
Путин
▁داری
separate
▁atent
▁Sao
මුත්
▁рекоменд
ssos
▁විසි
▁zařízení
▁במש
ily
adă
svår
karte
▁toh
▁Hom
matrimoniale
اعت
ورود
وير
677
▁wielk
▁înc
ugün
cross
Karnataka
oplysninger
रहेका
593
λικά
damas
▁دھ
▁178
rja
ιακό
αϊ
дзя
ΕΡ
▁Fuck
▁yaşa
ησαν
eert
の方が
ഭ
stelle
기준
▁απλ
măr
▁innova
Diagnostic
▁Gene
▁Kredit
gadī
コピー
ebilir
явление
ወጣ
▁Imp
▁necesar
dze
ाच्या
вази
lete
▁supplier
▁piel
laisia
solid
empel
τιμ
र्म
itsi
сю
▁5.1
▁Smartphone
490
대상
OI
fundit
lərdə
▁مان
hrad
ələri
▁konflikt
دانشجو
義
plads
ಬ್
cells
▁replica
โอ
▁הער
harga
olt
▁Ці
▁Ministeri
▁ത്ത
.—
▁dose
▁trial
качество
▁teacher
ினார்
▁поле
buri
ชีวิต
始
TAT
▁Glen
▁Universita
258
ਿ
ټا
▁Zealand
sociales
环
▁bí
грађ
ең
ซึ่ง
▁Тра
irse
ادات
rep
▁Respublik
стве
ItemDetail
互
▁ढ
тык
ძი
▁ನನ್ನ
026
▁jed
gara
.11.2019
үр
▁апр
▁telefonu
▁తా
kautta
934
cocina
▁Lü
▁ต้อง
▁өмнө
úil
κολ
tragen
ಅ
клон
▁1:1
зин
હિ
เสียง
▁tenta
214
mín
סיפור
WX
▁vem
ไฟ
▁४
टल
▁տա
▁escola
▁Ше
018
▁Ingen
好き
reiche
節
behö
rand
▁konsep
ლება
▁福建
▁Selbst
zuje
▁स्क
מלונות
蓝
жать
eerder
အတွက်
▁necessit
éra
▁संस्था
वारी
ијата
izate
▁campaign
пут
dalka
iştir
سيارات
ulong
альний
779.
ИХ
చేసిన
▁laŭ
step
▁#9
ΙΟ
崎
ទ
ixer
176
szę
▁бө
ਊ
▁envi
سیر
rīt
075
▁fluid
▁(2013)
халық
norte
▁Tiran
ファ
amore
צא
investigation
मला
≥
ībām
setzt
люб
071
▁etxe
tonga
▁acceso
AY
tear
یڈی
▁možno
▁16:4
esto
▁Cari
▁assur
දහ
اير
places
związan
עז
Ց
международн
pria
▁brin
סער
560
▁bost
Pan
inėje
োষ
ДА
kredit
▁кръ
vienot
鳥
ception
èmes
вч
▁trailer
Kód
▁див
▁rohk
▁Liebe
events
মন্ত্রী
៤
enter
▁colon
/15
εμφαν
єр
дій
▁выб
.09.2019
肩
▁Господ
adatok
ປະ
нати
रि
ായ
Greek
▁(28
amici
▁pian
ૉ
เธอ
▁허
▁fotografi
かなり
طاق
▁Lyn
Euro
ална
যুক্ত
▁potencial
ív
かわいい
トップ
▁нерв
лося
▁Hostel
▁Bli
τηση
ворот
▁χρον
ჭირ
▁吉林
恋
увчи
HAT
zov
رداد
▁1,6
▁Sydney
▁Ու
mov
яла
turas
ilən
▁jut
наче
▁sept
zhou
دير
▁Anders
692
ತ್
▁Rim
▁iliyo
bone
ხი
أهل
знаход
omo
▁Petit
óg
▁bless
正式
లాంటి
ičky
ੋਟ
▁profesion
▁Diet
▁Ding
▁дзе
▁asian
sbobet
ibo
sıyla
pital
▁znamen
▁来源
ERS
ضرب
简
Codes
alnız
parfait
wei
▁המל
[...]
